{
    "[PAD]": 0,
    "[BOS]": 1,
    "[EOS]": 2,
    "00": 3,
    "01": 4,
    "02": 5,
    "03": 6,
    "04": 7,
    "05": 8,
    "06": 9,
    "07": 10,
    "08": 11,
    "09": 12,
    "0a": 13,
    "0b": 14,
    "0c": 15,
    "0d": 16,
    "0e": 17,
    "0f": 18,
    "10": 19,
    "11": 20,
    "12": 21,
    "13": 22,
    "14": 23,
    "15": 24,
    "16": 25,
    "17": 26,
    "18": 27,
    "19": 28,
    "1a": 29,
    "1b": 30,
    "1c": 31,
    "1d": 32,
    "1e": 33,
    "1f": 34,
    "20": 35,
    "21": 36,
    "22": 37,
    "23": 38,
    "24": 39,
    "25": 40,
    "26": 41,
    "27": 42,
    "28": 43,
    "29": 44,
    "2a": 45,
    "2b": 46,
    "2c": 47,
    "2d": 48,
    "2e": 49,
    "2f": 50,
    "30": 51,
    "31": 52,
    "32": 53,
    "33": 54,
    "34": 55,
    "35": 56,
    "36": 57,
    "37": 58,
    "38": 59,
    "39": 60,
    "3a": 61,
    "3b": 62,
    "3c": 63,
    "3d": 64,
    "3e": 65,
    "3f": 66,
    "40": 67,
    "41": 68,
    "42": 69,
    "43": 70,
    "44": 71,
    "45": 72,
    "46": 73,
    "47": 74,
    "48": 75,
    "49": 76,
    "4a": 77,
    "4b": 78,
    "4c": 79,
    "4d": 80,
    "4e": 81,
    "4f": 82,
    "50": 83,
    "51": 84,
    "52": 85,
    "53": 86,
    "54": 87,
    "55": 88,
    "56": 89,
    "57": 90,
    "58": 91,
    "59": 92,
    "5a": 93,
    "5b": 94,
    "5c": 95,
    "5d": 96,
    "5e": 97,
    "5f": 98,
    "60": 99,
    "61": 100,
    "62": 101,
    "63": 102,
    "64": 103,
    "65": 104,
    "66": 105,
    "67": 106,
    "68": 107,
    "69": 108,
    "6a": 109,
    "6b": 110,
    "6c": 111,
    "6d": 112,
    "6e": 113,
    "6f": 114,
    "70": 115,
    "71": 116,
    "72": 117,
    "73": 118,
    "74": 119,
    "75": 120,
    "76": 121,
    "77": 122,
    "78": 123,
    "79": 124,
    "7a": 125,
    "7b": 126,
    "7c": 127,
    "7d": 128,
    "7e": 129,
    "7f": 130,
    "80": 131,
    "81": 132,
    "82": 133,
    "83": 134,
    "84": 135,
    "85": 136,
    "86": 137,
    "87": 138,
    "88": 139,
    "89": 140,
    "8a": 141,
    "8b": 142,
    "8c": 143,
    "8d": 144,
    "8e": 145,
    "8f": 146,
    "90": 147,
    "91": 148,
    "92": 149,
    "93": 150,
    "94": 151,
    "95": 152,
    "96": 153,
    "97": 154,
    "98": 155,
    "99": 156,
    "9a": 157,
    "9b": 158,
    "9c": 159,
    "9d": 160,
    "9e": 161,
    "9f": 162,
    "a0": 163,
    "a1": 164,
    "a2": 165,
    "a3": 166,
    "a4": 167,
    "a5": 168,
    "a6": 169,
    "a7": 170,
    "a8": 171,
    "a9": 172,
    "aa": 173,
    "ab": 174,
    "ac": 175,
    "ad": 176,
    "ae": 177,
    "af": 178,
    "b0": 179,
    "b1": 180,
    "b2": 181,
    "b3": 182,
    "b4": 183,
    "b5": 184,
    "b6": 185,
    "b7": 186,
    "b8": 187,
    "b9": 188,
    "ba": 189,
    "bb": 190,
    "bc": 191,
    "bd": 192,
    "be": 193,
    "bf": 194,
    "c0": 195,
    "c1": 196,
    "c2": 197,
    "c3": 198,
    "c4": 199,
    "c5": 200,
    "c6": 201,
    "c7": 202,
    "c8": 203,
    "c9": 204,
    "ca": 205,
    "cb": 206,
    "cc": 207,
    "cd": 208,
    "ce": 209,
    "cf": 210,
    "d0": 211,
    "d1": 212,
    "d2": 213,
    "d3": 214,
    "d4": 215,
    "d5": 216,
    "d6": 217,
    "d7": 218,
    "d8": 219,
    "d9": 220,
    "da": 221,
    "db": 222,
    "dc": 223,
    "dd": 224,
    "de": 225,
    "df": 226,
    "e0": 227,
    "e1": 228,
    "e2": 229,
    "e3": 230,
    "e4": 231,
    "e5": 232,
    "e6": 233,
    "e7": 234,
    "e8": 235,
    "e9": 236,
    "ea": 237,
    "eb": 238,
    "ec": 239,
    "ed": 240,
    "ee": 241,
    "ef": 242,
    "f0": 243,
    "f1": 244,
    "f2": 245,
    "f3": 246,
    "f4": 247,
    "f5": 248,
    "f6": 249,
    "f7": 250,
    "f8": 251,
    "f9": 252,
    "fa": 253,
    "fb": 254,
    "fc": 255,
    "fd": 256,
    "fe": 257,
    "ff": 258,
    "6520": 259,
    "7468": 260,
    "7420": 261,
    "7320": 262,
    "6f75": 263,
    "2c20": 264,
    "6420": 265,
    "6572": 266,
    "616e": 267,
    "696e": 268,
    "3a0a": 269,
    "207468": 270,
    "656e": 271,
    "0a0a": 272,
    "6f72": 273,
    "6f6e": 274,
    "7920": 275,
    "6172": 276,
    "6f20": 277,
    "6861": 278,
    "6c6c": 279,
    "796f75": 280,
    "2e0a0a": 281,
    "5553": 282,
    "55533a0a": 283,
    "6573": 284,
    "2c0a": 285,
    "6869": 286,
    "7220": 287,
    "2074686520": 288,
    "6e6f": 289,
    "7469": 290,
    "6f6d": 291,
    "6c6c20": 292,
    "4955533a0a": 293,
    "6f66": 294,
    "6561": 295,
    "616e6420": 296,
    "746f20": 297,
    "4920": 298,
    "7573": 299,
    "7769": 300,
    "686520": 301,
    "6f77": 302,
    "766520": 303,
    "696e67": 304,
    "6174": 305,
    "6368": 306,
    "4e4955533a0a": 307,
    "206d": 308,
    "2073": 309,
    "0a54": 310,
    "666f72": 311,
    "2061": 312,
    "656d": 313,
    "74686520": 314,
    "6972": 315,
    "6c65": 316,
    "2077": 317,
    "697320": 318,
    "6974": 319,
    "6265": 320,
    "7472": 321,
    "20796f75": 322,
    "7365": 323,
    "737420": 324,
    "6469": 325,
    "6865": 326,
    "6365": 327,
    "7265": 328,
    "617420": 329,
    "6f6c": 330,
    "657220": 331,
    "68696d": 332,
    "2e20": 333,
    "6e6f7420": 334,
    "434f": 335,
    "68617420": 336,
    "746f": 337,
    "4f4c": 338,
    "6c69": 339,
    "277320": 340,
    "7072": 341,
    "6275": 342,
    "7665": 343,
    "6768": 344,
    "68697320": 345,
    "6f757220": 346,
    "6c6420": 347,
    "3a20": 348,
    "3b20": 349,
    "77697468": 350,
    "6565": 351,
    "6861766520": 352,
    "7374": 353,
    "494e4955533a0a": 354,
    "65726520": 355,
    "626520": 356,
    "617320": 357,
    "0a57": 358,
    "796f7520": 359,
    "6f6f": 360,
    "732c20": 361,
    "652c20": 362,
    "3f0a0a": 363,
    "757320": 364,
    "697420": 365,
    "7261": 366,
    "5249": 367,
    "636f6e": 368,
    "656e20": 369,
    "2e0a0a434f": 370,
    "6b6520": 371,
    "7065": 372,
    "6f756c6420": 373,
    "746865": 374,
    "4d45": 375,
    "4d454e": 376,
    "4d454e45": 377,
    "4d454e454e4955533a0a": 378,
    "626c": 379,
    "0a41": 380,
    "6f6620": 381,
    "792c20": 382,
    "6e6420": 383,
    "6d61": 384,
    "636f6d": 385,
    "6c61": 386,
    "697220": 387,
    "696e20": 388,
    "7572": 389,
    "74686572": 390,
    "61726520": 391,
    "52494f4c": 392,
    "52494f4c41": 393,
    "52494f4c414e": 394,
    "616e20": 395,
    "7269": 396,
    "52494f4c414e55533a0a": 397,
    "697469": 398,
    "656420": 399,
    "616c": 400,
    "736520": 401,
    "7468617420": 402,
    "7368": 403,
    "696e6720": 404,
    "6369": 405,
    "20746865": 406,
    "796f757220": 407,
    "657320": 408,
    "642c20": 409,
    "7a656e": 410,
    "6e6f77": 411,
    "6f70": 412,
    "6e20": 413,
    "7375": 414,
    "6974697a656e": 415,
    "6d6520": 416,
    "776f72": 417,
    "636520": 418,
    "276420": 419,
    "436974697a656e": 420,
    "6120": 421,
    "746820": 422,
    "5349": 423,
    "534943": 424,
    "534943494e4955533a0a": 425,
    "636b": 426,
    "74696f6e": 427,
    "413a0a": 428,
    "7768": 429,
    "2e0a0a4d454e454e4955533a0a": 430,
    "5455533a0a": 431,
    "2e0a0a434f52494f4c414e55533a0a": 432,
    "656e74": 433,
    "756e": 434,
    "6d7920": 435,
    "2c0a54": 436,
    "6972737420": 437,
    "4252": 438,
    "425255": 439,
    "4252555455533a0a": 440,
    "68656172": 441,
    "766572": 442,
    "210a0a": 443,
    "6f756e": 444,
    "62757420": 445,
    "640a": 446,
    "2c0a41": 447,
    "6465": 448,
    "6f7572": 449,
    "736861": 450,
    "6669": 451,
    "7370": 452,
    "647320": 453,
    "7570": 454,
    "68696368": 455,
    "2c0a57": 456,
    "616d": 457,
    "7361": 458,
    "6c6f": 459,
    "746572": 460,
    "2d2d": 461,
    "657420": 462,
    "2c20616e6420": 463,
    "657265": 464,
    "70656f70": 465,
    "77696c6c20": 466,
    "6620": 467,
    "61696e": 468,
    "6f756768": 469,
    "466972737420": 470,
    "436974697a656e3a0a": 471,
    "596f75": 472,
    "6f7220": 473,
    "68696d20": 474,
    "20796f757220": 475,
    "6f69": 476,
    "49413a0a": 477,
    "6f6f6420": 478,
    "6361": 479,
    "4d6172": 480,
    "272074686520": 481,
    "6e65": 482,
    "646f20": 483,
    "4152": 484,
    "7765": 485,
    "726561": 486,
    "7761": 487,
    "206120": 488,
    "7461": 489,
    "7468656d": 490,
    "4d61726369": 491,
    "6473": 492,
    "2e0a0a4252555455533a0a": 493,
    "742c20": 494,
    "6f6e6520": 495,
    "646f": 496,
    "73656c": 497,
    "6d6f": 498,
    "626c6520": 499,
    "6f6e20": 500,
    "2e0a0a534943494e4955533a0a": 501,
    "6c6520": 502,
    "676f": 503,
    "6661": 504,
    "2e0a0a56": 505,
    "6665": 506,
    "2120": 507,
    "676f6f6420": 508,
    "207468656d": 509,
    "7769746820": 510,
    "7368616c6c20": 511,
    "0a48": 512,
    "0a54686520": 513,
    "656c": 514,
    "6b20": 515,
    "526f6d": 516,
    "776520": 517,
    "6b6e6f77": 518,
    "746f2074686520": 519,
    "70656f706c65": 520,
    "666f7220": 521,
    "6769": 522,
    "4d494e4955533a0a": 523,
    "276c6c20": 524,
    "6d6f72": 525,
    "706f": 526,
    "75737420": 527,
    "73656e": 528,
    "206d7920": 529,
    "7468657920": 530,
    "0a546f20": 531,
    "3b0a": 532,
    "6c7920": 533,
    "6e6f20": 534,
    "6865726520": 535,
    "6f6e67": 536,
    "7465": 537,
    "20796f7520": 538,
    "2c2073": 539,
    "2774": 540,
    "6973": 541,
    "436f6d": 542,
    "747269": 543,
    "2c0a416e6420": 544,
    "757420": 545,
    "756d": 546,
    "65737420": 547,
    "20746865697220": 548,
    "0a5468": 549,
    "766f69": 550,
    "776f756c6420": 551,
    "756c": 552,
    "6761696e": 553,
    "6f7720": 554,
    "696c": 555,
    "726f6d": 556,
    "4f4c55": 557,
    "4f4c554d": 558,
    "4f4c554d4e": 559,
    "4f4c554d4e49413a0a": 560,
    "2e0a0a466972737420": 561,
    "747320": 562,
    "650a": 563,
    "746865697220": 564,
    "4d4152": 565,
    "4d415243": 566,
    "636573": 567,
    "207468617420": 568,
    "6c6561": 569,
    "0a416e6420": 570,
    "4d4152434955533a0a": 571,
    "3f20": 572,
    "706172": 573,
    "7669": 574,
    "6c79": 575,
    "646520": 576,
    "68616420": 577,
    "730a": 578,
    "776172": 579,
    "6f757420": 580,
    "616e67": 581,
    "2e0a0a434f4d494e4955533a0a": 582,
    "75732c20": 583,
    "68657265": 584,
    "737472": 585,
    "666f": 586,
    "61746f72": 587,
    "706f77": 588,
    "656e7420": 589,
    "7061": 590,
    "77617320": 591,
    "54686520": 592,
    "626f": 593,
    "646573": 594,
    "7468657220": 595,
    "2e0a": 596,
    "636f756e": 597,
    "706572": 598,
    "686f6e": 599,
    "0a5769": 600,
    "76657320": 601,
    "6574": 602,
    "740a": 603,
    "4e6f": 604,
    "7175": 605,
    "6272": 606,
    "656172": 607,
    "706561": 608,
    "6f776e20": 609,
    "6869636820": 610,
    "65737320": 611,
    "2764": 612,
    "66726f6d": 613,
    "686174": 614,
    "63616e": 615,
    "6c696b6520": 616,
    "0a5468617420": 617,
    "486520": 618,
    "436f72": 619,
    "73756c": 620,
    "596f7520": 621,
    "6966": 622,
    "65732c20": 623,
    "646572": 624,
    "6f272074686520": 625,
    "617920": 626,
    "627920": 627,
    "6f6d6520": 628,
    "6f757320": 629,
    "0a4f": 630,
    "726f": 631,
    "6f662074686520": 632,
    "736f20": 633,
    "436f7269": 634,
    "436f72696f6c": 635,
    "73706561": 636,
    "65207468": 637,
    "5365": 638,
    "696768": 639,
    "656e6365": 640,
    "7765726520": 641,
    "656e6420": 642,
    "596f757220": 643,
    "686f75": 644,
    "646973": 645,
    "2720": 646,
    "2e0a0a4d4152434955533a0a": 647,
    "736f6e": 648,
    "636f6e73756c": 649,
    "616c6c20": 650,
    "4c657420": 651,
    "6f6e65": 652,
    "6163": 653,
    "62756e": 654,
    "207468697320": 655,
    "64696420": 656,
    "7020": 657,
    "667269": 658,
    "696e6520": 659,
    "6f736520": 660,
    "6c6c2c20": 661,
    "6f776e": 662,
    "74657220": 663,
    "70726f": 664,
    "6420436974697a656e3a0a": 665,
    "636f6d6d": 666,
    "697479": 667,
    "74687920": 668,
    "69722c20": 669,
    "466f72": 670,
    "6d616b6520": 671,
    "696e64": 672,
    "62656172": 673,
    "49276c6c20": 674,
    "792074686520": 675,
    "706c61": 676,
    "6e6f626c6520": 677,
    "636820": 678,
    "656e61746f72": 679,
    "6d6f726520": 680,
    "3b20616e6420": 681,
    "7768617420": 682,
    "6170": 683,
    "616e64": 684,
    "677261": 685,
    "616e73": 686,
    "74686f75": 687,
    "53656e61746f72": 688,
    "20776520": 689,
    "6761696e737420": 690,
    "4d617263697573": 691,
    "7369": 692,
    "207768617420": 693,
    "63657320": 694,
    "6769766520": 695,
    "61792c20": 696,
    "6d75737420": 697,
    "617465": 698,
    "7574": 699,
    "2c0a42": 700,
    "6261": 701,
    "733a0a": 702,
    "7468656d20": 703,
    "76656420": 704,
    "5365636f6e": 705,
    "6765": 706,
    "5768617420": 707,
    "207468657920": 708,
    "766573": 709,
    "0a49": 710,
    "67726561": 711,
    "65723a0a": 712,
    "2e0a0a564f4c554d4e49413a0a": 713,
    "6d616e": 714,
    "434f52494f4c414e55533a0a": 715,
    "666f726520": 716,
    "707269": 717,
    "76656e": 718,
    "7665727920": 719,
    "7475": 720,
    "61726d": 721,
    "5768": 722,
    "667269656e": 723,
    "206d61": 724,
    "626572": 725,
    "696e69": 726,
    "0a417320": 727,
    "7468697320": 728,
    "4920616d": 729,
    "53656e61746f723a0a": 730,
    "277469": 731,
    "747275": 732,
    "657373": 733,
    "2c0a49": 734,
    "2e0a0a41": 735,
    "6169": 736,
    "696e6b": 737,
    "736f": 738,
    "68657920": 739,
    "686561": 740,
    "2c0a5768": 741,
    "5765": 742,
    "6564": 743,
    "6372": 744,
    "2c2d2d": 745,
    "61726b": 746,
    "2c0a5468617420": 747,
    "696e2074686520": 748,
    "6f6c6420": 749,
    "6d65": 750,
    "2774697320": 751,
    "776179": 752,
    "636f6d6520": 753,
    "6f74686572": 754,
    "207768": 755,
    "6174746572": 756,
    "76657220": 757,
    "6c6c6f77": 758,
    "2754": 759,
    "75706f6e": 760,
    "65736520": 761,
    "686f6e6f7572": 762,
    "207368": 763,
    "73656c66": 764,
    "4d7920": 765,
    "75726520": 766,
    "766f69636573": 767,
    "4d61726369757320": 768,
    "576520": 769,
    "676f20": 770,
    "206d616e": 771,
    "636b20": 772,
    "73686f756c6420": 773,
    "74726962756e": 774,
    "4952": 775,
    "495247": 776,
    "49524749": 777,
    "495247494c": 778,
    "495247494c49413a0a": 779,
    "6164": 780,
    "6c64": 781,
    "4c4152": 782,
    "4c415254": 783,
    "4c4152544955533a0a": 784,
    "210a": 785,
    "6c657420": 786,
    "666c": 787,
    "6775": 788,
    "2e0a0a5365636f6e": 789,
    "736572": 790,
    "6865206861": 791,
    "77656c6c": 792,
    "6c6c2074686520": 793,
    "65277320": 794,
    "4f66": 795,
    "20617320": 796,
    "68616c6c20": 797,
    "69272074686520": 798,
    "646561": 799,
    "49206861766520": 800,
    "706f776572": 801,
    "776f756e": 802,
    "737065616b": 803,
    "656e656d": 804,
    "636f756e7472": 805,
    "436f6d652c20": 806,
    "7320616e6420": 807,
    "636172": 808,
    "74696d6520": 809,
    "746f6e67": 810,
    "746f6e6775": 811,
    "75736520": 812,
    "6578": 813,
    "6e6f74": 814,
    "66696469": 815,
    "6420746f20": 816,
    "696620": 817,
    "207468616e": 818,
    "676520": 819,
    "6f6d65": 820,
    "2e0a0a466972737420436974697a656e3a0a": 821,
    "726573": 822,
    "636f72": 823,
    "776869636820": 824,
    "2e2054": 825,
    "796f7572": 826,
    "6479": 827,
    "61766520": 828,
    "616e74": 829,
    "7275": 830,
    "77696c6c": 831,
    "707265": 832,
    "72656d": 833,
    "6374696f6e": 834,
    "616e7420": 835,
    "67656e": 836,
    "70726573": 837,
    "626c65": 838,
    "6772": 839,
    "4175": 840,
    "6179": 841,
    "7368616c6c20626520": 842,
    "564f4c554d4e49413a0a": 843,
    "7768656e20": 844,
    "686572": 845,
    "436f72696f6c616e": 846,
    "667572": 847,
    "6374": 848,
    "2e0a57": 849,
    "666f722074686520": 850,
    "796f752c20": 851,
    "637573": 852,
    "726520": 853,
    "646565": 854,
    "746f6f": 855,
    "6d6f737420": 856,
    "207375": 857,
    "6472": 858,
    "796f75206861766520": 859,
    "492077696c6c20": 860,
    "2c20736972": 861,
    "6f6c6469": 862,
    "62792074686520": 863,
    "736179": 864,
    "4920646f20": 865,
    "676874": 866,
    "74686f7520": 867,
    "4920616d20": 868,
    "417566696469": 869,
    "4920776f756c6420": 870,
    "3b0a416e6420": 871,
    "6e61": 872,
    "6162": 873,
    "2e0a0a56495247494c49413a0a": 874,
    "206d6520": 875,
    "6c6c3a0a": 876,
    "69747920": 877,
    "746f6f20": 878,
    "3a2074686520": 879,
    "74686174": 880,
    "6666": 881,
    "616e6365": 882,
    "636f756e747279": 883,
    "636f756c6420": 884,
    "636f6e74": 885,
    "73617920": 886,
    "63616e20": 887,
    "757220": 888,
    "74656e": 889,
    "69742c20": 890,
    "2c0a4f": 891,
    "79657420": 892,
    "616e7377": 893,
    "3f0a0a4d454e454e4955533a0a": 894,
    "626573": 895,
    "6572616c": 896,
    "6173": 897,
    "5468": 898,
    "686174277320": 899,
    "706f77657220": 900,
    "736869": 901,
    "206d6f": 902,
    "70656f706c6520": 903,
    "2c0a417320": 904,
    "2074687920": 905,
    "436974697a656e733a0a": 906,
    "697368": 907,
    "277420": 908,
    "4f6e": 909,
    "62726561": 910,
    "706f72": 911,
    "63616e6e6f7420": 912,
    "68656c": 913,
    "6174696f6e": 914,
    "6c6f7665": 915,
    "0a5769746820": 916,
    "616e640a": 917,
    "6d617920": 918,
    "57656c6c2c20": 919,
    "62656c6c": 920,
    "2c0a53": 921,
    "6f6f6b": 922,
    "2074686174": 923,
    "7468656e": 924,
    "206d65": 925,
    "497420": 926,
    "526f6d6520": 927,
    "0a42": 928,
    "677265617420": 929,
    "737469": 930,
    "20776f72": 931,
    "6465736572": 932,
    "6465617468": 933,
    "75706f6e20": 934,
    "6f2c20": 935,
    "6f7567687420": 936,
    "436f6d696e69": 937,
    "6f7574": 938,
    "4f2c20": 939,
    "68617320": 940,
    "6f75676820": 941,
    "626574": 942,
    "6b65": 943,
    "2e0a0a4c4152544955533a0a": 944,
    "686f": 945,
    "626567": 946,
    "20617420": 947,
    "6967687420": 948,
    "207468656d20": 949,
    "676f647320": 950,
    "76656e20": 951,
    "706c": 952,
    "63686172": 953,
    "0a53": 954,
    "796f752073": 955,
    "6c6974": 956,
    "206f66": 957,
    "696420": 958,
    "6166": 959,
    "616e73776572": 960,
    "696e6420": 961,
    "666f726d": 962,
    "4e6f7420": 963,
    "67656e6572616c": 964,
    "6f6620796f757220": 965,
    "20616c6c20": 966,
    "2c207468617420": 967,
    "73206f6620": 968,
    "617474": 969,
    "6e6f72": 970,
    "617265": 971,
    "73776f72": 972,
    "65656368": 973,
    "526f6d65": 974,
    "207765726520": 975,
    "414c": 976,
    "414c45": 977,
    "414c455249": 978,
    "414c455249413a0a": 979,
    "776565": 980,
    "546869": 981,
    "210a0a434f52494f4c414e55533a0a": 982,
    "63652c20": 983,
    "7477": 984,
    "646f6e65": 985,
    "6f6f64": 986,
    "2e0a0a5365636f6e6420436974697a656e3a0a": 987,
    "616c6c": 988,
    "436f6e": 989,
    "6265696e6720": 990,
    "70726f75": 991,
    "77617920": 992,
    "686520697320": 993,
    "63697479": 994,
    "636f6d65": 995,
    "20616c": 996,
    "4865277320": 997,
    "6d656e": 998,
    "68617665": 999,
    "207765": 1000,
    "73746572": 1001,
    "6761696e73742074686520": 1002,
    "637572": 1003,
    "65617420": 1004,
    "0a4120": 1005,
    "6c697474": 1006,
    "696e672074686520": 1007,
    "77656c6c20": 1008,
    "636569": 1009,
    "496e": 1010,
    "2c2d2d0a0a": 1011,
    "61746520": 1012,
    "696e677320": 1013,
    "7768696368": 1014,
    "63616c": 1015,
    "2e0a48": 1016,
    "2c0a5468": 1017,
    "0a57697468": 1018,
    "7373": 1019,
    "7661": 1020,
    "6f6c73": 1021,
    "70757420": 1022,
    "6c6574": 1023,
    "62616e": 1024,
    "436f72696f6c69": 1025,
    "686f7720": 1026,
    "747572": 1027,
    "64616d": 1028,
    "0a5468616e20": 1029,
    "6f6e652c20": 1030,
    "6865617274": 1031,
    "276572": 1032,
    "54686972": 1033,
    "666963": 1034,
    "6d6f74686572": 1035,
    "466972737420436974697a656e3a0a": 1036,
    "66757274686572": 1037,
    "7065616b": 1038,
    "6b6e6f7720": 1039,
    "61747269": 1040,
    "6175": 1041,
    "790a": 1042,
    "7069": 1043,
    "666972": 1044,
    "4e61792c20": 1045,
    "706c6561": 1046,
    "6e6174": 1047,
    "636f": 1048,
    "210a0a4d454e454e4955533a0a": 1049,
    "636c": 1050,
    "6d6174746572": 1051,
    "2c204920": 1052,
    "27656d": 1053,
    "6f6e6720": 1054,
    "74656c6c20": 1055,
    "65766572": 1056,
    "2c0a54686520": 1057,
    "6c20": 1058,
    "6c6f766520": 1059,
    "747920": 1060,
    "6d6f7265": 1061,
    "7768656e": 1062,
    "6d69": 1063,
    "73656520": 1064,
    "6579": 1065,
    "69732074686520": 1066,
    "732c20616e6420": 1067,
    "627261": 1068,
    "6d61726b": 1069,
    "68657220": 1070,
    "686f72": 1071,
    "6f6666": 1072,
    "706f6e": 1073,
    "61746573": 1074,
    "566f6c73": 1075,
    "2e0a0a46697273742053656e61746f723a0a": 1076,
    "77697368": 1077,
    "434f4d494e4955533a0a": 1078,
    "666f6c6c6f77": 1079,
    "74616b6520": 1080,
    "3f0a0a4252555455533a0a": 1081,
    "3f0a0a534943494e4955533a0a": 1082,
    "676f6473": 1083,
    "7368616c6c": 1084,
    "6265656e": 1085,
    "2754697320": 1086,
    "646f75": 1087,
    "6f756e6420": 1088,
    "2074686565": 1089,
    "6c65737320": 1090,
    "6e6f626c": 1091,
    "63616c6c": 1092,
    "2e0a0a56414c455249413a0a": 1093,
    "73706f": 1094,
    "207365": 1095,
    "2c207468": 1096,
    "686f6d65": 1097,
    "706c616365": 1098,
    "636f6d6d6f6e20": 1099,
    "74726962756e6573": 1100,
    "507261": 1101,
    "72657175": 1102,
    "546869726420436974697a656e3a0a": 1103,
    "766f6963657320": 1104,
    "616e7920": 1105,
    "617472696369": 1106,
    "68756d": 1107,
    "79207468": 1108,
    "737065616b20": 1109,
    "6f7573": 1110,
    "746f20626520": 1111,
    "206d75737420": 1112,
    "496620": 1113,
    "436170": 1114,
    "4361706974": 1115,
    "43617069746f6c": 1116,
    "656e69": 1117,
    "637261": 1118,
    "6f726520": 1119,
    "207468616e20": 1120,
    "617220": 1121,
    "657273": 1122,
    "617264": 1123,
    "776974682074686520": 1124,
    "697468": 1125,
    "6f2074686520": 1126,
    "656e636520": 1127,
    "667269656e6473": 1128,
    "636175736520": 1129,
    "2c0a4920": 1130,
    "626c6f6f64": 1131,
    "2c0a45": 1132,
    "41792c20": 1133,
    "6865697220": 1134,
    "6e6f7220": 1135,
    "6b6565": 1136,
    "7374616e6420": 1137,
    "207468657265": 1138,
    "646564": 1139,
    "6565636820796f75": 1140,
    "6d61646520": 1141,
    "612073": 1142,
    "6e6577": 1143,
    "7320746f20": 1144,
    "67687420": 1145,
    "5546": 1146,
    "554649": 1147,
    "55464944": 1148,
    "554649444955533a0a": 1149,
    "73686f77": 1150,
    "726565": 1151,
    "616e676572": 1152,
    "666f7265": 1153,
    "6c6f72": 1154,
    "486f7720": 1155,
    "616761696e": 1156,
    "496e20": 1157,
    "2c0a546f20": 1158,
    "0a5468616e": 1159,
    "0a4d": 1160,
    "736f6d6520": 1161,
    "7468616e": 1162,
    "6e6f772c20": 1163,
    "436f72696f6c616e7573": 1164,
    "696e206120": 1165,
    "456469": 1166,
    "65666f726520": 1167,
    "72617468657220": 1168,
    "436169": 1169,
    "636f726e": 1170,
    "637420": 1171,
    "76656e74": 1172,
    "68756e": 1173,
    "636f6d6d6f6e": 1174,
    "646f6e6520": 1175,
    "7265706f72": 1176,
    "68652064696420": 1177,
    "69732c20": 1178,
    "74697475": 1179,
    "757265": 1180,
    "20776865726520": 1181,
    "627573": 1182,
    "7369722c20": 1183,
    "77686f20": 1184,
    "5468657920": 1185,
    "206d616b6520": 1186,
    "6974686572": 1187,
    "73656c76657320": 1188,
    "686561726420": 1189,
    "73696e": 1190,
    "707572": 1191,
    "6c6974746c6520": 1192,
    "5265": 1193,
    "72656d61696e": 1194,
    "2e2057": 1195,
    "7473": 1196,
    "7265636569": 1197,
    "627269": 1198,
    "46726f6d": 1199,
    "6e6f740a": 1200,
    "20616c6c": 1201,
    "657374": 1202,
    "666972737420": 1203,
    "42757420": 1204,
    "6861742c20": 1205,
    "2c0a4d": 1206,
    "616b6520": 1207,
    "657665727920": 1208,
    "20746865736520": 1209,
    "736565": 1210,
    "736f6c": 1211,
    "6f6e2074686520": 1212,
    "756c6c": 1213,
    "776f7274687920": 1214,
    "61727469": 1215,
    "4e6f2c20": 1216,
    "6d75": 1217,
    "73686970": 1218,
    "66756c": 1219,
    "666f727468": 1220,
    "0a4f6620": 1221,
    "49207468": 1222,
    "6265666f726520": 1223,
    "6d6565": 1224,
    "416e6420": 1225,
    "6f66206d7920": 1226,
    "2073686f756c6420": 1227,
    "696e672c20": 1228,
    "72656e": 1229,
    "6d6164616d": 1230,
    "66656172": 1231,
    "61746368": 1232,
    "6f6d20": 1233,
    "7061727420": 1234,
    "6f276572": 1235,
    "6f756c": 1236,
    "6967": 1237,
    "6c653a0a": 1238,
    "0a486520": 1239,
    "776f756e647320": 1240,
    "426520": 1241,
    "747261": 1242,
    "596f752061726520": 1243,
    "3f0a0a41": 1244,
    "436169757320": 1245,
    "696c6c20": 1246,
    "74616c": 1247,
    "617472696369616e": 1248,
    "20776f756c6420": 1249,
    "656c6420": 1250,
    "64656172": 1251,
    "616e636520": 1252,
    "6761": 1253,
    "68697320636f756e747279": 1254,
    "3f0a0a466972737420436974697a656e3a0a": 1255,
    "6e6565": 1256,
    "6661756c": 1257,
    "4d656e": 1258,
    "4d656e656e69": 1259,
    "7468652070656f706c65": 1260,
    "5768792c20": 1261,
    "64732c20": 1262,
    "73656c766573": 1263,
    "636f7572": 1264,
    "696d": 1265,
    "746f207468656d": 1266,
    "696e672073": 1267,
    "4966": 1268,
    "2e204920": 1269,
    "707572706f": 1270,
    "696e6b20": 1271,
    "20616c6c2074686520": 1272,
    "656d626572": 1273,
    "6964": 1274,
    "4c69": 1275,
    "73747275": 1276,
    "6f662073": 1277,
    "20736f20": 1278,
    "67656e74": 1279,
    "2c0a5768696368": 1280,
    "616e642074686520": 1281,
    "746872": 1282,
    "3a20616e6420": 1283,
    "686f77": 1284,
    "6f756368": 1285,
    "647920": 1286,
    "207468656520": 1287,
    "666c6174746572": 1288,
    "6465736972": 1289,
    "6d696e": 1290,
    "676172": 1291,
    "210a57": 1292,
    "6265736565636820796f75": 1293,
    "686561727420": 1294,
    "5468697320": 1295,
    "207468656e": 1296,
    "6265737420": 1297,
    "4d6172636975732c20": 1298,
    "68616c": 1299,
    "6b650a": 1300,
    "46697273742053656e61746f723a0a": 1301,
    "436f6d696e697573": 1302,
    "546974": 1303,
    "746f20796f757220": 1304,
    "66726f6d20": 1305,
    "686f6c": 1306,
    "686f6e6f757220": 1307,
    "2c0a576520": 1308,
    "207468616e6b": 1309,
    "65640a": 1310,
    "776966": 1311,
    "7475726e": 1312,
    "4e6f77": 1313,
    "656e6368": 1314,
    "74756e": 1315,
    "64656e": 1316,
    "536f6c6469": 1317,
    "536f6c646965723a0a": 1318,
    "6265656e20": 1319,
    "6d61726b6574": 1320,
    "6e65766572": 1321,
    "5072617920": 1322,
    "776974686f757420": 1323,
    "646974696f6e": 1324,
    "3f0a0a434f52494f4c414e55533a0a": 1325,
    "2e0a0a546869726420436974697a656e3a0a": 1326,
    "4564696c653a0a": 1327,
    "636869": 1328,
    "746f207468652070656f706c65": 1329,
    "4e6f20": 1330,
    "74656420": 1331,
    "706f6f7220": 1332,
    "6e65737320": 1333,
    "73756666": 1334,
    "7365727669": 1335,
    "6d616c69": 1336,
    "6865206861746820": 1337,
    "70617274": 1338,
    "68650a": 1339,
    "6f662068697320": 1340,
    "610a": 1341,
    "636f6d657320": 1342,
    "7072617920": 1343,
    "4f757220": 1344,
    "74682c20": 1345,
    "776f6e": 1346,
    "2c0a4f7220": 1347,
    "6c696b65206120": 1348,
    "74696c6c20": 1349,
    "6e6576657220": 1350,
    "666565": 1351,
    "5369722c20": 1352,
    "6c6f6f6b": 1353,
    "73756368": 1354,
    "6b696e67": 1355,
    "6f6c64696572": 1356,
    "736972": 1357,
    "6c6561766520": 1358,
    "2074686973": 1359,
    "696f6e": 1360,
    "55706f6e": 1361,
    "646f776e20": 1362,
    "757368": 1363,
    "61206d": 1364,
    "6b656570": 1365,
    "6369747920": 1366,
    "6f757468": 1367,
    "6963": 1368,
    "4d6573": 1369,
    "4d657373656e": 1370,
    "4d657373656e67": 1371,
    "4d657373656e6765723a0a": 1372,
    "70726f6d": 1373,
    "4c61727469": 1374,
    "636f6d70": 1375,
    "4265": 1376,
    "6d6f636b": 1377,
    "70726573656e7420": 1378,
    "74726561": 1379,
    "63656e": 1380,
    "4175666964697573": 1381,
    "2e0a0a41554649444955533a0a": 1382,
    "2c2062757420": 1383,
    "697420697320": 1384,
    "206d6f737420": 1385,
    "72656520": 1386,
    "0a576520": 1387,
    "646f7562": 1388,
    "7365656d": 1389,
    "27642c20": 1390,
    "6e6f206d6f7265": 1391,
    "7768657265": 1392,
    "64616e676572": 1393,
    "3f0a0a564f4c554d4e49413a0a": 1394,
    "696e206d7920": 1395,
    "6c6f736520": 1396,
    "210a0a564f4c554d4e49413a0a": 1397,
    "666f6f6c": 1398,
    "7765657420": 1399,
    "4120": 1400,
    "627574": 1401,
    "68696d2c20": 1402,
    "6e6f2c20": 1403,
    "732e20": 1404,
    "72656420": 1405,
    "6865726520697320": 1406,
    "27640a": 1407,
    "2c20617320": 1408,
    "73706972": 1409,
    "6861746820": 1410,
    "6d61726b65742d": 1411,
    "6c657320": 1412,
    "2c0a42757420": 1413,
    "416e": 1414,
    "77696c6c20626520": 1415,
    "3b20666f72": 1416,
    "6d650a": 1417,
    "76696e6720": 1418,
    "2c0a4c657420": 1419,
    "6b696e64": 1420,
    "706f69": 1421,
    "776f727468": 1422,
    "4861766520": 1423,
    "4f66666963": 1424,
    "4f6666696365723a0a": 1425,
    "766f696365": 1426,
    "7368616c6c20626520736f": 1427,
    "62616e697368": 1428,
    "2e0a0a416c6c3a0a": 1429,
    "7765276c6c20": 1430,
    "737572": 1431,
    "776869": 1432,
    "77686f6c": 1433,
    "792061": 1434,
    "6865277320": 1435,
    "6c792c20": 1436,
    "746f0a": 1437,
    "766972": 1438,
    "206163": 1439,
    "776974682073": 1440,
    "7562": 1441,
    "20737065616b": 1442,
    "627573696e": 1443,
    "73656e617465": 1444,
    "69746f72": 1445,
    "733a": 1446,
    "6d696e6520": 1447,
    "6f6620796f75": 1448,
    "526f6d616e": 1449,
    "6174652c20": 1450,
    "2c0a5768656e": 1451,
    "656e656d69": 1452,
    "696e646565": 1453,
    "796574": 1454,
    "746f2063": 1455,
    "20616e6420": 1456,
    "6865617220": 1457,
    "77697468206120": 1458,
    "626f6479": 1459,
    "7468757320": 1460,
    "0a49272074686520": 1461,
    "616e642c20": 1462,
    "4c696b6520": 1463,
    "776865726520": 1464,
    "6f7468657220": 1465,
    "0a4f66": 1466,
    "49207368616c6c20": 1467,
    "2c0a576869636820": 1468,
    "0a546f2074686520": 1469,
    "636f6e74656e74": 1470,
    "7074": 1471,
    "73656e61746f72": 1472,
    "2c2074686520": 1473,
    "20612073": 1474,
    "66697420": 1475,
    "696620796f7520": 1476,
    "6f6e636520": 1477,
    "3b20666f7220": 1478,
    "0a546865697220": 1479,
    "66696e": 1480,
    "27737420": 1481,
    "686f7520": 1482,
    "76616e": 1483,
    "62617474": 1484,
    "65733b": 1485,
    "6475": 1486,
    "0a5768696368": 1487,
    "616b": 1488,
    "2e2048": 1489,
    "2c0a48": 1490,
    "466f7220": 1491,
    "6167": 1492,
    "4920636f756c6420": 1493,
    "70617373": 1494,
    "68616e67": 1495,
    "636170": 1496,
    "69766520": 1497,
    "74726962756e657320": 1498,
    "67657420": 1499,
    "3f0a0a4d657373656e6765723a0a": 1500,
    "566f6c7363657320": 1501,
    "65652c20": 1502,
    "7472756520": 1503,
    "746f6765": 1504,
    "746f676574686572": 1505,
    "7420746f20": 1506,
    "7474": 1507,
    "7573204c61727469": 1508,
    "3a2062757420": 1509,
    "0a48697320": 1510,
    "64657220": 1511,
    "7468616e20": 1512,
    "4f20": 1513,
    "536f2c20": 1514,
    "656c64": 1515,
    "4e6f7220": 1516,
    "2e0a0a5365636f6e6420": 1517,
    "636572": 1518,
    "61726577656c6c": 1519,
    "706c75": 1520,
    "6e6f7720": 1521,
    "68696d73656c66": 1522,
    "7468696e6b": 1523,
    "6472756d": 1524,
    "417566696469757320": 1525,
    "7468656e20": 1526,
    "6265617420": 1527,
    "686f757365": 1528,
    "646f657320": 1529,
    "74726f": 1530,
    "7720": 1531,
    "69676874": 1532,
    "7468696e6720": 1533,
    "616e6420746f20": 1534,
    "6f6265": 1535,
    "6f756c64": 1536,
    "6c657373": 1537,
    "6761746573": 1538,
    "6669676874": 1539,
    "206d652c20": 1540,
    "2e0a0a466972737420536f6c646965723a0a": 1541,
    "756e646572": 1542,
    "686f7572": 1543,
    "647261": 1544,
    "2074686f736520": 1545,
    "0a54687920": 1546,
    "70726169": 1547,
    "6d61726b65742d706c616365": 1548,
    "6f75676874": 1549,
    "73657320": 1550,
    "3f0a0a434f4d494e4955533a0a": 1551,
    "6e616d6520": 1552,
    "6467": 1553,
    "796f752061726520": 1554,
    "73697469": 1555,
    "646f696e67": 1556,
    "7375726520": 1557,
    "6c6573": 1558,
    "63757374": 1559,
    "0a4d7920": 1560,
    "74776f20": 1561,
    "636f6d652c20": 1562,
    "2c0a5768656e20": 1563,
    "546172": 1564,
    "7468656520": 1565,
    "212720": 1566,
    "21272027": 1567,
    "7065616365": 1568,
    "70726f6365": 1569,
    "746f2066": 1570,
    "656e656d7920": 1571,
    "61776179": 1572,
    "4f6e6520": 1573,
    "636974697a656e": 1574,
    "74686f72": 1575,
    "6c6965": 1576,
    "6f66206f757220": 1577,
    "6d6973": 1578,
    "7061727469": 1579,
    "69736520": 1580,
    "6265636f6d6520": 1581,
    "6b6573": 1582,
    "746f206769766520": 1583,
    "7265706f727420": 1584,
    "70726f7564": 1585,
    "656e64": 1586,
    "6f6674": 1587,
    "62650a": 1588,
    "3b2077": 1589,
    "7669727475": 1590,
    "6e6174757265": 1591,
    "6e6f742c20": 1592,
    "626172": 1593,
    "746f207468652043617069746f6c": 1594,
    "210a0a41": 1595,
    "656e6f756768": 1596,
    "686176650a": 1597,
    "61626c6520": 1598,
    "732c0a": 1599,
    "696e207468697320": 1600,
    "61742074686520": 1601,
    "77686f736520": 1602,
    "68656c70": 1603,
    "6c616d": 1604,
    "686974686572": 1605,
    "6e6527": 1606,
    "6e6527657220": 1607,
    "73746f72": 1608,
    "65730a": 1609,
    "0a74686520": 1610,
    "666f6c6c": 1611,
    "707572706f7365": 1612,
    "64656c69": 1613,
    "6f6e6c7920": 1614,
    "6d7574": 1615,
    "61707065": 1616,
    "2c207369722c20": 1617,
    "63616d6520": 1618,
    "2074687573": 1619,
    "74696e67": 1620,
    "0a5468657920": 1621,
    "642074686520": 1622,
    "746f6e67756520": 1623,
    "66656c6c6f77": 1624,
    "732120": 1625,
    "686f756c6420": 1626,
    "677261766520": 1627,
    "2c0a4e6f7420": 1628,
    "2c0a596f75": 1629,
    "732074686520": 1630,
    "7269676874": 1631,
    "776561": 1632,
    "796f75207368616c6c20": 1633,
    "746f20796f75": 1634,
    "20796f7572": 1635,
    "626c6f6f6420": 1636,
    "76616e7461": 1637,
    "706f696e": 1638,
    "20776172": 1639,
    "20796f752061726520": 1640,
    "616c20": 1641,
    "69636b": 1642,
    "616e676520": 1643,
    "63616c6c20": 1644,
    "696e2061": 1645,
    "616e6f74686572": 1646,
    "616e647320": 1647,
    "68696768": 1648,
    "643a20": 1649,
    "3b2073": 1650,
    "68657265277320": 1651,
    "596f75206861766520": 1652,
    "697365": 1653,
    "74727565": 1654,
    "76616c": 1655,
    "74686f75676820": 1656,
    "73757265": 1657,
    "63727920": 1658,
    "0a4861": 1659,
    "64656d": 1660,
    "6d6572": 1661,
    "4c6574": 1662,
    "4c6574277320": 1663,
    "6f7265207468": 1664,
    "73696e67": 1665,
    "616374696f6e": 1666,
    "6576657220": 1667,
    "6172652074686520": 1668,
    "6b6e6f776e": 1669,
    "5469747573204c61727469": 1670,
    "73657420": 1671,
    "776f6d": 1672,
    "626574746572": 1673,
    "74656c6c": 1674,
    "6a6f": 1675,
    "68652068616420": 1676,
    "492068616420": 1677,
    "656c65": 1678,
    "207468656972": 1679,
    "7973656c66": 1680,
    "6f6e2c20": 1681,
    "20796f75207765726520": 1682,
    "746f206120": 1683,
    "6879": 1684,
    "6d79206c6f72": 1685,
    "6c616479": 1686,
    "49207468616e6b": 1687,
    "726174686572": 1688,
    "77617272": 1689,
    "746368": 1690,
    "70617469": 1691,
    "686f6c6420": 1692,
    "636f6e66": 1693,
    "6e6f7420746f20": 1694,
    "63616d": 1695,
    "77697468207573": 1696,
    "646f6e": 1697,
    "676f6e652c20": 1698,
    "206d696e6520": 1699,
    "6561736520": 1700,
    "737765657420": 1701,
    "207368616c6c20": 1702,
    "6d6172": 1703,
    "626c6f77": 1704,
    "746865792061726520": 1705,
    "6f66206d": 1706,
    "642c20616e6420": 1707,
    "746f206f757220": 1708,
    "6e6f7420736f20": 1709,
    "77656c": 1710,
    "727920": 1711,
    "6f756c640a": 1712,
    "546f20": 1713,
    "6d616e20": 1714,
    "64616e6765726f757320": 1715,
    "2077656c6c20": 1716,
    "626f746820": 1717,
    "6d696c": 1718,
    "636f756e746572": 1719,
    "636861": 1720,
    "627572": 1721,
    "416e7469": 1722,
    "796f75206e6f7420": 1723,
    "6d616e7920": 1724,
    "646973706f": 1725,
    "736974696f6e": 1726,
    "646f776e": 1727,
    "6861746520": 1728,
    "746564": 1729,
    "7468650a": 1730,
    "746127": 1731,
    "0a496e": 1732,
    "7472696275": 1733,
    "7468696e67": 1734,
    "207361": 1735,
    "2c0a466f72": 1736,
    "7573656420": 1737,
    "427920": 1738,
    "6861737420": 1739,
    "69740a": 1740,
    "70656f706c652c20": 1741,
    "426f": 1742,
    "6579657320": 1743,
    "7920616e6420": 1744,
    "646c79": 1745,
    "73746f6f": 1746,
    "207375636820": 1747,
    "526f6d652c20": 1748,
    "63617573": 1749,
    "6e6f206d6f726520": 1750,
    "6f737420": 1751,
    "6d756c": 1752,
    "626520636f6e73756c": 1753,
    "746820436974697a656e3a0a": 1754,
    "666f7220796f757220": 1755,
    "6e6f2066757274686572": 1756,
    "2e0a0a436974697a656e733a0a": 1757,
    "69676e6f72": 1758,
    "64697368": 1759,
    "2e0a0a434f52494f4c414e55533a0a53": 1760,
    "2e0a0a434f52494f4c414e55533a0a48": 1761,
    "74726169746f72": 1762,
    "6c6177": 1763,
    "210a0a436974697a656e733a0a": 1764,
    "506561": 1765,
    "676f6e65": 1766,
    "2c2d2d0a0a534943494e4955533a0a": 1767,
    "537065616b": 1768,
    "73742c20": 1769,
    "7761792c20": 1770,
    "70617472696369616e": 1771,
    "7969": 1772,
    "6974792c20": 1773,
    "6f6d652c20": 1774,
    "6d6967687420": 1775,
    "6a65": 1776,
    "6f727920": 1777,
    "63756c": 1778,
    "737566666572": 1779,
    "65207468697320": 1780,
    "490a": 1781,
    "4361697573204d617263697573": 1782,
    "68652068617320": 1783,
    "73656c6620": 1784,
    "6d656e20": 1785,
    "68656c7020": 1786,
    "696e2068697320": 1787,
    "2c20796f75": 1788,
    "49206d75737420": 1789,
    "21207768": 1790,
    "6f7274687920": 1791,
    "616c6c2074686520": 1792,
    "68616e64": 1793,
    "7072617920796f75": 1794,
    "6b6e6f776e20": 1795,
    "696e74": 1796,
    "746f20646f": 1797,
    "706f6f72": 1798,
    "7374726f6e6720": 1799,
    "6d6173746572": 1800,
    "796f75206d": 1801,
    "696e20796f757220": 1802,
    "6d656e74": 1803,
    "73206f272074686520": 1804,
    "616761696e73742074686520": 1805,
    "7468657265277320": 1806,
    "6265617220": 1807,
    "74656c6c20796f75": 1808,
    "73696e636520": 1809,
    "2e0a0a4d454e454e4955533a0a54": 1810,
    "6e642c20": 1811,
    "556e": 1812,
    "746520": 1813,
    "61666665": 1814,
    "62656c6c7920": 1815,
    "2d2d0a0a": 1816,
    "206d61646520": 1817,
    "66726f6d2074686520": 1818,
    "0a466f72": 1819,
    "73746565": 1820,
    "3f0a": 1821,
    "2c0a57686f20": 1822,
    "746f77": 1823,
    "6974206973": 1824,
    "686f75736520": 1825,
    "616e6b": 1826,
    "6f666669": 1827,
    "59657420": 1828,
    "492063616e": 1829,
    "2e2720": 1830,
    "746f2774": 1831,
    "7070": 1832,
    "0a42757420": 1833,
    "626c79": 1834,
    "61727420": 1835,
    "3b0a54686520": 1836,
    "746865206d6174746572": 1837,
    "4865207468617420": 1838,
    "776f72647320": 1839,
    "706561636520": 1840,
    "6b657320": 1841,
    "2c0a576865726520": 1842,
    "68652073686f756c6420": 1843,
    "0a576865726520": 1844,
    "6e6573": 1845,
    "7965": 1846,
    "210a54": 1847,
    "636c696e": 1848,
    "637475": 1849,
    "2073756368": 1850,
    "696e20746865697220": 1851,
    "746865736520": 1852,
    "3b0a466f72": 1853,
    "3f0a0a4d4152434955533a0a": 1854,
    "666f72746820": 1855,
    "73656e7420": 1856,
    "63686f69": 1857,
    "27642074686520": 1858,
    "696c276420": 1859,
    "6e65777320": 1860,
    "676c61": 1861,
    "666f7567687420": 1862,
    "68616c66": 1863,
    "776974682068696d": 1864,
    "497420697320": 1865,
    "210a0a46697273742053656e61746f723a0a": 1866,
    "49206b6e6f77": 1867,
    "667269656e647320": 1868,
    "617474656e6420": 1869,
    "4e6f626c6520": 1870,
    "3a0a54686520": 1871,
    "6d75636820": 1872,
    "2c0a596f757220": 1873,
    "5768656e": 1874,
    "63686f": 1875,
    "76616c69": 1876,
    "2c0a496e": 1877,
    "68656c6420": 1878,
    "6f7574206f6620": 1879,
    "652074686520": 1880,
    "270a0a": 1881,
    "436f6d65": 1882,
    "696e206f757220": 1883,
    "0a5768617420": 1884,
    "7374617465": 1885,
    "49207468696e6b": 1886,
    "6c657474657220": 1887,
    "746f776e": 1888,
    "67756172": 1889,
    "793b20": 1890,
    "7461696e": 1891,
    "77617264": 1892,
    "54686520676f647320": 1893,
    "687573": 1894,
    "6275740a": 1895,
    "64617920": 1896,
    "706572736f6e": 1897,
    "68696d2073": 1898,
    "62726f77": 1899,
    "7468657265": 1900,
    "207468696e6520": 1901,
    "496e646565": 1902,
    "676f7420": 1903,
    "4865": 1904,
    "0a417420": 1905,
    "636f6e74656d": 1906,
    "6e65636b": 1907,
    "646f20796f7520": 1908,
    "626f7468": 1909,
    "676f6f64206d6164616d": 1910,
    "2c2774697320": 1911,
    "66746572": 1912,
    "636f6d6573": 1913,
    "6869730a": 1914,
    "77617272616e7420": 1915,
    "627920796f757220": 1916,
    "70617469656e6365": 1917,
    "207468650a": 1918,
    "796f757273656c66": 1919,
    "656e67": 1920,
    "492063616e6e6f7420": 1921,
    "706172646f6e": 1922,
    "3b207468": 1923,
    "7065616b20": 1924,
    "20616761696e": 1925,
    "6566": 1926,
    "4769766520": 1927,
    "746865652c20": 1928,
    "6120776f72": 1929,
    "79656172": 1930,
    "4920707269": 1931,
    "6272696e67": 1932,
    "5261": 1933,
    "68656172747320": 1934,
    "74697265": 1935,
    "6f696c": 1936,
    "626561": 1937,
    "70726f766520": 1938,
    "666f7274756e": 1939,
    "6c696b65": 1940,
    "6865656c": 1941,
    "2c0a43": 1942,
    "6d20": 1943,
    "776f726c64": 1944,
    "4c6f6f6b": 1945,
    "6e756d": 1946,
    "6e756d626572": 1947,
    "6661697220": 1948,
    "476f": 1949,
    "6f66666963": 1950,
    "6f666669636572": 1951,
    "616e6473": 1952,
    "7765206861766520": 1953,
    "436f72696f6c6920": 1954,
    "2074686f75": 1955,
    "656c736520": 1956,
    "61626f757420": 1957,
    "696e666f726d": 1958,
    "757374": 1959,
    "70726573656e74": 1960,
    "0a44": 1961,
    "646973706f736974696f6e": 1962,
    "74656172": 1963,
    "706c65": 1964,
    "706c656265": 1965,
    "706c65626569": 1966,
    "66756c6c": 1967,
    "65616c": 1968,
    "3a207468657265": 1969,
    "666f72652c20": 1970,
    "0a596f757220": 1971,
    "74696d": 1972,
    "476f20": 1973,
    "6d65657420": 1974,
    "6573747320": 1975,
    "5072617920796f752c20": 1976,
    "6c6f76657320": 1977,
    "746f756368": 1978,
    "20796f75206861766520": 1979,
    "617474657220": 1980,
    "63657373": 1981,
    "6464": 1982,
    "6c6574277320": 1983,
    "686f6d6520": 1984,
    "62657474657220": 1985,
    "776f756e646564": 1986,
    "20736f": 1987,
    "646565647320": 1988,
    "726563656976656420": 1989,
    "2077617320": 1990,
    "6265696e67": 1991,
    "68652068617468": 1992,
    "63696f757320": 1993,
    "656e63652c20": 1994,
    "746f6e6775657320": 1995,
    "446f20": 1996,
    "707420": 1997,
    "66756c20": 1998,
    "6570": 1999,
    "74686f736520": 2000,
    "646f2774": 2001,
    "2c0a496e20": 2002,
    "6c6f766573": 2003,
    "4a6f": 2004,
    "646573657276656420": 2005,
    "73746f6f6420": 2006,
    "696620686520": 2007,
    "4d6f737420": 2008,
    "6d6f6e": 2009,
    "776974682068697320": 2010,
    "69616e20": 2011,
    "0a57617320": 2012,
    "67697665": 2013,
    "63616c6c276420": 2014,
    "746f206d616b6520": 2015,
    "6272696e6720": 2016,
    "6d656e7420": 2017,
    "726f756768": 2018,
    "2e0a0a434f52494f4c414e55533a0a54": 2019,
    "3f0a0a4c4152544955533a0a": 2020,
    "63616c6d": 2021,
    "646973686f6e": 2022,
    "646973686f6e6f7572": 2023,
    "210a0a534943494e4955533a0a": 2024,
    "7768617420697320": 2025,
    "796520": 2026,
    "48656172": 2027,
    "5461727065": 2028,
    "2e0a0a414564696c653a0a": 2029,
    "0a57696c6c20": 2030,
    "537065616b2c20": 2031,
    "3f0a0a416c6c3a0a": 2032,
    "4361697573204d61726369757320": 2033,
    "4e6f206d6f726520": 2034,
    "697420626520": 2035,
    "732c2074686520": 2036,
    "2e0a5768617420": 2037,
    "617574686f72": 2038,
    "7969656c6420": 2039,
    "68756d616e": 2040,
    "6c6963": 2041,
    "6761696e20": 2042,
    "76656e6765": 2043,
    "6669727374": 2044,
    "646f67": 2045,
    "436f6e7369": 2046,
    "65727920": 2047,
    "6865206469": 2048,
    "666f722068697320": 2049,
    "74697475646520": 2050,
    "596f75206d75737420": 2051,
    "69646520": 2052,
    "7374617920": 2053,
    "576f7274687920": 2054,
    "6f6e65207468617420": 2055,
    "6d656e2c20": 2056,
    "626174": 2057,
    "6973206e6f7420": 2058,
    "6c696e67": 2059,
    "2e205468657920": 2060,
    "627265617468": 2061,
    "626f7572": 2062,
    "7265616479": 2063,
    "0a4861766520": 2064,
    "6c6966": 2065,
    "0a416761696e73742074686520": 2066,
    "206d6f726520": 2067,
    "6c61636b": 2068,
    "796f752c20616e6420": 2069,
    "666174686572": 2070,
    "666f72207573": 2071,
    "212054": 2072,
    "736865": 2073,
    "72696368": 2074,
    "6461": 2075,
    "7761727320": 2076,
    "75702c20": 2077,
    "20796f75206d": 2078,
    "6163637573": 2079,
    "74747920": 2080,
    "75742c20": 2081,
    "796f75206d75737420": 2082,
    "6275742c20": 2083,
    "706c65617365": 2084,
    "64656c69766572": 2085,
    "6d656d626572": 2086,
    "3a0a54": 2087,
    "74697665": 2088,
    "637570": 2089,
    "696e670a": 2090,
    "2c20696e": 2091,
    "6665656c": 2092,
    "6374696f6e20": 2093,
    "207468652077686f6c": 2094,
    "207468652077686f6c6520": 2095,
    "62656c6c79": 2096,
    "6b696e6420": 2097,
    "6d696c65": 2098,
    "6576656e": 2099,
    "6d7574696e": 2100,
    "65642068697320": 2101,
    "6f776e656420": 2102,
    "61726d20": 2103,
    "7472756d": 2104,
    "7472756d7065": 2105,
    "2c206966": 2106,
    "53686f756c6420": 2107,
    "706c61696e": 2108,
    "7768696c65": 2109,
    "206162": 2110,
    "667269656e64": 2111,
    "76652074686520": 2112,
    "67656e6572616c20": 2113,
    "72656d656d626572": 2114,
    "7374726f6e67": 2115,
    "6e6572": 2116,
    "6379": 2117,
    "2077656c6c2c20": 2118,
    "0a46726f6d": 2119,
    "7468696e677320": 2120,
    "6c6f77": 2121,
    "736573": 2122,
    "4c6561": 2123,
    "696e2073": 2124,
    "726561647920": 2125,
    "706f696e7420": 2126,
    "686174277320746865206d6174746572": 2127,
    "776f7264": 2128,
    "66696e6420": 2129,
    "796f752068": 2130,
    "6772656174": 2131,
    "68617465": 2132,
    "6f616b": 2133,
    "6761726c": 2134,
    "6761726c616e64": 2135,
    "27730a": 2136,
    "6e6f62": 2137,
    "6e6f62696c": 2138,
    "6c6574206d6520": 2139,
    "7279": 2140,
    "736c61": 2141,
    "637265": 2142,
    "636f77": 2143,
    "7361696420": 2144,
    "74686579207765726520": 2145,
    "77616c6c": 2146,
    "206d656e20": 2147,
    "6f6e6c79": 2148,
    "6f6f6b20": 2149,
    "646566": 2150,
    "74696d65": 2151,
    "696e672e0a0a4d454e454e4955533a0a": 2152,
    "476f2c20": 2153,
    "0a4f757220": 2154,
    "656c7920": 2155,
    "656e76": 2156,
    "616e79207468": 2157,
    "726576": 2158,
    "3a20686520697320": 2159,
    "77617273": 2160,
    "70726f6d697365": 2161,
    "627573696e657373": 2162,
    "7075": 2163,
    "707261792c20": 2164,
    "646576": 2165,
    "2e0a0a534943494e4955533a0a53": 2166,
    "756368": 2167,
    "6c656420": 2168,
    "737563": 2169,
    "0a576869636820": 2170,
    "6465640a": 2171,
    "6f662061": 2172,
    "207468696e677320": 2173,
    "686f6e6f75727320": 2174,
    "0a486f77": 2175,
    "64697370": 2176,
    "497320": 2177,
    "68617665206265656e": 2178,
    "62726f7567687420": 2179,
    "666f757220": 2180,
    "776f726473": 2181,
    "7072657373": 2182,
    "68657468657220": 2183,
    "656e656d79": 2184,
    "6669656c64": 2185,
    "646f75627420": 2186,
    "6b65657020796f757220": 2187,
    "617070656172": 2188,
    "206d616e7920": 2189,
    "6f6f74": 2190,
    "796f7520746f20796f757220": 2191,
    "3a0a4c657420": 2192,
    "65732e20": 2193,
    "6f6620746865697220": 2194,
    "6265747765": 2195,
    "7765207368616c6c20": 2196,
    "61756768": 2197,
    "707265737320": 2198,
    "656d656e74": 2199,
    "68652077617320": 2200,
    "706c75636b": 2201,
    "7a6520": 2202,
    "73756368206120": 2203,
    "6e6f20626574746572": 2204,
    "69660a": 2205,
    "7265747572": 2206,
    "20610a": 2207,
    "69737375": 2208,
    "6e6f6e6520": 2209,
    "6e6f626c7920": 2210,
    "2074686569720a": 2211,
    "496e646565642c20": 2212,
    "6368696c64": 2213,
    "436f6d6520": 2214,
    "696e20526f6d65": 2215,
    "68616e6420": 2216,
    "736b": 2217,
    "6375": 2218,
    "63746f72": 2219,
    "6865616420": 2220,
    "7768656e20697420": 2221,
    "6e696e67": 2222,
    "6c616469": 2223,
    "6577": 2224,
    "3f0a0a56": 2225,
    "73776f7264": 2226,
    "73617720": 2227,
    "7768656e20686520": 2228,
    "66616c6c20": 2229,
    "67656420": 2230,
    "746565": 2231,
    "7769666520": 2232,
    "492077696c6c206e6f7420": 2233,
    "4669": 2234,
    "726561736f6e": 2235,
    "7769736820": 2236,
    "207370": 2237,
    "656e677468": 2238,
    "3b2062757420": 2239,
    "7361766520": 2240,
    "7361792c20": 2241,
    "696e646565642c20": 2242,
    "7769746820796f75": 2243,
    "6f660a": 2244,
    "526f6d616e20": 2245,
    "3a20796f757220": 2246,
    "61726520796f75": 2247,
    "6661726577656c6c": 2248,
    "2074686579206861766520": 2249,
    "677265": 2250,
    "6c696520": 2251,
    "68756e64": 2252,
    "68756e6472656420": 2253,
    "6520746865736520": 2254,
    "626c61": 2255,
    "5765276c6c20": 2256,
    "526174686572": 2257,
    "70696e": 2258,
    "6e276420": 2259,
    "6f66207468656d": 2260,
    "776f726b20": 2261,
    "6e6f69736520": 2262,
    "76616e6365": 2263,
    "796f6e": 2264,
    "696c65": 2265,
    "666c69": 2266,
    "63686172676520": 2267,
    "746f20746865697220": 2268,
    "206d61726b": 2269,
    "2c0a57697468": 2270,
    "6c6566": 2271,
    "2c0a5765726520": 2272,
    "6120736f6c64696572": 2273,
    "616e640a54686520": 2274,
    "736f756e": 2275,
    "7472656d": 2276,
    "636172727920": 2277,
    "73207468617420": 2278,
    "2074686f7365207468617420": 2279,
    "65207468656d": 2280,
    "650a546f20": 2281,
    "76696f6c": 2282,
    "70726169736520": 2283,
    "706879": 2284,
    "7068797369": 2285,
    "6f70706f": 2286,
    "272073": 2287,
    "73686520": 2288,
    "697468657220": 2289,
    "73747275636b": 2290,
    "2c0a427920": 2291,
    "6672": 2292,
    "7472757468": 2293,
    "6d79206c6f7264": 2294,
    "73742074686f7520": 2295,
    "6c617465": 2296,
    "7265706f7274": 2297,
    "70206f6620": 2298,
    "6173207468657920": 2299,
    "207768696368": 2300,
    "207765206861766520": 2301,
    "67656e746c6520": 2302,
    "776f726420": 2303,
    "7461696e20": 2304,
    "6d757374204920": 2305,
    "68616c6c": 2306,
    "65617220": 2307,
    "652074686565": 2308,
    "7468616e206120": 2309,
    "70656e7420": 2310,
    "6f7265207468616e": 2311,
    "6767": 2312,
    "270a": 2313,
    "6265666f7265": 2314,
    "76696e67": 2315,
    "77657265206120": 2316,
    "73696c": 2317,
    "7365656d20": 2318,
    "746974756465": 2319,
    "2c0a4265666f726520": 2320,
    "74686520636f6d6d6f6e20": 2321,
    "74616b65": 2322,
    "6572732c20": 2323,
    "697469657320": 2324,
    "68656e": 2325,
    "6f777320": 2326,
    "61732074686520": 2327,
    "6d6174696f6e": 2328,
    "646965": 2329,
    "7465640a": 2330,
    "2c0a496620": 2331,
    "757320746f20": 2332,
    "0a5265": 2333,
    "3b202774697320": 2334,
    "736f6d65": 2335,
    "6c617920": 2336,
    "696e20436f72696f6c69": 2337,
    "637269": 2338,
    "7265717565737420": 2339,
    "6e616d": 2340,
    "642c0a": 2341,
    "746f206372": 2342,
    "706f69736f6e": 2343,
    "637573746f6d20": 2344,
    "666f7220526f6d65": 2345,
    "64656420": 2346,
    "6365206f6620": 2347,
    "2e20596f7520": 2348,
    "74776f": 2349,
    "65642077697468": 2350,
    "74616c6b20": 2351,
    "6f63": 2352,
    "666f720a": 2353,
    "210a0a4252555455533a0a": 2354,
    "6d616c69636520": 2355,
    "776f7273686970": 2356,
    "7379": 2357,
    "68656172696e67": 2358,
    "3b20616e642c20": 2359,
    "436f6d652c20636f6d652c20": 2360,
    "62656e6368": 2361,
    "6465736572766520": 2362,
    "6f757261": 2363,
    "65737469": 2364,
    "4d656e656e697573": 2365,
    "27742e0a0a4d454e454e4955533a0a": 2366,
    "6d756368": 2367,
    "74686174277320": 2368,
    "6f662068696d": 2369,
    "646f746820": 2370,
    "2c0a596f7520": 2371,
    "436f72696f6c616e757320": 2372,
    "77696665": 2373,
    "6c6175": 2374,
    "6c61756768": 2375,
    "657265277320": 2376,
    "636c65": 2377,
    "0a496e20": 2378,
    "616d6f6e67": 2379,
    "706f70": 2380,
    "706f70756c": 2381,
    "6d697420": 2382,
    "6e69": 2383,
    "696e746f20": 2384,
    "74656d": 2385,
    "666f7220636f6e73756c": 2386,
    "2073686f77": 2387,
    "74727920": 2388,
    "746f2068696d": 2389,
    "6974206d75737420": 2390,
    "7468652070656f706c6520": 2391,
    "7374696c6c20": 2392,
    "2c2077686f20": 2393,
    "6e6f626c65": 2394,
    "2e0a0a4669727374204f6666696365723a0a": 2395,
    "686164206265656e": 2396,
    "6c6564": 2397,
    "6675727468657220": 2398,
    "6772617469": 2399,
    "7365727669636520": 2400,
    "732c20746f20": 2401,
    "792c20616e6420": 2402,
    "7468657265666f726520": 2403,
    "417420": 2404,
    "2c20736f20": 2405,
    "730a5468617420": 2406,
    "50757420": 2407,
    "0a4d75737420": 2408,
    "6f757273656c76657320": 2409,
    "6a75": 2410,
    "6c69626572": 2411,
    "796f757220766f69636573": 2412,
    "6f662074686174": 2413,
    "3a0a5768617420": 2414,
    "456e": 2415,
    "70656f706c65277320": 2416,
    "636f6d70616e": 2417,
    "6172647320": 2418,
    "737069726974": 2419,
    "68696d20746f20": 2420,
    "666f72636520": 2421,
    "7320796f75": 2422,
    "6e617475726520": 2423,
    "726962756e": 2424,
    "74726962756e65": 2425,
    "277368616c6c": 2426,
    "706974": 2427,
    "50656163652c20": 2428,
    "726f636b": 2429,
    "50617472696369616e": 2430,
    "50617472696369616e3a0a": 2431,
    "546172706569616e20": 2432,
    "3f0a0a414564696c653a0a": 2433,
    "4974207368616c6c20626520736f": 2434,
    "6974207368616c6c20626520736f": 2435,
    "68656172206d6520": 2436,
    "7265736f6c": 2437,
    "766564": 2438,
    "656620": 2439,
    "74616c6b": 2440,
    "3b206c657420": 2441,
    "5365636f6e6420436974697a656e3a0a": 2442,
    "776f72642c20": 2443,
    "57652061726520": 2444,
    "6163636f756e": 2445,
    "70617472696369616e7320": 2446,
    "66656974": 2447,
    "6c6965766520": 2448,
    "3a206966": 2449,
    "77657265": 2450,
    "77686f6c6573": 2451,
    "6f62": 2452,
    "62756e64": 2453,
    "6f75720a": 2454,
    "6b65732c20": 2455,
    "7479": 2456,
    "666f722068697320636f756e747279": 2457,
    "636f6e74656e7420": 2458,
    "676f6f": 2459,
    "676f6f640a": 2460,
    "742c2062757420": 2461,
    "492073617920": 2462,
    "746f20796f752c20": 2463,
    "66616d": 2464,
    "2074686f756768": 2465,
    "636f6e73": 2466,
    "69742077617320": 2467,
    "706c6561736520": 2468,
    "3b20776869636820": 2469,
    "6e65656420": 2470,
    "6e6f7420626520": 2471,
    "72656e20": 2472,
    "74732c20": 2473,
    "75732c20746f20": 2474,
    "7469726520": 2475,
    "70657469": 2476,
    "7065746974696f6e": 2477,
    "657365": 2478,
    "636974790a": 2479,
    "696e672068657265": 2480,
    "210a0a416c6c3a0a": 2481,
    "677269": 2482,
    "68617468": 2483,
    "6c6f7665640a": 2484,
    "776f726b": 2485,
    "27732c20": 2486,
    "2c2049207072617920796f75": 2487,
    "6b6e6f776e20746f2074686520": 2488,
    "6e6967687420": 2489,
    "73686f7720": 2490,
    "746f6f2e0a0a4d454e454e4955533a0a": 2491,
    "6d7920676f6f6420": 2492,
    "667269656e64732c20": 2493,
    "77652061726520": 2494,
    "697461626c6520": 2495,
    "2e20466f72": 2496,
    "77616e74": 2497,
    "7472696b6520": 2498,
    "7769746820796f757220": 2499,
    "637261636b": 2500,
    "73756e": 2501,
    "707065": 2502,
    "6b6e6565": 2503,
    "73706f72": 2504,
    "68656c6d": 2505,
    "637572736520": 2506,
    "656e656d696573": 2507,
    "73746f7265": 2508,
    "6d656420": 2509,
    "656469": 2510,
    "7368656420": 2511,
    "2e204966": 2512,
    "7573740a": 2513,
    "796f757273656c76657320": 2514,
    "666f6c6c79": 2515,
    "6d617920626520": 2516,
    "3b0a42": 2517,
    "2c207369723a20": 2518,
    "6e6f74207468": 2519,
    "6d6964": 2520,
    "64792c20": 2521,
    "6c6520616e6420": 2522,
    "64657669": 2523,
    "2c0a416e642c20": 2524,
    "616e737765722764": 2525,
    "57656c6c": 2526,
    "6b696e64206f662073": 2527,
    "756e67": 2528,
    "736d696c65": 2529,
    "706c69": 2530,
    "3f2057": 2531,
    "67696c": 2532,
    "73656c6c": 2533,
    "68656172742c20": 2534,
    "736f6c64696572": 2535,
    "2c0a4f757220": 2536,
    "6c6567": 2537,
    "62726963": 2538,
    "74686579": 2539,
    "2d2d0a0a4d454e454e4955533a0a": 2540,
    "57686174207468656e": 2541,
    "6d652c20": 2542,
    "3f207768617420": 2543,
    "57656c6c2c207768617420": 2544,
    "57656c6c2c2077686174207468656e": 2545,
    "6c6974746c65": 2546,
    "5965": 2547,
    "27726520": 2548,
    "6c6f6e67": 2549,
    "69742e0a0a4d454e454e4955533a0a": 2550,
    "736820": 2551,
    "2c2720": 2552,
    "6c69766520": 2553,
    "2c0a4265": 2554,
    "7468726f756768": 2555,
    "7468726f7567682074686520": 2556,
    "2c0a4576656e20": 2557,
    "627261696e": 2558,
    "657269": 2559,
    "730a46726f6d": 2560,
    "0a5768657265": 2561,
    "53656520": 2562,
    "65616368": 2563,
    "6f6620616c6c": 2564,
    "3f0a0a4d454e454e4955533a0a54686520": 2565,
    "696e65": 2566,
    "636f756e73656c": 2567,
    "646967": 2568,
    "6f272074686520636f6d6d6f6e": 2569,
    "707562": 2570,
    "7075626c6963": 2571,
    "20796f757273656c766573": 2572,
    "646f20796f75": 2573,
    "677265617420746f": 2574,
    "6f66207468697320": 2575,
    "617373": 2576,
    "726562656c6c": 2577,
    "726562656c6c696f6e": 2578,
    "6f7374": 2579,
    "72756e": 2580,
    "61747320": 2581,
    "7369646520": 2582,
    "210a0a4d4152434955533a0a": 2583,
    "5765206861766520": 2584,
    "65617468": 2585,
    "686f7272": 2586,
    "696e672e20": 2587,
    "732c0a5468617420": 2588,
    "6c696f6e": 2589,
    "75706f6e2074686520": 2590,
    "20776f7274687920": 2591,
    "737562": 2592,
    "6a7573": 2593,
    "6a75737469": 2594,
    "446573": 2595,
    "63726561": 2596,
    "666176": 2597,
    "6661766f7572": 2598,
    "616e6720": 2599,
    "75746520": 2600,
    "7365766572": 2601,
    "656c7365": 2602,
    "6f662c20": 2603,
    "686579": 2604,
    "652c20616e6420": 2605,
    "6d6520746f20": 2606,
    "0a57686174277320": 2607,
    "3b207768": 2608,
    "6f277320": 2609,
    "6c696b6520746f20": 2610,
    "73776f72642c20": 2611,
    "616c6d6f737420": 2612,
    "6c61636b20": 2613,
    "636f77617264": 2614,
    "2e2042": 2615,
    "68616e6720": 2616,
    "732c207468617420": 2617,
    "6772616e74": 2618,
    "6772616e74656420": 2619,
    "6c6f6f6b20": 2620,
    "7468657920776f756c6420": 2621,
    "6d6f6f6e": 2622,
    "5768617420697320": 2623,
    "776973": 2624,
    "77697364": 2625,
    "776973646f6d": 2626,
    "75747573": 2627,
    "6963696e69": 2628,
    "49206b6e6f7720": 2629,
    "2753": 2630,
    "2c0a45726520": 2631,
    "7072657661": 2632,
    "67726561746572": 2633,
    "5468697320697320": 2634,
    "746f6c6420": 2635,
    "2e0a4920": 2636,
    "79696e6720": 2637,
    "776f726c6420": 2638,
    "70617274792c20": 2639,
    "276c6420": 2640,
    "4f6e6c7920": 2641,
    "70726f756420746f20": 2642,
    "436f6d696e69757320": 2643,
    "20737469": 2644,
    "666967687420": 2645,
    "626568": 2646,
    "6420617320": 2647,
    "48652068617320": 2648,
    "657175": 2649,
    "4d61726b": 2650,
    "6c697020": 2651,
    "4e6179": 2652,
    "68652077696c6c20": 2653,
    "6465737420": 2654,
    "2e0a0a4252555455533a0a54686520": 2655,
    "737563636573": 2656,
    "776869636820686520": 2657,
    "2077686f6d": 2658,
    "6361727269": 2659,
    "0a5368616c6c20": 2660,
    "706572666f726d": 2661,
    "626f72": 2662,
    "2e0a5468": 2663,
    "6561726e": 2664,
    "6564207468656d20": 2665,
    "6661756c7473": 2666,
    "7567687420": 2667,
    "68656e6365": 2668,
    "2e0a0a4252555455533a0a4c": 2669,
    "656e746572": 2670,
    "6974206e6f7420": 2671,
    "796f757273": 2672,
    "2074686f7567687420": 2673,
    "626f6469": 2674,
    "646179": 2675,
    "6f6e650a": 2676,
    "696e636520": 2677,
    "4920686561726420": 2678,
    "7072657373276420": 2679,
    "27642c0a": 2680,
    "436f6d696e6975732c20": 2681,
    "707265706172": 2682,
    "0a576869": 2683,
    "666f7220796f75": 2684,
    "2e270a0a": 2685,
    "2c0a497420": 2686,
    "646973636f": 2687,
    "2c207768696368": 2688,
    "2e0a0a5365636f6e642053656e61746f723a0a": 2689,
    "6365727461696e": 2690,
    "686f6e6f757273": 2691,
    "6368616e636520": 2692,
    "6368616e636520746f20": 2693,
    "73776f726e20": 2694,
    "6265747765656e20": 2695,
    "657665722073": 2696,
    "4661726577656c6c": 2697,
    "7072617920796f752c20": 2698,
    "6461756768": 2699,
    "6461756768746572": 2700,
    "66726565": 2701,
    "616273656e": 2702,
    "62656420": 2703,
    "686520776f756c6420": 2704,
    "666f72206120": 2705,
    "732720": 2706,
    "7469657320": 2707,
    "616e2068": 2708,
    "616e20686f757220": 2709,
    "686f6c64": 2710,
    "73746972": 2711,
    "65656b": 2712,
    "626f756e6420": 2713,
    "61206d616e": 2714,
    "70726f76656420": 2715,
    "70726f66": 2716,
    "6561636820": 2717,
    "49206861642072617468657220": 2718,
    "776f6d616e": 2719,
    "3a0a4d": 2720,
    "636f6d6520746f20": 2721,
    "766973": 2722,
    "766973697420": 2723,
    "6d7973656c66": 2724,
    "2e0a4d": 2725,
    "657468696e6b": 2726,
    "657468696e6b7320": 2727,
    "68757362": 2728,
    "706c75636b20": 2729,
    "6e696e6720": 2730,
    "616d70": 2731,
    "626c6f6f647920": 2732,
    "2c0a4c696b6520": 2733,
    "686172": 2734,
    "742d": 2735,
    "2074686174277320": 2736,
    "0a4f7220": 2737,
    "4a7570": 2738,
    "4a75706974": 2739,
    "4a757069746572": 2740,
    "486563746f72": 2741,
    "6c6f6f6b276420": 2742,
    "616e2073": 2743,
    "656c6c20": 2744,
    "75706f6e2068697320": 2745,
    "3f0a0a56495247494c49413a0a": 2746,
    "2e0a0a564f4c554d4e49413a0a486520": 2747,
    "7363686f": 2748,
    "7363686f6f6c": 2749,
    "7361772068696d20": 2750,
    "616674657220": 2751,
    "492077617272616e7420": 2752,
    "6861766520796f7520": 2753,
    "6166746572": 2754,
    "2e0a0a56495247494c49413a0a4e6f2c20": 2755,
    "646f6f72": 2756,
    "6f766572": 2757,
    "72657475726e20": 2758,
    "6c69657320": 2759,
    "70726179": 2760,
    "492077": 2761,
    "61726e": 2762,
    "2073686520": 2763,
    "6c65617665": 2764,
    "70697479": 2765,
    "676f2077697468207573": 2766,
    "2c20746865726520": 2767,
    "4920646f206e6f7420": 2768,
    "6c61737420": 2769,
    "6e69676874": 2770,
    "73740a": 2771,
    "697320676f6e652c20": 2772,
    "6f6e65207061727420": 2773,
    "6c6f726420": 2774,
    "6e6f7468696e6720": 2775,
    "6272696566": 2776,
    "2e205468697320": 2777,
    "47697665206d6520": 2778,
    "796f7520696e20": 2779,
    "6e6f772c2073": 2780,
    "6469736561736520": 2781,
    "776f756c64": 2782,
    "2e2050": 2783,
    "6d6574": 2784,
    "76696577": 2785,
    "68617665206e6f7420": 2786,
    "73706f6b6520": 2787,
    "77696c6c0a": 2788,
    "666172": 2789,
    "57697468": 2790,
    "6c6172": 2791,
    "4e6f772c20": 2792,
    "3f0a0a46697273742053656e61746f723a0a": 2793,
    "2e0a4861726b": 2794,
    "627265616b20": 2795,
    "4e6f7720": 2796,
    "627261766520": 2797,
    "796f6e6420": 2798,
    "726574697265": 2799,
    "6865207368616c6c20": 2800,
    "706c616775": 2801,
    "696e6665": 2802,
    "596f752073": 2803,
    "626561722074686520": 2804,
    "70657320": 2805,
    "6f66206d656e": 2806,
    "687572": 2807,
    "6261636b": 2808,
    "67687420616e6420": 2809,
    "2c2062792074686520": 2810,
    "68656176656e": 2811,
    "6d616b65206d7920": 2812,
    "7472656e6368": 2813,
    "6174657320": 2814,
    "7365636f6e": 2815,
    "206d652c20616e6420": 2816,
    "466f": 2817,
    "68617264": 2818,
    "696e657373": 2819,
    "74686579206861766520": 2820,
    "546f2074686520": 2821,
    "737564": 2822,
    "73756464656e": 2823,
    "20616c6f6e65": 2824,
    "626f77": 2825,
    "61737420": 2826,
    "76656e20746f20": 2827,
    "0a4f6e": 2828,
    "73696f6e20": 2829,
    "2c0a54686f75": 2830,
    "69662074686520": 2831,
    "0a5765726520": 2832,
    "526f6d616e3a0a": 2833,
    "77696c6c204920": 2834,
    "6f6e7320": 2835,
    "776974682074686f7365207468617420": 2836,
    "646f6e652c20": 2837,
    "2c0a50": 2838,
    "696572": 2839,
    "526f6d616e73": 2840,
    "64726f70": 2841,
    "746f206d65": 2842,
    "4e6f772074686520": 2843,
    "652c0a": 2844,
    "7020696e20": 2845,
    "776974682074686565": 2846,
    "67656e746c": 2847,
    "73706572": 2848,
    "6e6f206c657373": 2849,
    "6d696e64": 2850,
    "2061776179": 2851,
    "210a0a434f4d494e4955533a0a": 2852,
    "666f75676874": 2853,
    "6e65697468657220": 2854,
    "2c0a4e6f7220": 2855,
    "696e746572": 2856,
    "2e2059": 2857,
    "6420746865697220": 2858,
    "656e636f756e746572": 2859,
    "647269": 2860,
    "566f6c73636573": 2861,
    "666f726365": 2862,
    "666c61": 2863,
    "792764": 2864,
    "492068617665": 2865,
    "7365656e20": 2866,
    "46726f6d20": 2867,
    "626564": 2868,
    "417320": 2869,
    "206d616e20": 2870,
    "65733a0a": 2871,
    "6f6c64": 2872,
    "6c6970": 2873,
    "652120": 2874,
    "666f72207468656d": 2875,
    "736572766520": 2876,
    "76616e7461676520": 2877,
    "2c0a546865697220": 2878,
    "416e746961746573": 2879,
    "686f7065": 2880,
    "4920646f206265736565636820796f75": 2881,
    "626174746c657320": 2882,
    "646972": 2883,
    "64697265": 2884,
    "616761696e737420": 2885,
    "6c61792074686520": 2886,
    "0a596f75": 2887,
    "636f6e6475": 2888,
    "616c6d": 2889,
    "7375636820": 2890,
    "6974207765726520": 2891,
    "6c696665": 2892,
    "666f6c6c6f7720": 2893,
    "616c6f6e65": 2894,
    "6365727461696e20": 2895,
    "5368616c6c20": 2896,
    "4d616b6520": 2897,
    "63656e74": 2898,
    "77696c6c20736572": 2899,
    "77696c6c207365727665": 2900,
    "6e6f74206f757220": 2901,
    "2773": 2902,
    "6b6572": 2903,
    "7374206e6f7420": 2904,
    "492073686f756c6420": 2905,
    "746561727320": 2906,
    "667573": 2907,
    "64696e": 2908,
    "68656c64": 2909,
    "2e2049206861766520": 2910,
    "746127656e": 2911,
    "74726164": 2912,
    "7072616973657320": 2913,
    "766f756368": 2914,
    "276761696e737420": 2915,
    "4f6620616c6c2074686520": 2916,
    "746127656e20": 2917,
    "6669656c6420": 2918,
    "3b0a42757420": 2919,
    "73616d6520": 2920,
    "732c207768696368": 2921,
    "6f667420": 2922,
    "68696d20626520": 2923,
    "636c61": 2924,
    "6c6f76656420": 2925,
    "73686f756c6420626520": 2926,
    "2e0a0a434f4d494e4955533a0a54": 2927,
    "3b0a4d": 2928,
    "6769766520796f7520": 2929,
    "793a20": 2930,
    "6861726d": 2931,
    "2073616665": 2932,
    "2e205468657265": 2933,
    "2e205468657265666f72652c20": 2934,
    "626520697420": 2935,
    "6b656e20": 2936,
    "6661636520": 2937,
    "706572636569": 2938,
    "7065726365697665": 2939,
    "75736820": 2940,
    "65730a546f20": 2941,
    "66616972": 2942,
    "74656e74": 2943,
    "726974": 2944,
    "3a2073": 2945,
    "67697665206d7920": 2946,
    "62656767": 2947,
    "77696e64": 2948,
    "796561": 2949,
    "74696d650a": 2950,
    "636f6e646974696f6e": 2951,
    "2c0a49206861766520": 2952,
    "6f6674656e20": 2953,
    "6f6674656e": 2954,
    "2e204d7920": 2955,
    "62792068696d": 2956,
    "697473656c66": 2957,
    "726f7474": 2958,
    "726f7474656e20": 2959,
    "686f6d652c20": 2960,
    "2773206865617274": 2961,
    "0a2754697320": 2962,
    "49206d617920": 2963,
    "2e0a0a4d454e454e4955533a0a54686520": 2964,
    "476f6f6420": 2965,
    "6265617374": 2966,
    "6c616d62": 2967,
    "48652773206120": 2968,
    "6c6976657320": 2969,
    "0a61726520": 2970,
    "2e0a0a426f": 2971,
    "74683a0a": 2972,
    "696e20707269": 2973,
    "6172650a": 2974,
    "636974792c20": 2975,
    "6f6620757320": 2976,
    "707269646520": 2977,
    "7265696e": 2978,
    "61740a": 2979,
    "20796f752063616e20": 2980,
    "20776f6e": 2981,
    "796f750a": 2982,
    "616e64206d616b6520": 2983,
    "6d616769": 2984,
    "6d616769737472": 2985,
    "4d656e656e6975732c20": 2986,
    "656e6f75676820": 2987,
    "206f6620": 2988,
    "0a5469": 2989,
    "696e0a": 2990,
    "74696e": 2991,
    "6c696b650a": 2992,
    "49207468696e6b20": 2993,
    "74696e6720": 2994,
    "70616c": 2995,
    "2c20696620": 2996,
    "6b6e61": 2997,
    "6b6e61766573": 2998,
    "737920": 2999,
    "20746872656520": 3000,
    "6469656e6365": 3001,
    "636f6c": 3002,
    "7061697220": 3003,
    "6f6e6573": 3004,
    "4d61726369757320697320": 3005,
    "657374696d6174696f6e": 3006,
    "6e6f772c206d7920": 3007,
    "617070726f": 3008,
    "616368": 3009,
    "2e0a0a4d454e454e4955533a0a48": 3010,
    "626174696f6e": 3011,
    "6e6f2c206e6f2c20": 3012,
    "733a20": 3013,
    "277477617320": 3014,
    "2c20616e642074686520": 3015,
    "207468656d2e20": 3016,
    "6174650a": 3017,
    "3a206865206861746820": 3018,
    "7175696e": 3019,
    "7477656e74": 3020,
    "792d": 3021,
    "75706f6e2068696d": 3022,
    "212074686520": 3023,
    "65732c20616e6420": 3024,
    "69746820": 3025,
    "72656e6f776e656420": 3026,
    "6b6e6f772c20": 3027,
    "67726163696f757320": 3028,
    "77656570": 3029,
    "746f2073656520": 3030,
    "2c204920616d20": 3031,
    "792e2057": 3032,
    "726f6f": 3033,
    "676f206f6e": 3034,
    "696e686572": 3035,
    "706563": 3036,
    "6c6561647320": 3037,
    "6f6e2073": 3038,
    "77686174": 3039,
    "6761766520": 3040,
    "792c0a": 3041,
    "6c656570": 3042,
    "74656d706572": 3043,
    "642c2062757420": 3044,
    "616e6369": 3045,
    "616e6369656e7420": 3046,
    "707574": 3047,
    "776f756e6473": 3048,
    "696e6b696e6720": 3049,
    "6d69737320": 3050,
    "64657369726520": 3051,
    "707572706f736520": 3052,
    "3b207468617420": 3053,
    "732c20617320": 3054,
    "3a0a49206861766520": 3055,
    "7365656e": 3056,
    "657320616e6420": 3057,
    "4a6f7665": 3058,
    "2e0a0a534943494e4955533a0a4861766520": 3059,
    "67726f756e": 3060,
    "6465746572": 3061,
    "646573697265": 3062,
    "436f72696f6c616e75732c20": 3063,
    "6173746572": 3064,
    "68617665206d7920": 3065,
    "2073617920": 3066,
    "6f66207468652070656f706c65": 3067,
    "776e20": 3068,
    "0a54686174277320": 3069,
    "6c696d": 3070,
    "6368276420": 3071,
    "68652073": 3072,
    "3a20616c": 3073,
    "43616c6c20": 3074,
    "637573746f6d": 3075,
    "72616765": 3076,
    "7468656d206e6f7420": 3077,
    "726571756972": 3078,
    "696e666f726d207468656d": 3079,
    "6f757220766f69636573": 3080,
    "64656e7920": 3081,
    "74656c6c20757320": 3082,
    "2c20736f6d6520": 3083,
    "77697420": 3084,
    "3f0a0a546869726420436974697a656e3a0a": 3085,
    "2c20776865726520": 3086,
    "6772656174657220": 3087,
    "2e0a4865726520": 3088,
    "746f6e67756573": 3089,
    "507261792c20": 3090,
    "72616e": 3091,
    "696e6b2075706f6e": 3092,
    "666f7267657420": 3093,
    "42696420": 3094,
    "6b6e6f772074686520": 3095,
    "2e0a0a434f52494f4c414e55533a0a4d": 3096,
    "796f7572206f776e20": 3097,
    "2e0a0a46": 3098,
    "6f7572746820436974697a656e3a0a": 3099,
    "6f7572746820436974697a656e3a0a596f75206861766520": 3100,
    "656e656d6965732c20": 3101,
    "68756d626c6520": 3102,
    "63686f736520": 3103,
    "796f7572206c6f766573": 3104,
    "57687920": 3105,
    "656974686572": 3106,
    "746f20736565": 3107,
    "626f647920": 3108,
    "27642068697320": 3109,
    "63686f6c": 3110,
    "63686f6c6572": 3111,
    "6a756467": 3112,
    "3a0a49276c6c20": 3113,
    "6120636f6e73756c": 3114,
    "6b650a596f757220": 3115,
    "66726f6d20796f75": 3116,
    "6e67": 3117,
    "7374696c6c": 3118,
    "64726177": 3119,
    "4c6574207468656d20": 3120,
    "0a5468697320": 3121,
    "68617a": 3122,
    "746865726520": 3123,
    "6f27207468652070656f706c65": 3124,
    "6e2c20": 3125,
    "6177": 3126,
    "416e7469756d": 3127,
    "2e0a0a434f52494f4c414e55533a0a486f77": 3128,
    "3b0a5468617420": 3129,
    "2e0a0a434f52494f4c414e55533a0a5768617420": 3130,
    "746f20746865206d61726b65742d706c616365": 3131,
    "3f0a4d75737420": 3132,
    "6d6f757468": 3133,
    "706c6f": 3134,
    "2073686f7720": 3135,
    "6e6576657220626520": 3136,
    "686f6e6f7572276420": 3137,
    "576861742c20": 3138,
    "6162736f6c": 3139,
    "69676e6f72616e6365": 3140,
    "2c0a4966": 3141,
    "636f726e20": 3142,
    "757365640a": 3143,
    "77656c6c2c20": 3144,
    "736561": 3145,
    "686176": 3146,
    "2e0a0a534943494e4955533a0a48": 3147,
    "2077686f736520": 3148,
    "68616e647320": 3149,
    "7368616b6520": 3150,
    "446f776e20": 3151,
    "776561706f6e": 3152,
    "70656163652c20": 3153,
    "7275696e": 3154,
    "6c657420757320": 3155,
    "726f636b20": 3156,
    "4920776f756c642074686579207765726520": 3157,
    "2e0a0a4120": 3158,
    "2e0a0a412050617472696369616e3a0a": 3159,
    "4c65737420": 3160,
    "736169": 3161,
    "65787472656d": 3162,
    "776966652c20": 3163,
    "74686f75206861737420": 3164,
    "6f757420617420": 3165,
    "70726f6365656420": 3166,
    "616e792066757274686572": 3167,
    "68656172206d6520737065616b": 3168,
    "537065616b2c20737065616b": 3169,
    "7265736f6c76656420": 3170,
    "72617468657220746f20": 3171,
    "746f2066616d": 3172,
    "746f2066616d697368": 3173,
    "526573": 3174,
    "466972": 3175,
    "46697273742c20": 3176,
    "2e0a0a416c6c3a0a576520": 3177,
    "27742c20": 3178,
    "7765206b6e6f77": 3179,
    "4c657420757320": 3180,
    "636f726e20617420": 3181,
    "6f7572206f776e20": 3182,
    "63652e0a": 3183,
    "2774206120": 3184,
    "64696374": 3185,
    "6f6e2774": 3186,
    "636974697a656e73": 3187,
    "676f6f64": 3188,
    "20776f756c64207265": 3189,
    "20746865790a": 3190,
    "6275742074686520": 3191,
    "7375706572": 3192,
    "7375706572666c": 3193,
    "7375706572666c75": 3194,
    "656c79": 3195,
    "62757420746865": 3196,
    "2077652061726520": 3197,
    "746861740a": 3198,
    "75732c2074686520": 3199,
    "6a65637420": 3200,
    "6572792c20": 3201,
    "697320617320": 3202,
    "616e0a": 3203,
    "6f727920746f20": 3204,
    "706172746963756c": 3205,
    "706172746963756c6172": 3206,
    "62756e64616e6365": 3207,
    "776974680a": 3208,
    "65726520776520": 3209,
    "68756e67": 3210,
    "68756e67657220": 3211,
    "696e207468": 3212,
    "726576656e6765": 3213,
    "70656369": 3214,
    "70656369616c6c": 3215,
    "7920616761696e737420": 3216,
    "66697273743a20": 3217,
    "68652773206120": 3218,
    "20746f2074686520": 3219,
    "436f6e7369646572": 3220,
    "5665727920": 3221,
    "566572792077656c6c": 3222,
    "636f756c6420626520": 3223,
    "7468617420686520": 3224,
    "6265696e672070726f7564": 3225,
    "6d616c696369": 3226,
    "6d616c6963696f7573": 3227,
    "6865206469640a": 3228,
    "636f6e736369": 3229,
    "636f6e74656e7420746f20": 3230,
    "636f756e74727920": 3231,
    "6d6f7468657220": 3232,
    "706172746c7920": 3233,
    "696e206e6f20": 3234,
    "636f7665": 3235,
    "206163637573": 3236,
    "2061636375736174696f6e": 3237,
    "74732061726520": 3238,
    "3f2054686520": 3239,
    "207369646520": 3240,
    "3a207768": 3241,
    "696e6720686572653f20": 3242,
    "436f6d652c20636f6d65": 3243,
    "3f0a0a5365636f6e6420436974697a656e3a0a": 3244,
    "4d656e656e69757320": 3245,
    "3b206f6e65207468617420": 3246,
    "7761797320": 3247,
    "686f6e65737420": 3248,
    "7265737420": 3249,
    "6261747320616e6420": 3250,
    "6261747320616e6420636c": 3251,
    "6261747320616e6420636c7562": 3252,
    "627573696e65737320": 3253,
    "3b207468657920": 3254,
    "207468697320666f72": 3255,
    "27656d20": 3256,
    "6465656473": 3257,
    "73206861766520": 3258,
    "2074686579207368616c6c20": 3259,
    "61726d7320": 3260,
    "796f757273656c766573": 3261,
    "756e646f6e6520": 3262,
    "796f75206d617920": 3263,
    "6c69667420": 3264,
    "207374": 3265,
    "636f7572736520": 3266,
    "6974207461": 3267,
    "74656e207468": 3268,
    "6f7573616e6420": 3269,
    "63757262": 3270,
    "730a4f66": 3271,
    "207468616e2063616e20": 3272,
    "0a41707065": 3273,
    "0a41707065617220": 3274,
    "696d7065": 3275,
    "696d70656469": 3276,
    "676f64732c20": 3277,
    "746f207468656d2c20": 3278,
    "2e2041": 3279,
    "7472616e": 3280,
    "7472616e73706f72": 3281,
    "617474656e": 3282,
    "73746174652c20": 3283,
    "6361726520": 3284,
    "732c0a5768656e": 3285,
    "7468656d20617320": 3286,
    "21205468657920": 3287,
    "656420666f72207573": 3288,
    "73746f72652d": 3289,
    "677261696e": 3290,
    "63747320": 3291,
    "3b207265": 3292,
    "77686f6c65736f6d6520": 3293,
    "65737461": 3294,
    "6573746162": 3295,
    "65737461626c69": 3296,
    "7669646520": 3297,
    "6d6f72650a": 3298,
    "70696572": 3299,
    "696c792c20": 3300,
    "7265737472": 3301,
    "726573747261696e": 3302,
    "6c6f7665207468657920": 3303,
    "776f6e6472": 3304,
    "776f6e64726f757320": 3305,
    "6163637573656420": 3306,
    "70726574747920": 3307,
    "74616c65": 3308,
    "74616c653a20": 3309,
    "6865617264206974": 3310,
    "707572706f73652c20": 3311,
    "68656172206974": 3312,
    "2c207369723a2079657420": 3313,
    "206f666620": 3314,
    "686572652077617320": 3315,
    "626f6479277320": 3316,
    "62656c6c792c20": 3317,
    "67756c": 3318,
    "69742064696420": 3319,
    "2c0a5374696c6c20": 3320,
    "6c6162": 3321,
    "726573742c20": 3322,
    "746865206f7468657220": 3323,
    "696e737472": 3324,
    "696e737472756d": 3325,
    "696e737472756d656e74": 3326,
    "44696420": 3327,
    "686561722c20": 3328,
    "616c6b": 3329,
    "6d696e69": 3330,
    "6d696e6973746572": 3331,
    "617070657469": 3332,
    "746520616e6420": 3333,
    "0a4f66207468652077686f6c6520": 3334,
    "0a4f66207468652077686f6c6520626f6479": 3335,
    "2e2054686520": 3336,
    "6c756e67": 3337,
    "7468652062656c6c7920": 3338,
    "6d7574696e6f757320": 3339,
    "3b206576656e": 3340,
    "666974": 3341,
    "0a417320796f75": 3342,
    "206d616c69": 3343,
    "73656e61746f727320": 3344,
    "7375636820617320": 3345,
    "62656c6c79277320": 3346,
    "62656c6c79277320616e73776572": 3347,
    "210a54686520": 3348,
    "6c792d": 3349,
    "686561642c20": 3350,
    "652c0a54686520": 3351,
    "636f756e73656c6c": 3352,
    "706574747920": 3353,
    "68656c70730a": 3354,
    "496e207468697320": 3355,
    "666162726963": 3356,
    "3f0a27": 3357,
    "3f2077686174207468656e": 3358,
    "6b206f272074686520": 3359,
    "2c2d2d0a0a4d454e454e4955533a0a": 3360,
    "3f0a0a466972737420436974697a656e3a0a54686520": 3361,
    "666f726d6572": 3362,
    "6966207468657920": 3363,
    "636f6d706c61696e": 3364,
    "2c0a5768617420": 3365,
    "0a4966": 3366,
    "20796f75276c6c20": 3367,
    "626573746f77": 3368,
    "6f66207768617420": 3369,
    "617768696c65": 3370,
    "2c20796f75276c6c20": 3371,
    "2061626f757420": 3372,
    "4e6f746520": 3373,
    "3b0a596f757220": 3374,
    "72756520": 3375,
    "726563656976652074686520": 3376,
    "6174206669727374": 3377,
    "73656e6420": 3378,
    "3b0a41": 3379,
    "3b0a416e642c20": 3380,
    "6f66206d616e": 3381,
    "76657320616e6420": 3382,
    "6d616c6c20": 3383,
    "696e66": 3384,
    "6f72207665": 3385,
    "6e617475": 3386,
    "6e6174757261": 3387,
    "6e61747572616c20": 3388,
    "6279": 3389,
    "6c697665": 3390,
    "2c27": 3391,
    "736179732074686520": 3392,
    "3b2077656c6c2c20": 3393,
    "77656c6c2e0a0a4d454e454e4955533a0a": 3394,
    "6174206f6e636520": 3395,
    "63616e6e6f740a": 3396,
    "2c0a59657420": 3397,
    "6261636b20": 3398,
    "6272616e": 3399,
    "73617920796f7520": 3400,
    "49742077617320": 3401,
    "3a20686f77": 3402,
    "796f752074686973": 3403,
    "526f6d652061726520": 3404,
    "6d656d62657273": 3405,
    "66696e640a": 3406,
    "7075626c696320": 3407,
    "62656e": 3408,
    "66726f6d207468656d20": 3409,
    "646f20796f75207468": 3410,
    "646f20796f75207468696e6b": 3411,
    "617373656d": 3412,
    "617373656d626c79": 3413,
    "677265617420746f65": 3414,
    "2c206265696e6720": 3415,
    "6573742c20": 3416,
    "2c0a4f66": 3417,
    "7769736520": 3418,
    "2c2074686f7520": 3419,
    "3a0a54686f7520": 3420,
    "726173": 3421,
    "72617363616c": 3422,
    "776f72737420": 3423,
    "746f2077": 3424,
    "696e20736f6d6520": 3425,
    "76616e74616765": 3426,
    "796f757220737469": 3427,
    "7261747320": 3428,
    "626174746c65": 3429,
    "6e6f626c65204d617263697573": 3430,
    "210a0a4d4152434955533a0a5468": 3431,
    "2e2057686174277320746865206d6174746572": 3432,
    "2c20796f7520": 3433,
    "67756573": 3434,
    "2c0a546861742c20": 3435,
    "727562": 3436,
    "6f70696e69": 3437,
    "6f6e2c0a4d": 3438,
    "746f207468656520": 3439,
    "3f2074686520": 3440,
    "6672696768": 3441,
    "747320796f75": 3442,
    "206d616b657320": 3443,
    "2e204865207468617420": 3444,
    "7573747320": 3445,
    "66696e647320": 3446,
    "666f78": 3447,
    "6765657365": 3448,
    "2c0a5468616e20": 3449,
    "6861696c": 3450,
    "73746f6e6520": 3451,
    "0a546f206d616b6520": 3452,
    "63652064696420": 3453,
    "2e0a5768": 3454,
    "646573657276657320": 3455,
    "4465736572": 3456,
    "446573657276657320": 3457,
    "3b20616e6420796f757220": 3458,
    "616666656374696f6e": 3459,
    "0a412073": 3460,
    "206d616e277320": 3461,
    "746861740a5768696368": 3462,
    "696e63726561": 3463,
    "73652068697320": 3464,
    "646570": 3465,
    "656e6473": 3466,
    "0a55706f6e": 3467,
    "73207769746820": 3468,
    "6c656164": 3469,
    "72757368": 3470,
    "796f7520646f20": 3471,
    "6368616e676520": 3472,
    "61206d696e64": 3473,
    "63616c6c2068696d20": 3474,
    "746861742077617320": 3475,
    "696d20": 3476,
    "73656e6174652c20": 3477,
    "77686f": 3478,
    "77686f2c0a": 3479,
    "6b65657020796f7520": 3480,
    "77652c20": 3481,
    "0a576f756c6420": 3482,
    "64206f6e20": 3483,
    "7365656b696e67": 3484,
    "3b207768657265": 3485,
    "7468657920736179": 3486,
    "65642e0a0a4d4152434955533a0a": 3487,
    "686579276c6c20": 3488,
    "6f207468": 3489,
    "6465636c696e": 3490,
    "616e64206769766520": 3491,
    "206d6172": 3492,
    "6b696e6720": 3493,
    "7061727469657320": 3494,
    "207375636820617320": 3495,
    "0a42656c": 3496,
    "0a42656c6f77": 3497,
    "62626c65": 3498,
    "6e6f62696c69747920": 3499,
    "6c61792061": 3500,
    "6c617920617369646520": 3501,
    "757365206d7920": 3502,
    "73776f72642c2049276c6c20": 3503,
    "6d616b65206120": 3504,
    "71756172": 3505,
    "746572276420": 3506,
    "7665732c20": 3507,
    "646973637265": 3508,
    "49206265736565636820796f75": 3509,
    "546865792061726520": 3510,
    "68616e672027656d": 3511,
    "616e2d": 3512,
    "68756e6772": 3513,
    "6f6b6520": 3514,
    "646f677320": 3515,
    "656174": 3516,
    "206d6f757468": 3517,
    "74686520676f647320": 3518,
    "7769746820746865736520": 3519,
    "656420746865697220": 3520,
    "733b20776869636820": 3521,
    "6772616e746564207468656d": 3522,
    "7472616e676520": 3523,
    "6f6e652d2d": 3524,
    "6865617274206f6620": 3525,
    "65726f": 3526,
    "6974792c0a416e6420": 3527,
    "626f6c6420": 3528,
    "70616c65": 3529,
    "792074687265": 3530,
    "7720746865697220": 3531,
    "656d75": 3532,
    "656d756c61": 3533,
    "656d756c6174696f6e": 3534,
    "4669766520": 3535,
    "646566656e6420": 3536,
    "76756c": 3537,
    "207468656972206f776e20": 3538,
    "63686f696365": 3539,
    "4272": 3540,
    "427275747573": 3541,
    "7072657661696c276420": 3542,
    "77697468206d65": 3543,
    "77696c6c20696e20": 3544,
    "706f77657220616e6420": 3545,
    "696e672e0a0a4d454e454e4955533a0a5468697320697320": 3546,
    "696e672e0a0a4d454e454e4955533a0a5468697320697320737472": 3547,
    "616e6765": 3548,
    "476f2c2067657420": 3549,
    "667261": 3550,
    "686174277320746865206d61747465723f0a0a4d657373656e6765723a0a": 3551,
    "69732c207369722c20": 3552,
    "566f6c736365732061726520": 3553,
    "566f6c736365732061726520696e20": 3554,
    "566f6c736365732061726520696e2061726d": 3555,
    "566f6c736365732061726520696e2061726d73": 3556,
    "566f6c736365732061726520696e2061726d732e0a0a4d4152434955533a0a": 3557,
    "4920616d20676c61": 3558,
    "3a207468656e": 3559,
    "207765207368616c6c20": 3560,
    "207765207368616c6c206861": 3561,
    "2e2053": 3562,
    "656c646572": 3563,
    "7468617420796f75206861766520": 3564,
    "6174656c7920": 3565,
    "54686579206861766520": 3566,
    "756c6c757320": 3567,
    "41756669646975732c20": 3568,
    "746861742077696c6c20": 3569,
    "796f7520746f20": 3570,
    "73696e20": 3571,
    "2c0a4920776f756c6420": 3572,
    "77697368206d6520": 3573,
    "666f7567687420746f676574686572": 3574,
    "68616c6620": 3575,
    "2074686520776f726c6420": 3576,
    "6561727320616e6420": 3577,
    "2e0a55706f6e": 3578,
    "7265766f6c": 3579,
    "68756e74": 3580,
    "5468656e": 3581,
    "7474656e6420": 3582,
    "666f726d657220": 3583,
    "2e0a0a4d4152434955533a0a5369722c20": 3584,
    "7374616e74": 3585,
    "68616c7420": 3586,
    "737472696b6520": 3587,
    "54756c6c": 3588,
    "54756c6c7573": 3589,
    "66616365": 3590,
    "2e0a576861742c20": 3591,
    "5449": 3592,
    "54495455533a0a": 3593,
    "6c65616e20": 3594,
    "6669676874207769746820": 3595,
    "626568696e6420": 3596,
    "2e0a0a4d454e454e4955533a0a4f2c20": 3597,
    "627265": 3598,
    "6572652c20": 3599,
    "617474656e64207573": 3600,
    "0a434f4d494e4955533a0a": 3601,
    "566f6c73636573206861766520": 3602,
    "74686974686572": 3603,
    "76616c6f757220": 3604,
    "7075747320": 3605,
    "57617320": 3606,
    "5768656e20776520": 3607,
    "666f72207468652070656f706c65": 3608,
    "276420796f7520": 3609,
    "737061726520": 3610,
    "676f64732e0a0a534943494e4955533a0a": 3611,
    "6d6f6465737420": 3612,
    "6465766f757220": 3613,
    "6465766f75722068696d": 3614,
    "6f6f20": 3615,
    "76616c69616e74": 3616,
    "64697364": 3617,
    "6469736461696e": 3618,
    "0a576869636820686520": 3619,
    "6e6f6f6e": 3620,
    "776f6e646572": 3621,
    "696e736f6c": 3622,
    "436f6d696e6975732e0a0a4252555455533a0a": 3623,
    "61696d": 3624,
    "732c0a496e": 3625,
    "6772616365": 3626,
    "426574": 3627,
    "42657474657220": 3628,
    "0a4120706c61": 3629,
    "666f72207768617420": 3630,
    "7468652067656e6572616c": 3631,
    "75746d6f737420": 3632,
    "63656e73757265": 3633,
    "207468656e20": 3634,
    "0a48616420": 3635,
    "21270a0a": 3636,
    "426573": 3637,
    "69646573": 3638,
    "2c0a4f70": 3639,
    "6f6e207468617420": 3640,
    "69747320": 3641,
    "726f62": 3642,
    "3a0a48": 3643,
    "746f204d617263697573": 3644,
    "616c6c2068697320": 3645,
    "4d617263697573207368616c6c20626520": 3646,
    "2e0a0a534943494e4955533a0a4c6574277320": 3647,
    "6d6164": 3648,
    "696e207768617420": 3649,
    "6661736869": 3650,
    "6f7265207468616e20": 3651,
    "686520676f": 3652,
    "2c0a54686174207468657920": 3653,
    "730a416e6420": 3654,
    "6b6e6f7720686f77": 3655,
    "70726f63656564": 3656,
    "61637420": 3657,
    "76656e74696f6e": 3658,
    "27546973206e6f7420": 3659,
    "53696e636520": 3660,
    "776f7264733a20": 3661,
    "0a49206861766520": 3662,
    "7965732c20": 3663,
    "686579206861766520": 3664,
    "706f7765722c2062757420": 3665,
    "6974206973206e6f7420": 3666,
    "0a5768657468657220": 3667,
    "6f722077": 3668,
    "72756d": 3669,
    "776f72736520": 3670,
    "5469747573204c6172746975732c20": 3671,
    "76616c69616e7420": 3672,
    "657365207468": 3673,
    "65736520746872656520": 3674,
    "436f6e736964657220": 3675,
    "61726d79": 3676,
    "616e7377657220": 3677,
    "73686f77207468656d": 3678,
    "276420746f20": 3679,
    "2e2042792074686520": 3680,
    "646973636f766572": 3681,
    "2e0a576520": 3682,
    "616c6f6e6520": 3683,
    "677561726420": 3684,
    "3a0a4966": 3685,
    "646f776e206265666f726520": 3686,
    "696e6720796f757220": 3687,
    "66696e64": 3688,
    "646f756274206e6f7420": 3689,
    "4920737065616b20": 3690,
    "6c6561766520796f757220": 3691,
    "6d656574": 3692,
    "210a0a41554649444955533a0a": 3693,
    "73616665": 3694,
    "6f72206578": 3695,
    "636f6d666f72": 3696,
    "7461626c6520": 3697,
    "206d7920736f6e": 3698,
    "72656a": 3699,
    "696e207468617420": 3700,
    "616273656e636520": 3701,
    "7768657265696e20": 3702,
    "63656d656e74": 3703,
    "74656e646572": 3704,
    "736f6e20": 3705,
    "7768656e0a": 3706,
    "73656c6c20": 3707,
    "492c20": 3708,
    "636f6e7369": 3709,
    "636f6e7369646572": 3710,
    "6974207761": 3711,
    "6374757265": 3712,
    "2c2077617320": 3713,
    "6c65742068696d2073": 3714,
    "746f2066696e6420": 3715,
    "637275": 3716,
    "637275656c": 3717,
    "77617220": 3718,
    "66726f6d207768": 3719,
    "66726f6d207768656e636520": 3720,
    "20746865652c20": 3721,
    "6368696c": 3722,
    "736565696e6720": 3723,
    "6d6164616d3b20": 3724,
    "5468656e20": 3725,
    "676f6f64207265706f727420": 3726,
    "666f756e6420": 3727,
    "686164204920": 3728,
    "20736f6e": 3729,
    "696e206d79206c6f7665": 3730,
    "64696520": 3731,
    "766f6c": 3732,
    "6665697420": 3733,
    "4c6164": 3734,
    "56616c": 3735,
    "56616c657269": 3736,
    "6565636820796f752c20": 3737,
    "67697665206d6520": 3738,
    "657468696e6b73204920": 3739,
    "68757362616e64": 3740,
    "646f776e2062792074686520": 3741,
    "6368696c6472656e20": 3742,
    "66726f6d206120": 3743,
    "436f6d65206f6e2c20": 3744,
    "2c0a54686f756768": 3745,
    "626c6f6f64792062726f77": 3746,
    "70696e672c20": 3747,
    "2c0a4c696b6520746f206120": 3748,
    "68697265": 3749,
    "2e0a0a56495247494c49413a0a48": 3750,
    "417761792c20": 3751,
    "2120697420": 3752,
    "742068697320": 3753,
    "636b6c6520": 3754,
    "6865722077": 3755,
    "656c636f6d65": 3756,
    "6d79206c6f726420": 3757,
    "66656c6c20": 3758,
    "62656c": 3759,
    "62656c6f7720": 3760,
    "62656c6f772068697320": 3761,
    "6c616469657320": 3762,
    "6420746f2073656520": 3763,
    "6c61647973686970": 3764,
    "696665737420": 3765,
    "4f27": 3766,
    "4f27206d7920": 3767,
    "666174686572277320": 3768,
    "737765": 3769,
    "626f79": 3770,
    "6f27": 3771,
    "746f6765746865723a20": 3772,
    "636f6e666972": 3773,
    "206166746572": 3774,
    "666c79": 3775,
    "616761696e3b20616e6420": 3776,
    "6f76657220": 3777,
    "636f6d65732c20616e6420": 3778,
    "616761696e3b20": 3779,
    "6361746368": 3780,
    "68696d2c206f7220": 3781,
    "746565746820": 3782,
    "69743b20": 3783,
    "686f7720686520": 3784,
    "6c612c20": 3785,
    "7463686572": 3786,
    "77697468206d": 3787,
    "2e0a0a56495247494c49413a0a4e6f2c20676f6f64206d6164616d": 3788,
    "6f7574206f6620646f6f72": 3789,
    "6f7574206f6620646f6f7273": 3790,
    "6865207368616c6c": 3791,
    "2e0a0a56495247494c49413a0a496e646565642c20": 3792,
    "627920796f75722070617469656e6365": 3793,
    "4669652c20": 3794,
    "3a20636f6d65": 3795,
    "74686520676f6f6420": 3796,
    "737472656e677468": 3797,
    "2074686974686572": 3798,
    "49207072617920796f75": 3799,
    "6c61626f7572": 3800,
    "656c6f": 3801,
    "70653a20": 3802,
    "7965742c20": 3803,
    "756e20": 3804,
    "73736573": 3805,
    "66696c6c": 3806,
    "6675": 3807,
    "66756c6c20": 3808,
    "73656e7369": 3809,
    "617320796f757220": 3810,
    "65722c207468617420": 3811,
    "2e20436f6d652c20": 3812,
    "2e0a0a56414c455249413a0a496e20": 3813,
    "2e0a0a56495247494c49413a0a4f2c20": 3814,
    "414c455249413a0a496e20": 3815,
    "6974277320": 3816,
    "61726d7920": 3817,
    "5469747573204c61727469757320": 3818,
    "206d696e6520686f6e6f7572": 3819,
    "2c204920707261792c20": 3820,
    "6865726561": 3821,
    "686572656166746572": 3822,
    "20616c6f6e652c20": 3823,
    "3a20617320": 3824,
    "206d6972": 3825,
    "206d69727468": 3826,
    "74726f74682c20": 3827,
    "2e2046": 3828,
    "2e0a436f6d652c20": 3829,
    "616c6f6e6720": 3830,
    "616c6f6e672077697468207573": 3831,
    "686f72736520": 3832,
    "796f7572732c20": 3833,
    "5361792c20": 3834,
    "2e0a0a4c4152544955533a0a536f2c20": 3835,
    "2e0a0a4d4152434955533a0a49276c6c20": 3836,
    "4e6f2c2049276c6c20": 3837,
    "676976652068696d": 3838,
    "756d6d": 3839,
    "2e0a0a4d4152434955533a0a486f7720": 3840,
    "6f757273": 3841,
    "2e0a4e6f772c20": 3842,
    "4920707269746865652c20": 3843,
    "6d616b6520757320": 3844,
    "696e20776f72": 3845,
    "6472756d73": 3846,
    "0a41726520": 3847,
    "74682e20": 3848,
    "75703a20": 3849,
    "686176652062757420": 3850,
    "206f6666": 3851,
    "7768617420776f726b20": 3852,
    "636c6f": 3853,
    "2e0a0a4d4152434955533a0a4f2c20": 3854,
    "6174206974": 3855,
    "696e73747275": 3856,
    "696e737472756374696f6e": 3857,
    "697373756520": 3858,
    "70757420796f757220": 3859,
    "796f7572206865617274": 3860,
    "6476616e6365": 3861,
    "5469747573": 3862,
    "646f20646973": 3863,
    "6461696e20": 3864,
    "6265796f6e6420": 3865,
    "6d652073": 3866,
    "6d792066656c6c6f77": 3867,
    "6d792066656c6c6f77733a0a": 3868,
    "6f6e206f662074686520": 3869,
    "736f75": 3870,
    "6f6e20796f75": 3871,
    "20736861": 3872,
    "6573206f6620": 3873,
    "6865726420": 3874,
    "506c61": 3875,
    "696e6665637420": 3876,
    "61206d696c65": 3877,
    "210a41": 3878,
    "210a416c6c20": 3879,
    "6875727420": 3880,
    "666163657320": 3881,
    "656e6420616e6420": 3882,
    "2c0a4f72": 3883,
    "2c2049276c6c20": 3884,
    "7472656e6368657320": 3885,
    "2e0a536f2c20": 3886,
    "676174657320": 3887,
    "7365636f6e6473": 3888,
    "65727320": 3889,
    "666f7274756e6520": 3890,
    "666c69657273": 3891,
    "646f2074686520": 3892,
    "2e0a0a466972737420536f6c646965723a0a466f": 3893,
    "3b206e6f7420": 3894,
    "7368757420": 3895,
    "6f66204d617263697573": 3896,
    "646f756274": 3897,
    "6865656c73": 3898,
    "2e0a0a4c4152544955533a0a4f20": 3899,
    "646172": 3900,
    "7374616e647320": 3901,
    "2e2054686f7520": 3902,
    "6c6566742c20": 3903,
    "626967": 3904,
    "686f752077": 3905,
    "66696572": 3906,
    "66696572636520": 3907,
    "6c6f6f6b7320": 3908,
    "2d6c696b6520": 3909,
    "6f662074687920": 3910,
    "736f756e6473": 3911,
    "64737420": 3912,
    "6b652c20": 3913,
    "4d617263697573210a": 3914,
    "6f66662c20": 3915,
    "72656d61696e2061": 3916,
    "41206d": 3917,
    "21204920": 3918,
    "746f6f6b": 3919,
    "2073696c": 3920,
    "0a4174206120": 3921,
    "726f6e7320": 3922,
    "6f66206120": 3923,
    "646f75626c65": 3924,
    "7473207468617420": 3925,
    "68616e676d656e": 3926,
    "20776f756c640a": 3927,
    "2c20746865736520": 3928,
    "6261736520": 3929,
    "77697468207468656d": 3930,
    "686572652069732074686520": 3931,
    "6f66206d792073": 3932,
    "696e67206f757220": 3933,
    "74616b650a": 3934,
    "7370697269742c20": 3935,
    "68617374": 3936,
    "626c656564": 3937,
    "73743b": 3938,
    "6265656e20746f6f20": 3939,
    "76696f6c656e7420": 3940,
    "707261697365206d6520": 3941,
    "3b0a4d7920": 3942,
    "7761726d": 3943,
    "61726520796f75207765": 3944,
    "3a20746f20": 3945,
    "74687573": 3946,
    "6f70706f736572": 3947,
    "212042": 3948,
    "67656e746c656d": 3949,
    "667269656e6420": 3950,
    "6e6f206c6573730a5468616e": 3951,
    "68696768657374": 3952,
    "20776f727468": 3953,
    "6965737420": 3954,
    "3b0a43": 3955,
    "42726561": 3956,
    "0a4c696b6520": 3957,
    "7374616e6473": 3958,
    "62656c6965766520": 3959,
    "6368617267656420": 3960,
    "640a54686520": 3961,
    "6368617267": 3962,
    "676f6473210a": 3963,
    "6f7572206f776e": 3964,
    "6f757220706f776572": 3965,
    "7769746820736d696c": 3966,
    "61637269": 3967,
    "616372696669": 3968,
    "6163726966696365": 3969,
    "676976656e20746f20": 3970,
    "706172747920": 3971,
    "2e0a0a434f4d494e4955533a0a5468": 3972,
    "20737065616b27737420": 3973,
    "2e0a486f7720": 3974,
    "6c6f6e6720": 3975,
    "73696e6365": 3976,
    "616e20686f7572": 3977,
    "636f756c64": 3978,
    "696c6520": 3979,
    "776865656c": 3980,
    "20617320686520": 3981,
    "746865207374": 3982,
    "0a4265": 3983,
    "666f72652d": 3984,
    "756e64657220": 3985,
    "736f756e6420": 3986,
    "746f6e6775650a": 3987,
    "6d65616e": 3988,
    "6572206d616e": 3989,
    "746f6f206c617465": 3990,
    "6e6f7420696e2074686520": 3991,
    "6f66206f74686572": 3992,
    "650a496e20": 3993,
    "6173207768656e20": 3994,
    "72696f72": 3995,
    "697320697420": 3996,
    "5469747573204c617274697573": 3997,
    "776974682061": 3998,
    "64656d6e": 3999,
    "746f206578": 4000,
    "696e20746865206e616d6520": 4001,
    "77696c6c2e0a0a434f4d494e4955533a0a": 4002,
    "576865726520697320": 4003,
    "736c617665": 4004,
    "2e0a0a4d4152434955533a0a4c657420": 4005,
    "0a48652064696420": 4006,
    "66696c65": 4007,
    "207368756e": 4008,
    "62756467": 4009,
    "0a496620": 4010,
    "77687920": 4011,
    "636561736520": 4012,
    "2c0a5765206861766520": 4013,
    "7472757374": 4014,
    "7761726420": 4015,
    "7768657265696e": 4016,
    "6f7773": 4017,
    "0a5765206861766520": 4018,
    "2c20627574": 4019,
    "616476616e6365": 4020,
    "6420616e6420": 4021,
    "7665727920686f7572": 4022,
    "6374656420": 4023,
    "6461726520": 4024,
    "49206e65766572": 4025,
    "63686f69636520": 4026,
    "2074686f": 4027,
    "2074686f7365": 4028,
    "2074686f73650a5468617420": 4029,
    "796f757220616374696f6e": 4030,
    "7061696e": 4031,
    "0a5768657265696e": 4032,
    "20796f75207365": 4033,
    "3b20696620": 4034,
    "646561746820": 4035,
    "7765696768": 4036,
    "73206261": 4037,
    "646561726572": 4038,
    "2c0a416e6420666f6c6c6f7720": 4039,
    "6f66206d65": 4040,
    "746f2062656172": 4041,
    "20616761696e73742074686520": 4042,
    "616c6c2c20": 4043,
    "2c0a417320636175736520": 4044,
    "6f6265792764": 4045,
    "2e20506c6561": 4046,
    "2e20506c6561736520": 4047,
    "717569636b": 4048,
    "636f6d6d616e64": 4049,
    "696e636c696e": 4050,
    "796f75207368616c6c": 4051,
    "696e20616c6c20": 4052,
    "736574207468656d20": 4053,
    "6469737061746368": 4054,
    "0a54686f736520": 4055,
    "757269": 4056,
    "686f6c64696e67": 4057,
    "677569": 4058,
    "2c20636f6d65": 4059,
    "0a576f72": 4060,
    "0a576f72736520": 4061,
    "666f6f74": 4062,
    "6f74686572277320": 4063,
    "732c0a416e6420": 4064,
    "6d7920626c6f6f64": 4065,
    "7761732074686520": 4066,
    "6c647374206e6f7420": 4067,
    "6f75732c20616e6420": 4068,
    "616e742c20": 4069,
    "646179277320": 4070,
    "6d696e67": 4071,
    "2c0a49272074686520": 4072,
    "646c7920": 4073,
    "616b65": 4074,
    "206d6f72": 4075,
    "3b20776865726520": 4076,
    "706c65626569616e": 4077,
    "74686569722068656172747320": 4078,
    "2074686520676f6473": 4079,
    "666561": 4080,
    "6176696e6720": 4081,
    "66756c6c7920": 4082,
    "2c0a4865726520": 4083,
    "73746565642c20": 4084,
    "69736f6e": 4085,
    "616473742074686f7520": 4086,
    "50726179206e6f772c20": 4087,
    "50726179206e6f772c206e6f206d6f7265": 4088,
    "2068657220": 4089,
    "0a417320796f75206861766520": 4090,
    "3b2074686174277320": 4091,
    "756365": 4092,
    "666f72206d7920": 4093,
    "6861732062757420": 4094,
    "676f6f642077696c6c": 4095,
    "0a4861746820": 4096,
    "596f75207368616c6c20": 4097,
    "6b6e6f770a54686520": 4098,
    "76616c75": 4099,
    "76616c756520": 4100,
    "6869646520": 4101,
    "2c20746f2074686520": 4102,
    "6520616e6420": 4103,
    "3a207468657265666f72652c20": 4104,
    "69676e20": 4105,
    "0a5768617420796f75206861766520": 4106,
    "740a546f20": 4107,
    "74656e7420": 4108,
    "686f72736573": 4109,
    "676f6f6420616e6420": 4110,
    "747265617375726520": 4111,
    "61636869": 4112,
    "6163686965": 4113,
    "6469737472696275": 4114,
    "49207468616e6b20796f75": 4115,
    "7374616e642075706f6e": 4116,
    "626568656c6420": 4117,
    "4d6179": 4118,
    "666c61747465726572732c20": 4119,
    "616e642063": 4120,
    "616c6c206f6620": 4121,
    "66616c": 4122,
    "73652d": 4123,
    "736f6f": 4124,
    "67726f777320": 4125,
    "736f667420": 4126,
    "7475726520": 4127,
    "6d6f72652c20": 4128,
    "4920736179": 4129,
    "466f72207468617420": 4130,
    "77617368": 4131,
    "7265746368": 4132,
    "2d2d0a5768696368": 4133,
    "6861766520646f6e65": 4134,
    "2c2d2d0a596f75": 4135,
    "626f6c": 4136,
    "61746566756c": 4137,
    "626520696e": 4138,
    "63656e7365": 4139,
    "70726f70": 4140,
    "2c0a417320746f20": 4141,
    "776f726c": 4142,
    "73207468697320": 4143,
    "2c0a4d7920": 4144,
    "66726f6d207468697320": 4145,
    "686f7374": 4146,
    "495553": 4147,
    "49555320": 4148,
    "6164646974696f6e": 4149,
    "436f72696f6c616e7573210a0a434f52494f4c414e55533a0a": 4150,
    "3b0a416e64207768656e": 4151,
    "626c75736820": 4152,
    "6f72206e6f": 4153,
    "6d65616e20": 4154,
    "796f757220676f6f6420": 4155,
    "746f206f75722074656e74": 4156,
    "3b0a57": 4157,
    "686572652c20": 4158,
    "77726974": 4159,
    "596f752c20": 4160,
    "75737420746f20": 4161,
    "2077686f6d20776520": 4162,
    "626567696e20": 4163,
    "206d652e20": 4164,
    "63656c7920": 4165,
    "27743f0a0a434f52494f4c414e55533a0a": 4166,
    "736f6d6574696d6520": 4167,
    "686f7573653b20": 4168,
    "6b696e646c79": 4169,
    "3a0a486520": 4170,
    "3b204920": 4171,
    "777261": 4172,
    "777261746820": 4173,
    "6f27657277": 4174,
    "6f2765727768656c6d": 4175,
    "796f750a546f20": 4176,
    "667265": 4177,
    "6672656564": 4178,
    "66726565646f6d": 4179,
    "210a5765726520": 4180,
    "6672656520": 4181,
    "4465": 4182,
    "6e616d65": 4183,
    "2077656172": 4184,
    "7965612c20": 4185,
    "77696e6520": 4186,
    "75706f6e20796f757220": 4187,
    "746f776e20": 4188,
    "676f6f6420636f6e646974696f6e": 4189,
    "436f6e646974696f6e": 4190,
    "210a4920776f756c6420": 4191,
    "210a5768617420": 4192,
    "49272074686520": 4193,
    "7468617420697320": 4194,
    "3a20736f20": 4195,
    "646f20736f": 4196,
    "49207468696e6b2c20": 4197,
    "73686f756c6420776520": 4198,
    "6d696e652c20": 4199,
    "6e6f74207468617420": 4200,
    "2c2074686f75676820": 4201,
    "746c65": 4202,
    "76616c6f7572": 4203,
    "27640a5769746820": 4204,
    "666c7920": 4205,
    "6e6f722073": 4206,
    "66616e": 4207,
    "7072696573747320": 4208,
    "76696c65": 4209,
    "3a20776865726520": 4210,
    "492066696e6420": 4211,
    "617368": 4212,
    "796f7520746f2074686520": 4213,
    "6167657320": 4214,
    "67726f": 4215,
    "6d696c6c": 4216,
    "732d2d": 4217,
    "6272696e67206d6520": 4218,
    "65732c207468617420": 4219,
    "73206d6520": 4220,
    "746f2d": 4221,
    "746f2d6e69676874": 4222,
    "643f0a0a4d454e454e4955533a0a": 4223,
    "6572206f662074686520": 4224,
    "7465616368": 4225,
    "2e0a0a4d454e454e4955533a0a5072617920796f752c20": 4226,
    "3f0a0a534943494e4955533a0a54686520": 4227,
    "2e0a0a4d454e454e4955533a0a41792c20": 4228,
    "7320776f756c6420": 4229,
    "696e646565642c207468617420": 4230,
    "6f6e65207468696e67": 4231,
    "61736b": 4232,
    "2e0a0a4252555455533a0a416e6420": 4233,
    "746f7070": 4234,
    "3f0a0a426f": 4235,
    "3f0a0a426f74683a0a": 4236,
    "4265636175736520": 4237,
    "74616c6b206f6620": 4238,
    "626520616e67": 4239,
    "27746973206e6f20": 4240,
    "76657279206c6974746c6520": 4241,
    "2061742074686520": 4242,
    "6c6561737420": 4243,
    "74616b6520697420": 4244,
    "3f0a0a4252555455533a0a576520": 4245,
    "3b20666f7220796f757220": 4246,
    "6d616e792c20": 4247,
    "6f75730a": 4248,
    "7072696465": 4249,
    "7475726e20796f757220": 4250,
    "746f776172": 4251,
    "746f776172642074686520": 4252,
    "210a4f": 4253,
    "206120627261": 4254,
    "6d65726974": 4255,
    "70726f75642c20": 4256,
    "76696f6c656e74": 4257,
    "2c2074": 4258,
    "6b6e6f776e2077656c6c20": 4259,
    "6b6e6f776e2077656c6c20656e6f75676820": 4260,
    "6e6f74206120": 4261,
    "62657220": 4262,
    "6420746f20626520": 4263,
    "736f6d657468696e6720": 4264,
    "7065726665": 4265,
    "206d6f74696f6e": 4266,
    "636f6e766572": 4267,
    "746f636b20": 4268,
    "6e696e673a": 4269,
    "7370656e6420": 4270,
    "6d790a": 4271,
    "2e204d": 4272,
    "207765616c": 4273,
    "796f7520617265": 4274,
    "0a796f7520": 4275,
    "76657273656c": 4276,
    "792c204920": 4277,
    "796f757220776f7273686970": 4278,
    "746865206173": 4279,
    "73796c6c": 4280,
    "73796c6c61": 4281,
    "73796c6c61626c": 4282,
    "73796c6c61626c6573": 4283,
    "3a20616e640a": 4284,
    "7361790a": 4285,
    "7265766572": 4286,
    "6661636573": 4287,
    "666f6c6c6f777320": 4288,
    "626973": 4289,
    "626973736f6e": 4290,
    "436f6d652c207369722c20": 4291,
    "6e656974686572": 4292,
    "6361707320616e6420": 4293,
    "68656172696e6720610a": 4294,
    "737365": 4295,
    "636f6e74726f": 4296,
    "636f6e74726f766572": 4297,
    "636f6e74726f766572737920": 4298,
    "2e205768656e": 4299,
    "3b2073657420": 4300,
    "20616761696e737420": 4301,
    "726f6172": 4302,
    "696e2074686569720a": 4303,
    "7368616c6c0a": 4304,
    "6f757261626c6520": 4305,
    "746f207374": 4306,
    "756666": 4307,
    "6375736869": 4308,
    "20617373": 4309,
    "636b2d": 4310,
    "2e2059657420": 4311,
    "2c20697320": 4312,
    "7072656465": 4313,
    "707265646563657373": 4314,
    "7072656465636573736f72": 4315,
    "76656e7475726520": 4316,
    "6f66207468650a": 4317,
    "646974": 4318,
    "61727920": 4319,
    "2e20476f": 4320,
    "642d": 4321,
    "6c790a": 4322,
    "706c65626569616e73": 4323,
    "746f2074616b6520": 4324,
    "2c0a7765726520": 4325,
    "6e6f626c6572": 4326,
    "6c6574277320676f": 4327,
    "4d61726369757320636f6d": 4328,
    "4d61726369757320636f6d696e6720": 4329,
    "4d61726369757320636f6d696e6720686f6d65": 4330,
    "4d61726369757320636f6d696e6720686f6d65210a0a564f4c554d4e49413a0a": 4331,
    "70726f73706572": 4332,
    "617070726f626174696f6e": 4333,
    "61206c657474657220": 4334,
    "68696d3a2074686520": 4335,
    "737461746520": 4336,
    "617420686f6d6520": 4337,
    "676976657320": 4338,
    "6f66207365": 4339,
    "6865616c": 4340,
    "696e2077": 4341,
    "696e20776869636820": 4342,
    "706972": 4343,
    "746963": 4344,
    "707265736572": 4345,
    "776f6e7420746f20": 4346,
    "636f6d6520686f6d6520": 4347,
    "2e0a0a564f4c554d4e49413a0a4f2c20": 4348,
    "676f647320666f72": 4349,
    "27742e0a0a4d454e454e4955533a0a53": 4350,
    "7769746820746865206f616b": 4351,
    "2e0a0a4d454e454e4955533a0a416e6420": 4352,
    "656420627920": 4353,
    "4920776f756c64206e6f7420": 4354,
    "20736f0a": 4355,
    "73656e61746520": 4356,
    "6f662074686973": 4357,
    "696e2074686973": 4358,
    "616374696f6e20": 4359,
    "6772616e7420": 4360,
    "547275": 4361,
    "20746865792061726520": 4362,
    "6865726520697320686520": 4363,
    "6865726520697320686520776f756e646564": 4364,
    "64207361766520": 4365,
    "686f6d653a20": 4366,
    "657220616e6420": 4367,
    "20746865726520": 4368,
    "6c6172676520": 4369,
    "74732069272074686520": 4370,
    "2e0a0a4d454e454e4955533a0a4f6e6520": 4371,
    "6861642c20": 4372,
    "6265666f72": 4373,
    "7477656e74792d": 4374,
    "6772617665": 4375,
    "6361727269657320": 4376,
    "4465617468": 4377,
    "6461726b": 4378,
    "2073706972": 4379,
    "6265696e672061": 4380,
    "2e0a0a48": 4381,
    "2e0a0a486572616c": 4382,
    "2e0a0a486572616c64": 4383,
    "2e0a0a486572616c643a0a": 4384,
    "4b6e6f772c20": 4385,
    "6865206861746820776f6e": 4386,
    "656c636f6d6520746f20": 4387,
    "656c636f6d6520746f20526f6d652c20": 4388,
    "656c636f6d6520746f20526f6d652c2072656e6f776e656420": 4389,
    "4c6f6f6b2c207369722c20": 4390,
    "796f7572206d6f74686572": 4391,
    "3f2d2d": 4392,
    "756d70": 4393,
    "6d792064656172": 4394,
    "75636820": 4395,
    "732e0a0a4d454e454e4955533a0a": 4396,
    "77656c636f6d6520": 4397,
    "686f6d653a0a": 4398,
    "77656c636f6d652c20": 4399,
    "796527726520": 4400,
    "2e0a0a4d454e454e4955533a0a4120": 4401,
    "74686f7573": 4402,
    "626567696e": 4403,
    "61206e65": 4404,
    "61206e657474": 4405,
    "61206e6574746c6520": 4406,
    "4576657220": 4407,
    "696e6865726974": 4408,
    "6361737420": 4409,
    "75706f6e2074686565": 4410,
    "6861642072617468657220": 4411,
    "73657276": 4412,
    "73657276616e7420": 4413,
    "2c0a5468616e2073": 4414,
    "7065637461": 4415,
    "0a48657220": 4416,
    "6c6f636b": 4417,
    "68696d3a2073": 4418,
    "27642c20616e6420": 4419,
    "736564": 4420,
    "696f6e732c20": 4421,
    "73686f776e20": 4422,
    "706f70756c6172": 4423,
    "20746872": 4424,
    "70756666": 4425,
    "636865656b": 4426,
    "706f696c": 4427,
    "736c69": 4428,
    "706f7374": 4429,
    "2e0a0a534943494e4955533a0a4f6e": 4430,
    "68696d20636f6e73756c": 4431,
    "6f666669636520": 4432,
    "696e672068697320": 4433,
    "736c656570": 4434,
    "48652063616e6e6f7420": 4435,
    "616e6420656e": 4436,
    "2e0a0a534943494e4955533a0a44": 4437,
    "0a54686520636f6d6d6f6e": 4438,
    "666f7267": 4439,
    "6e657720": 4440,
    "4920617320": 4441,
    "6f662068756d": 4442,
    "6f662068756d696c": 4443,
    "6f662068756d696c697479": 4444,
    "6275742062792074686520": 4445,
    "7375697420": 4446,
    "6e6f626c6573": 4447,
    "49207769736820": 4448,
    "657865": 4449,
    "6578656375": 4450,
    "657865637574696f6e": 4451,
    "207468656e20617320": 4452,
    "646573747275": 4453,
    "6374696f6e2e0a0a4252555455533a0a": 4454,
    "73756767": 4455,
    "68617472": 4456,
    "746f277320": 4457,
    "776f756c640a": 4458,
    "206d756c": 4459,
    "446973": 4460,
    "666f722074686520776f726c64": 4461,
    "6861766520746865697220": 4462,
    "62656172696e6720": 4463,
    "74696d65207368616c6c20": 4464,
    "65617379": 4465,
    "68696d20666f7220": 4466,
    "2e0a0a4252555455533a0a57": 4467,
    "68696d20737065616b": 4468,
    "2067": 4469,
    "6f6e2068696d": 4470,
    "4a6f7665277320": 4471,
    "616e642074686520636f6d6d6f6e": 4472,
    "5365636f6e6420": 4473,
    "74686520636f6d6d6f6e2070656f706c65": 4474,
    "2e0a0a5365636f6e64204f6666696365723a0a": 4475,
    "79207468617420": 4476,
    "6c6f7665642c20": 4477,
    "776865": 4478,
    "77686574686572": 4479,
    "6b6e6f776c6564": 4480,
    "6b6e6f776c6564676520": 4481,
    "686520646964206e6f7420": 4482,
    "6865207761": 4483,
    "27747769": 4484,
    "2774776978": 4485,
    "27747769787420": 4486,
    "736974": 4487,
    "6f66207468652070656f706c6520": 4488,
    "666f7220746865697220": 4489,
    "626f6e": 4490,
    "7465642c20": 4491,
    "776974686f757420616e7920": 4492,
    "746f2062650a": 4493,
    "736f206d756368": 4494,
    "696e6772": 4495,
    "696e6a": 4496,
    "73652c20": 4497,
    "676976696e6720": 4498,
    "72656275": 4499,
    "726562756b6520": 4500,
    "72656d61696e73": 4501,
    "686973206e6f626c6520": 4502,
    "706c6561736520796f75": 4503,
    "636f6e73756c2c20616e6420": 4504,
    "6f66207468617420": 4505,
    "77686f6d": 4506,
    "6d657420": 4507,
    "537065616b2c20676f6f6420": 4508,
    "4c6561766520": 4509,
    "6c656e677468": 4510,
    "616c0a5468616e": 4511,
    "6974206f7574": 4512,
    "2e0a4d6173746572": 4513,
    "706173": 4514,
    "73696e6720": 4515,
    "746f20686f6e6f757220": 4516,
    "2e0a0a4d454e454e4955533a0a54686174277320": 4517,
    "636175": 4518,
    "796f75722070656f706c65": 4519,
    "746f20626520746865697220": 4520,
    "2e0a0a434f52494f4c414e55533a0a596f757220": 4521,
    "4920676f7420": 4522,
    "7468656d2e0a0a4252555455533a0a": 4523,
    "5369722c204920": 4524,
    "64732e0a": 4525,
    "637261746368": 4526,
    "6d6f6e73746572": 4527,
    "7061776e20": 4528,
    "6c696d62": 4529,
    "50726f": 4530,
    "50726f6365": 4531,
    "65642c20": 4532,
    "436f6d696e6975732e0a0a434f4d494e4955533a0a": 4533,
    "0a53686f756c6420": 4534,
    "7669727475652c20": 4535,
    "696620697420": 4536,
    "736978": 4537,
    "5461727175696e": 4538,
    "2c0a57686f6d20": 4539,
    "7769746820616c6c20": 4540,
    "3a20626520": 4541,
    "74726964": 4542,
    "6f2765722d": 4543,
    "636f6e73756c277320": 4544,
    "73747275636b20": 4545,
    "2e2048697320": 4546,
    "78656420": 4547,
    "62792068697320": 4548,
    "75726e20": 4549,
    "726f7220": 4550,
    "7374656d": 4551,
    "3b2066726f6d20": 4552,
    "6d6f74696f6e": 4553,
    "27640a54686520": 4554,
    "3b2061": 4555,
    "3a206e6f77": 4556,
    "20616c6c277320": 4557,
    "2c20627920": 4558,
    "62792c20": 4559,
    "64696e20": 4560,
    "6f662077": 4561,
    "6f662077617220": 4562,
    "2073747261": 4563,
    "746967": 4564,
    "6174652c0a416e6420": 4565,
    "732c20686520": 4566,
    "6869732062726561": 4567,
    "6869732062726561737420": 4568,
    "64657669736520": 4569,
    "68696d2e0a0a434f4d494e4955533a0a": 4570,
    "207468656d2c20616e6420": 4571,
    "636f6e74656e740a546f20": 4572,
    "74696d6520746f20": 4573,
    "207374696c6c": 4574,
    "7365727669636573": 4575,
    "2c0a4c6574206d6520": 4576,
    "2c20666f7220": 4577,
    "676f776e": 4578,
    "646f696e672e0a0a534943494e4955533a0a": 4579,
    "616e640a54": 4580,
    "2e0a0a434f52494f4c414e55533a0a497420697320": 4581,
    "6374696e67": 4582,
    "4d61726b20796f75": 4583,
    "6720": 4584,
    "3b0a53": 4585,
    "2c0a417320696620": 4586,
    "62726561746820": 4587,
    "210a0a4d454e454e4955533a0a446f20": 4588,
    "210a0a4d454e454e4955533a0a446f206e6f7420": 4589,
    "74726962756e6573206f66207468652070656f706c65": 4590,
    "6e6f626c6520636f6e73756c": 4591,
    "616c6c206a6f": 4592,
    "616c6c206a6f7920616e6420": 4593,
    "616c6c206a6f7920616e6420686f6e6f7572": 4594,
    "746f2075736520": 4595,
    "207768617420686520": 4596,
    "0a4f66206f757220": 4597,
    "2c20776520": 4598,
    "64656e792068696d": 4599,
    "792c207369722c20": 4600,
    "2e0a0a546869726420436974697a656e3a0a5765206861766520": 4601,
    "706f77657220746f20646f": 4602,
    "776f756e647320616e6420": 4603,
    "64656564732c20": 4604,
    "6f7572206e6f626c6520": 4605,
    "69730a": 4606,
    "6d6f6e737472": 4607,
    "61206d6f6e": 4608,
    "6d756c746974756465": 4609,
    "73746f6f64207570": 4610,
    "6865616473": 4611,
    "6f7572207769": 4612,
    "6f757265": 4613,
    "2c20736f757468": 4614,
    "616e6420746865697220": 4615,
    "636f6e73656e7420": 4616,
    "64697265637420": 4617,
    "2077617920": 4618,
    "77696c6c206e6f7420736f20": 4619,
    "74792c20": 4620,
    "6c6f7365206974": 4621,
    "206d6179": 4622,
    "41726520": 4623,
    "41726520796f75": 4624,
    "7374616e64": 4625,
    "732c20627920": 4626,
    "6c650a": 4627,
    "3a207468657265666f726520": 4628,
    "636f6e74656e742e0a0a4d454e454e4955533a0a": 4629,
    "2120492063616e6e6f7420": 4630,
    "746f2073756368206120": 4631,
    "63653a": 4632,
    "636f756e747279277320": 4633,
    "276420616e6420": 4634,
    "6e6f7420737065616b20": 4635,
    "2e0a0a434f52494f4c414e55533a0a5468": 4636,
    "646976": 4637,
    "796f753a20": 4638,
    "426964207468656d": 4639,
    "63617573652c20": 4640,
    "6169722c20": 4641,
    "6f776e206465736572": 4642,
    "6f776e20646573657274": 4643,
    "6d696e65206f776e20": 4644,
    "74726f75": 4645,
    "74726f75626c6520": 4646,
    "686f70": 4647,
    "686f706520": 4648,
    "627920796f75": 4649,
    "707269636520": 4650,
    "27743a20": 4651,
    "696e2070726976": 4652,
    "696e2070726976617465": 4653,
    "676564": 4654,
    "64696575": 4655,
    "6f6464": 4656,
    "2e0a0a5365636f6e6420436974697a656e3a0a41": 4657,
    "74756e6520": 4658,
    "766f69636573207468617420": 4659,
    "2e0a0a466f7572746820436974697a656e3a0a596f75206861766520": 4660,
    "2e0a0a434f52494f4c414e55533a0a596f75": 4661,
    "70726163": 4662,
    "707261637469": 4663,
    "7072616374697365": 4664,
    "6f666620": 4665,
    "626f756e": 4666,
    "2e205468657265666f72652c206265736565636820796f75": 4667,
    "686561727469": 4668,
    "6865617274696c79": 4669,
    "2e0a0a426f746820": 4670,
    "737765657420766f69636573": 4671,
    "6475737420": 4672,
    "6d6f756e": 4673,
    "68656170": 4674,
    "747275746820": 4675,
    "526174686572207468616e20": 4676,
    "207468726f756768": 4677,
    "666f7220796f757220766f6963657320": 4678,
    "666f7220796f757220766f69636573": 4679,
    "6f756e647320": 4680,
    "616e6420686561726420": 4681,
    "732c20736f6d6520": 4682,
    "4920776f756c6420626520636f6e73756c": 4683,
    "6978": 4684,
    "5468657265": 4685,
    "5468657265666f726520": 4686,
    "416d656e2c20": 4687,
    "416d656e2c20616d": 4688,
    "416d656e2c20616d656e": 4689,
    "206d61726b7320": 4690,
    "4973207468697320": 4691,
    "3a0a5468652070656f706c6520": 4692,
    "73656e6174652d": 4693,
    "73656e6174652d686f757365": 4694,
    "6761726d": 4695,
    "6761726d656e74": 4696,
    "6761726d656e7473": 4697,
    "596f75206d": 4698,
    "73747261": 4699,
    "737472616967687420": 4700,
    "2c0a5265": 4701,
    "2c0a52657061697220": 4702,
    "2e0a0a4d454e454e4955533a0a49276c6c20": 4703,
    "686520776f72": 4704,
    "68756d626c6520776565": 4705,
    "707261": 4706,
    "707261792074686520": 4707,
    "746f206d7920": 4708,
    "63652c0a": 4709,
    "73686f77276420": 4710,
    "666f72277320": 4711,
    "6e6f206675727468657220": 4712,
    "793f0a0a534943494e4955533a0a": 4713,
    "69676e6f72616e7420": 4714,
    "436f756c6420": 4715,
    "666f6520": 4716,
    "666f6520746f2074686520": 4717,
    "6d696768": 4718,
    "6d696768740a": 4719,
    "6d696768740a426520": 4720,
    "6375727365": 4721,
    "2073686f756c64206861766520": 4722,
    "73616964": 4723,
    "6869732067726163696f757320": 4724,
    "6c61746520": 4725,
    "776f756c64206861766520": 4726,
    "73206e6f7420": 4727,
    "70757474696e6720": 4728,
    "76616e74616765206f662068697320": 4729,
    "70617373276420": 4730,
    "656e2068652064696420": 4731,
    "636f6e74656d707420": 4732,
    "627275": 4733,
    "68616420796f7520": 4734,
    "746f20637279": 4735,
    "45726520": 4736,
    "68696d207468617420": 4737,
    "6669766520": 4738,
    "666976652068756e6472656420": 4739,
    "7769636520": 4740,
    "706965": 4741,
    "47657420": 4742,
    "6c696265727469": 4743,
    "6a7564676d656e7420": 4744,
    "7265766f": 4745,
    "7265766f6b650a596f757220": 4746,
    "6170707265": 4747,
    "617070726568656e": 4748,
    "6661756c7420": 4749,
    "6661756c74206f6e20": 4750,
    "6f63637570": 4751,
    "766f69636520": 4752,
    "20796f756e67": 4753,
    "776174": 4754,
    "65207468757320": 4755,
    "77652064696420": 4756,
    "666f756e": 4757,
    "666f756e64": 4758,
    "70617374": 4759,
    "7461792c20": 4760,
    "66616c6c20696e20": 4761,
    "68656164": 4762,
    "3f0a0a4c4152544955533a0a486520": 4763,
    "73776966": 4764,
    "526561": 4765,
    "70726f6d707420": 4766,
    "2c20736f": 4767,
    "2c20666f72": 4768,
    "5969": 4769,
    "2077686174": 4770,
    "417420416e7469756d": 4771,
    "686f6c642c20": 4772,
    "21207768617420": 4773,
    "6d616b657320": 4774,
    "2e0a0a434f52494f4c414e55533a0a4861766520": 4775,
    "277320766f69636573": 4776,
    "54726962756e": 4777,
    "70656f706c652061726520": 4778,
    "62726f696c": 4779,
    "3f0a4861766520": 4780,
    "62652063616c6d": 4781,
    "706c6f74": 4782,
    "72756c6564": 4783,
    "2764207468656d": 4784,
    "616e747320": 4785,
    "2e0a0a4252555455533a0a4e6f7420": 4786,
    "486f77": 4787,
    "2e0a0a434f52494f4c414e55533a0a5768": 4788,
    "207468652070656f706c6520": 4789,
    "71756972": 4790,
    "6520796f757220": 4791,
    "75736564": 4792,
    "657276656420": 4793,
    "646973686f6e6f7572276420": 4794,
    "210a5468697320": 4795,
    "737065656368": 4796,
    "637261766520": 4797,
    "6c6574207468656d": 4798,
    "6e6f75": 4799,
    "6e6f757269": 4800,
    "2c0a576869636820776520": 4801,
    "626567676172": 4802,
    "2e0a0a434f52494f4c414e55533a0a486f772120": 4803,
    "6d6561": 4804,
    "6162736f6c75746520": 4805,
    "277368616c6c27": 4806,
    "617472696369616e73": 4807,
    "4769": 4808,
    "476976656e20": 4809,
    "63686f6f": 4810,
    "63686f6f736520": 4811,
    "706572656d": 4812,
    "706572656d7074": 4813,
    "0a546f2073617920": 4814,
    "6368616e": 4815,
    "6c6561726e": 4816,
    "2c0a426520": 4817,
    "6465642c20": 4818,
    "74617374": 4819,
    "7468656972": 4820,
    "696e2047": 4821,
    "696e2047726565": 4822,
    "696e20477265656365": 4823,
    "4a6f766520": 4824,
    "0a497420": 4825,
    "656e74657220": 4826,
    "2e0a0a434f4d494e4955533a0a57656c6c2c20": 4827,
    "6f62656469": 4828,
    "732c0a4d": 4829,
    "2c0a4576656e": 4830,
    "65727669": 4831,
    "657276696365": 4832,
    "4265696e6720": 4833,
    "69272074686520776172": 4834,
    "6174696f6e2e20": 4835,
    "706f6c6c": 4836,
    "65732066656172": 4837,
    "646f6e6520746f20": 4838,
    "0a41206e6f626c6520": 4839,
    "706879736963": 4840,
    "746f6e677565": 4841,
    "2c0a466f722074686520": 4842,
    "646573706974": 4843,
    "3a20696e206120": 4844,
    "7468726f77": 4845,
    "706f7765722069272074686520": 4846,
    "2e0a0a4252555455533a0a4d": 4847,
    "61656469": 4848,
    "6c65732c20": 4849,
    "210a4c657420": 4850,
    "696e2077686f736520": 4851,
    "2c0a4120": 4852,
    "746f207468696e6520": 4853,
    "2e0a0a434f52494f4c414e55533a0a48656e63652c20": 4854,
    "210a0a53656e61746f72": 4855,
    "210a0a53656e61746f72732c20": 4856,
    "210a0a53656e61746f72732c2026": 4857,
    "210a0a53656e61746f72732c202643": 4858,
    "210a0a53656e61746f72732c2026433a0a": 4859,
    "2c20796520": 4860,
    "4f6e20": 4861,
    "7265737065": 4862,
    "697a6520": 4863,
    "41456469": 4864,
    "210a0a436974697a656e733a0a446f776e20": 4865,
    "646f776e20776974682068696d": 4866,
    "732c20776561706f6e": 4867,
    "73210a": 4868,
    "21272027436974697a656e": 4869,
    "21272027436974697a656e73": 4870,
    "21270a": 4871,
    "6963696e697573": 4872,
    "6e656172": 4873,
    "0a546f207468652070656f706c65": 4874,
    "48656172206d652c20": 4875,
    "6973207468652077617920": 4876,
    "6973207468652077617920746f20": 4877,
    "756e6275": 4878,
    "746865206369747920": 4879,
    "666c6174": 4880,
    "3f0a0a436974697a656e733a0a": 4881,
    "64697374": 4882,
    "64697374696e": 4883,
    "64656174682e0a0a4252555455533a0a": 4884,
    "4f7220": 4885,
    "70726f6e": 4886,
    "70726f6e6f756e": 4887,
    "68696d20746f2074686520": 4888,
    "207468656e6365": 4889,
    "48656172206d6520": 4890,
    "6f6e6520776f7264": 4891,
    "74726962756e65732c20": 4892,
    "50656163652c207065616365": 4893,
    "61792068616e647320": 4894,
    "61792068616e64732075706f6e2068696d": 4895,
    "696e673a0a": 4896,
    "7768617420796f75206861766520": 4897,
    "74616e6420": 4898,
    "6173206d616e7920": 4899,
    "626964": 4900,
    "6361757365": 4901,
    "2c0a54686f75676820": 4902,
    "7261676520": 4903,
    "61206661": 4904,
    "727570": 4905,
    "626520676f6e65": 4906,
    "72657175657374": 4907,
    "6d75737420626520": 4908,
    "666c617474657220": 4909,
    "7669706572": 4910,
    "546172706569616e20726f636b": 4911,
    "68616e6473": 4912,
    "72657369": 4913,
    "726573697374": 4914,
    "7468652070656f706c65277320": 4915,
    "5065616365": 4916,
    "796f752073686f756c6420": 4917,
    "7468617420796f75": 4918,
    "2c0a536f20": 4919,
    "6c6f73": 4920,
    "627574206f6e6520": 4921,
    "2c20616e6420746f20": 4922,
    "6b65657020": 4923,
    "27640a496e20": 4924,
    "65617365": 4925,
    "646f277420": 4926,
    "73756666657220": 4927,
    "666f6f": 4928,
    "732e0a0a4252555455533a0a": 4929,
    "67652c20": 4930,
    "6e6573732c20": 4931,
    "6272656420": 4932,
    "6c617766756c20": 4933,
    "746f2068697320": 4934,
    "706572696c": 4935,
    "636f75727365": 4936,
    "4c6574206d6520": 4937,
    "2e0a0a434f52494f4c414e55533a0a4c6574207468656d20": 4938,
    "77696c6420": 4939,
    "7072656369": 4940,
    "7072656369706974": 4941,
    "70726563697069746174696f6e": 4942,
    "74726574": 4943,
    "2c207369722c20736972": 4944,
    "6d656e6420": 4945,
    "5468657265277320": 4946,
    "706572697368": 4947,
    "507261792c20626520": 4948,
    "686561727420617320": 4949,
    "706f6c": 4950,
    "706f6c6963": 4951,
    "706f6c6963792c20": 4952,
    "6c6f7365": 4953,
    "64656d616e64": 4954,
    "7368697020696e20": 4955,
    "656d626c6520": 4956,
    "796f757220736f6e": 4957,
    "73616c": 4958,
    "2e0a0a564f4c554d4e49413a0a4920707269": 4959,
    "2e0a0a564f4c554d4e49413a0a49207072697468656520": 4960,
    "6b6e65": 4961,
    "696e207375636820": 4962,
    "77696c": 4963,
    "77696c7420": 4964,
    "61732066726565": 4965,
    "617320667265650a417320": 4966,
    "507269": 4967,
    "5072697468656520": 4968,
    "61626f7574206974": 4969,
    "4920676f20": 4970,
    "646f27743a0a": 4971,
    "627574207468697320": 4972,
    "20746869732c20": 4973,
    "2e0a0a434f52494f4c414e55533a0a57656c6c2c20": 4974,
    "617320616e20": 4975,
    "732c20616e64206d7920": 4976,
    "0a5468616e2074686f75": 4977,
    "2c204920616d20676f": 4978,
    "2e2049276c6c20": 4979,
    "74726164657320": 4980,
    "74726164657320696e20526f6d65": 4981,
    "696c646c79": 4982,
    "2e0a0a434f52494f4c414e55533a0a54686520": 4983,
    "6d696c646c79": 4984,
    "72616e6e69": 4985,
    "72616e6e6963616c": 4986,
    "656e767920": 4987,
    "746861742074686520": 4988,
    "3f0a0a414564696c653a0a492068617665": 4989,
    "66696e652c20": 4990,
    "6372792027": 4991,
    "73656e74": 4992,
    "73656e74656e6365": 4993,
    "3b207468656e20": 4994,
    "64657465726d696e6520": 4995,
    "2c2d2d0a0a434f52494f4c414e55533a0a": 4996,
    "636f757261": 4997,
    "7374726f": 4998,
    "7374726f6b6573": 4999,
    "62616e69736820": 5000,
    "2e0a0a436974697a656e733a0a4974207368616c6c20626520736f": 5001,
    "2e0a0a436974697a656e733a0a4974207368616c6c20626520736f2c20": 5002,
    "2e0a0a436974697a656e733a0a4974207368616c6c20626520736f2c206974207368616c6c20626520736f": 5003,
    "62616e6973682764": 5004,
    "66656e": 5005,
    "656e656d7920697320676f6e652c20": 5006,
    "7365652068696d20": 5007,
    "7365652068696d206f757420617420": 5008,
    "7365652068696d206f7574206174206761746573": 5009,
    "766578": 5010,
    "2e0a54686520": 5011,
    "2e204e61792c20": 5012,
    "2e204e61792c206d6f74686572": 5013,
    "4f2068656176656e": 5014,
    "7768656e204920616d20": 5015,
    "2e0a576869": 5016,
    "6f66207573": 5017,
    "4345": 5018,
    "4552": 5019,
    "474c": 5020,
    "474c4f": 5021,
    "474c4f55": 5022,
    "474c4f554345": 5023,
    "474c4f55434553": 5024,
    "474c4f5543455354": 5025,
    "474c4f55434553544552": 5026,
    "454e": 5027,
    "474c4f554345535445523a0a": 5028,
    "2e0a0a474c4f554345535445523a0a": 5029,
    "536572": 5030,
    "53657276696e67": 5031,
    "53657276696e676d616e": 5032,
    "7572646572": 5033,
    "757264657265723a0a": 5034,
    "4d757264657265723a0a": 5035,
    "53657276696e676d616e3a0a": 5036,
    "4554": 5037,
    "4c41": 5038,
    "4c4144": 5039,
    "4c414459": 5040,
    "4c41445920": 5041,
    "4c4144592041": 5042,
    "4c41445920414e": 5043,
    "4c41445920414e4e": 5044,
    "4c41445920414e4e45": 5045,
    "5155": 5046,
    "515545": 5047,
    "515545454e": 5048,
    "515545454e20": 5049,
    "2e0a0a4c41445920414e4e45": 5050,
    "2e0a0a515545454e20": 5051,
    "2e0a0a4c41445920414e4e453a0a": 5052,
    "546869726420": 5053,
    "4c6f72": 5054,
    "434c4152": 5055,
    "4d415247": 5056,
    "4d4152474152": 5057,
    "4d41524741524554": 5058,
    "434c4152454e": 5059,
    "434c4152454e4345": 5060,
    "436c6172": 5061,
    "4255": 5062,
    "2074686f7520": 5063,
    "4d415247415245543a0a": 5064,
    "2e0a0a546869726420": 5065,
    "4564": 5066,
    "434c4152454e43453a0a": 5067,
    "2e0a0a4669727374204d757264657265723a0a": 5068,
    "717565": 5069,
    "533a0a": 5070,
    "454c": 5071,
    "454c49": 5072,
    "454c495a": 5073,
    "454c495a41": 5074,
    "454c495a4142": 5075,
    "454c495a41424554": 5076,
    "454c495a4142455448": 5077,
    "4e47": 5078,
    "2e0a0a5365636f6e64204d757264657265723a0a": 5079,
    "696c6c": 5080,
    "717565656e": 5081,
    "2e0a0a515545454e204d415247415245543a0a": 5082,
    "2e0a0a5365636f6e642053657276696e676d616e3a0a": 5083,
    "3f0a0a5365636f6e6420": 5084,
    "64726561": 5085,
    "2e0a0a434c4152454e43453a0a": 5086,
    "593a0a": 5087,
    "454c495a41424554483a0a": 5088,
    "425241": 5089,
    "4252414b": 5090,
    "4252414b454e": 5091,
    "4252414b454e4255": 5092,
    "4252414b454e425552": 5093,
    "4841": 5094,
    "476f6420": 5095,
    "524956": 5096,
    "5249564552": 5097,
    "0a5768": 5098,
    "0a54686f75": 5099,
    "726576656e": 5100,
    "6e657773": 5101,
    "726f79": 5102,
    "536f20": 5103,
    "2e0a0a54686972642053657276696e676d616e3a0a": 5104,
    "677261636520": 5105,
    "456477617264": 5106,
    "5249564552533a0a": 5107,
    "2e0a0a515545454e20454c495a41424554483a0a": 5108,
    "207368616c7420": 5109,
    "566f6c736369": 5110,
    "2e0a0a46697273742053657276696e676d616e3a0a": 5111,
    "74686565": 5112,
    "74686f7567687420": 5113,
    "6b696c6c": 5114,
    "436f6e73706972": 5115,
    "436f6e7370697261746f72": 5116,
    "6d616a": 5117,
    "4c6f726420": 5118,
    "4252414b454e425552593a0a": 5119,
    "210a0a474c4f554345535445523a0a": 5120,
    "476c": 5121,
    "476c6f75": 5122,
    "476c6f75636573": 5123,
    "6b656e": 5124,
    "68757362616e6420": 5125,
    "626974": 5126,
    "726f6e67": 5127,
    "726f77": 5128,
    "4c6f7264": 5129,
    "436c6172656e636520": 5130,
    "6d79206c6f72642c20": 5131,
    "436c6172656e6365": 5132,
    "646576696c": 5133,
    "476f64": 5134,
    "476c6f75636573746572": 5135,
    "726f79616c20": 5136,
    "6a6f79": 5137,
    "646f737420": 5138,
    "0a54686f7520": 5139,
    "616d20": 5140,
    "6e657373": 5141,
    "4861": 5142,
    "65796573": 5143,
    "68617070": 5144,
    "6c6f726473": 5145,
    "686f6c7920": 5146,
    "647265616d": 5147,
    "4b696e6720": 5148,
    "456477617264277320": 5149,
    "5269": 5150,
    "62726f74686572": 5151,
    "535449": 5152,
    "5354494e47": 5153,
    "6576": 5154,
    "425543": 5155,
    "4255434b": 5156,
    "4255434b49": 5157,
    "4255434b494e47": 5158,
    "4255434b494e474841": 5159,
    "4255434b494e4748414d": 5160,
    "74686f75207368616c7420": 5161,
    "6d616465": 5162,
    "492063616e20": 5163,
    "2e0a0a566f6c73": 5164,
    "2e0a0a566f6c736365": 5165,
    "2c0a57686f736520": 5166,
    "3f0a0a466972737420": 5167,
    "746f2074687920": 5168,
    "696573": 5169,
    "696c20": 5170,
    "707269736f6e": 5171,
    "43616e": 5172,
    "737369": 5173,
    "2e204275742c20": 5174,
    "3b0a466f7220": 5175,
    "6f72726f77": 5176,
    "6465657020": 5177,
    "647574": 5178,
    "6e61747572616c": 5179,
    "20776f6d": 5180,
    "746f207468697320": 5181,
    "75636b": 5182,
    "616e646572": 5183,
    "6b696c6c20": 5184,
    "736f756c": 5185,
    "546f77": 5186,
    "2e0a0a4252414b454e425552593a0a": 5187,
    "6c6f72642c20": 5188,
    "2e0a0a474c4f55434553544552": 5189,
    "476f64277320": 5190,
    "476f642c20": 5191,
    "6265617574": 5192,
    "2e0a0a5249564552533a0a": 5193,
    "4475": 5194,
    "3f0a0a5365636f6e64204d757264657265723a0a": 5195,
    "656420746f20": 5196,
    "65786365": 5197,
    "733b": 5198,
    "69736865": 5199,
    "61626c65": 5200,
    "73696f6e": 5201,
    "6465617220": 5202,
    "706c61636520": 5203,
    "2c0a486520": 5204,
    "732061726520": 5205,
    "3a2077": 5206,
    "2c0a546f20626520": 5207,
    "636c6f75": 5208,
    "73636172": 5209,
    "7973656c6620": 5210,
    "6b656420": 5211,
    "3b0a5768": 5212,
    "66616c736520": 5213,
    "717569": 5214,
    "2764207769746820": 5215,
    "796f756e67": 5216,
    "6e6f742074686520": 5217,
    "757020": 5218,
    "69676e": 5219,
    "6d696e65": 5220,
    "2c0a466f7220": 5221,
    "3a0a416e6420": 5222,
    "72657475726e": 5223,
    "696e2c20": 5224,
    "676c6f72": 5225,
    "492077617320": 5226,
    "6561727468": 5227,
    "756e6e61747572616c": 5228,
    "2e0a42757420": 5229,
    "787420": 5230,
    "76696c6c": 5231,
    "766f": 5232,
    "6368616d": 5233,
    "6368616d626572": 5234,
    "6d616a657374": 5235,
    "6d616a65737479": 5236,
    "6d7572646572": 5237,
    "546f776572": 5238,
    "5354494e47533a0a": 5239,
    "48656e": 5240,
    "68656c6c": 5241,
    "4275636b": 5242,
    "4275636b696e67": 5243,
    "4275636b696e676861": 5244,
    "4255434b494e4748414d3a0a": 5245,
    "44756b6520": 5246,
    "44756b65206f6620": 5247,
    "73656420": 5248,
    "6d7920736f6e": 5249,
    "6269": 5250,
    "646f7468": 5251,
    "6279206d7920": 5252,
    "73746172": 5253,
    "61696e7420": 5254,
    "2e0a0a566f6c7363653a0a": 5255,
    "746e65737320": 5256,
    "66616c6c": 5257,
    "656e7465727461696e": 5258,
    "776964": 5259,
    "73776f726e": 5260,
    "626f73": 5261,
    "66656c6c": 5262,
    "666f722068696d": 5263,
    "2e0a0a46697273742053657276696e676d616e": 5264,
    "74686973": 5265,
    "20736f6d6520": 5266,
    "616e2061": 5267,
    "6561727320": 5268,
    "3f0a0a41554649444955533a0a": 5269,
    "6d6974": 5270,
    "2c0a44": 5271,
    "62726f": 5272,
    "2c0a54686f7520": 5273,
    "2c0a556e": 5274,
    "6465616420": 5275,
    "6d70": 5276,
    "6f75722067656e6572616c20": 5277,
    "3f0a0a546869726420": 5278,
    "6f75722067656e6572616c": 5279,
    "616e642073": 5280,
    "6368696c6472656e": 5281,
    "686170": 5282,
    "736166": 5283,
    "726576656e676520": 5284,
    "616c7265616479": 5285,
    "6d656c": 5286,
    "74656d70": 5287,
    "7567": 5288,
    "6275746368": 5289,
    "616e6420796f757220": 5290,
    "626c696e6720": 5291,
    "2e0a416e6420": 5292,
    "74686f756768": 5293,
    "77726f6e67": 5294,
    "686170707920": 5295,
    "3a0a42757420": 5296,
    "776173206120": 5297,
    "6d6f746865722c20": 5298,
    "2073756368206120": 5299,
    "6c65742074686520": 5300,
    "616b657320": 5301,
    "646f206e6f7420": 5302,
    "68696c": 5303,
    "77652077696c6c20": 5304,
    "6f6e206d65": 5305,
    "6d657263": 5306,
    "652074687920": 5307,
    "696e2074687920": 5308,
    "6d6f7274616c": 5309,
    "6f66206974": 5310,
    "436f6e7370697261746f723a0a": 5311,
    "7769787420": 5312,
    "62757279": 5313,
    "2e0a42": 5314,
    "74686f752c20": 5315,
    "2e272027": 5316,
    "4e6f72": 5317,
    "646561646c7920": 5318,
    "45647761726420": 5319,
    "2c206d79206c6f72642c20": 5320,
    "6573747920": 5321,
    "596561": 5322,
    "48617374": 5323,
    "3f0a0a474c4f55434553544552": 5324,
    "62276420": 5325,
    "696d707269736f6e": 5326,
    "6c6f7264": 5327,
    "5061": 5328,
    "5061756c": 5329,
    "4c616e": 5330,
    "4c616e6361": 5331,
    "4c616e636173746572": 5332,
    "210a54686f7520": 5333,
    "2e0a0a47": 5334,
    "4d6172676172": 5335,
    "746c65737320": 5336,
    "73746162": 5337,
    "4275636b696e6768616d": 5338,
    "446572": 5339,
    "4c6f7264206f6620": 5340,
    "6c616e64": 5341,
    "515545454e204d415247415245543a0a": 5342,
    "3f0a0a4669727374204d757264657265723a0a": 5343,
    "64656564": 5344,
    "7072617965727320": 5345,
    "637572736573": 5346,
    "6461792c20": 5347,
    "6173204920": 5348,
    "6e616d652c20": 5349,
    "666f72676f7420": 5350,
    "2e0a0a526f6d616e3a0a": 5351,
    "6172652c20": 5352,
    "2e0a0a526f6d616e": 5353,
    "736177": 5354,
    "6661766f757220": 5355,
    "61746820": 5356,
    "2c20616e640a": 5357,
    "62616e69736865": 5358,
    "2e20596f757220": 5359,
    "76657273": 5360,
    "3a0a41": 5361,
    "2e0a53": 5362,
    "746865206d6f737420": 5363,
    "6f6620796f7572": 5364,
    "626f736f6d": 5365,
    "776572652c20": 5366,
    "626974746572": 5367,
    "77696e": 5368,
    "7374657220": 5369,
    "41776179": 5370,
    "2e0a0a54686972642053657276696e676d616e": 5371,
    "746f20646f20": 5372,
    "67656e746c656d616e": 5373,
    "636f6c6420": 5374,
    "656464": 5375,
    "77697468207468": 5376,
    "6c6f72647320": 5377,
    "77697468696e": 5378,
    "746879206e616d65": 5379,
    "6d7573": 5380,
    "746f72": 5381,
    "726570": 5382,
    "7265617420": 5383,
    "6368696566": 5384,
    "3b207468657265": 5385,
    "7769746e65737320": 5386,
    "626c6f6f": 5387,
    "696e206d": 5388,
    "69662074686f7520": 5389,
    "73746f": 5390,
    "7468656e2c20": 5391,
    "627265617374": 5392,
    "20776565": 5393,
    "66726f6d206d7920": 5394,
    "746c7920": 5395,
    "776974682074687920": 5396,
    "207768656e20": 5397,
    "747265737320": 5398,
    "7468726f": 5399,
    "717561727265": 5400,
    "74657272": 5401,
    "6f6620526f6d65": 5402,
    "74726f79": 5403,
    "2074686f7573616e6420": 5404,
    "5965742c20": 5405,
    "210a0a466972737420": 5406,
    "68696d3a20": 5407,
    "492074686f7567687420": 5408,
    "466169": 5409,
    "20736c61": 5410,
    "61730a": 5411,
    "6265206120": 5412,
    "3f0a0a54686972642053657276696e676d616e3a0a": 5413,
    "676976656e": 5414,
    "7461626c65": 5415,
    "626f7474": 5416,
    "6f6d206f662074686520": 5417,
    "6d6167": 5418,
    "20776869636820": 5419,
    "7570207468697320": 5420,
    "64656e69": 5421,
    "6665617220": 5422,
    "6e65696768": 5423,
    "6e65696768626f7572": 5424,
    "207468696e6b": 5425,
    "6c616d656e74": 5426,
    "276420696e2074686520": 5427,
    "62616e6973686d656e74": 5428,
    "6c6c276420": 5429,
    "69736820": 5430,
    "706f737369": 5431,
    "6665617266756c": 5432,
    "626f726e": 5433,
    "686f6c7020": 5434,
    "596f752068617665206d61646520": 5435,
    "207468696e67": 5436,
    "61646520": 5437,
    "6e6f206c65737320": 5438,
    "7069747920": 5439,
    "6f626579": 5440,
    "0a497320": 5441,
    "612077": 5442,
    "546865736520": 5443,
    "746f207573": 5444,
    "492064696420": 5445,
    "7572676520": 5446,
    "65276572": 5447,
    "0a427920": 5448,
    "6a7564676d656e74": 5449,
    "657669": 5450,
    "65766964": 5451,
    "66697265": 5452,
    "70726976": 5453,
    "7072697661746520": 5454,
    "742c0a416e6420": 5455,
    "66656c6c6f7720": 5456,
    "77697468206f757220": 5457,
    "676f206261636b": 5458,
    "737065616b207769746820": 5459,
    "63656420": 5460,
    "6d7920667269656e6473": 5461,
    "276420796f757220": 5462,
    "66666572": 5463,
    "67657320": 5464,
    "4a61": 5465,
    "66617468657220": 5466,
    "6d6f76656420": 5467,
    "73696768": 5468,
    "6c6f7264732c20": 5469,
    "206164": 5470,
    "6368696c6420": 5471,
    "696e6720746f20": 5472,
    "2061206d616e": 5473,
    "6b6973": 5474,
    "70726f756420": 5475,
    "4d617920": 5476,
    "6a6f792c20": 5477,
    "7769666520616e6420": 5478,
    "20776f6d616e": 5479,
    "206d6f74686572": 5480,
    "6d6f7274616c20": 5481,
    "68656176656e20": 5482,
    "646765": 5483,
    "73756e20": 5484,
    "6b73": 5485,
    "2e0a0a4669727374204c6f7264": 5486,
    "646f73742074686f75": 5487,
    "73747269": 5488,
    "76696c6c61696e": 5489,
    "696c6c2c20": 5490,
    "596f72": 5491,
    "6472656164": 5492,
    "626c7920": 5493,
    "492c207468617420": 5494,
    "74696d65206f6620": 5495,
    "73206f66": 5496,
    "68617665204920": 5497,
    "70726f706865": 5498,
    "62726f7468657220": 5499,
    "63686572": 5500,
    "3f0a0a434c4152454e43453a0a": 5501,
    "6d616a6573747920": 5502,
    "206d617920": 5503,
    "67656e746c65": 5504,
    "756e746f2074686520": 5505,
    "48617374696e67": 5506,
    "3f0a0a4841": 5507,
    "5361696e7420": 5508,
    "2e0a4f2c20": 5509,
    "6772696576": 5510,
    "67726965766f757320": 5511,
    "7769636b": 5512,
    "68757362616e6420616e6420": 5513,
    "506f": 5514,
    "506f6f7220": 5515,
    "2074686174204920": 5516,
    "776172642c20": 5517,
    "437572": 5518,
    "7469646520": 5519,
    "75676c7920": 5520,
    "48656e7279": 5521,
    "636f727365": 5522,
    "2e0a0a474c4f554345535445523a0a53": 5523,
    "3f0a0a474c4f554345535445523a0a": 5524,
    "64656164": 5525,
    "210a0a474c4f55434553544552": 5526,
    "63757273656420": 5527,
    "6375736520": 5528,
    "646964737420": 5529,
    "6c6577": 5530,
    "3f0a0a4c41445920414e4e45": 5531,
    "70726f766f": 5532,
    "6775696c": 5533,
    "62656175747920": 5534,
    "726576656e67656420": 5535,
    "3a0a53": 5536,
    "2e0a0a4255434b494e4748414d3a0a": 5537,
    "3a0a4d6164": 5538,
    "3a0a4d6164616d": 5539,
    "6d617272": 5540,
    "6b696e6764": 5541,
    "636f6e736369656e636520": 5542,
    "626c6573": 5543,
    "4d6f726520": 5544,
    "3b2079657420": 5545,
    "2c0a48697320": 5546,
    "73776f726420": 5547,
    "6b6e": 5548,
    "0a546865206e6f626c6520": 5549,
    "6f662074686f736520": 5550,
    "69657320": 5551,
    "6e6f74206861766520": 5552,
    "746f206b6e6f77": 5553,
    "6c657420757320676f": 5554,
    "67657420796f7520": 5555,
    "676f2c20": 5556,
    "2d2d0a417320": 5557,
    "656420796f75": 5558,
    "54616b6520": 5559,
    "68656176": 5560,
    "596f75276c6c20": 5561,
    "676572": 5562,
    "2077656c6c": 5563,
    "2e0a0a526f6d616e3a0a54686520": 5564,
    "2e0a0a566f6c7363653a0a596f7520": 5565,
    "74617465": 5566,
    "3a20796f75206861766520": 5567,
    "73656e61746f72732c20": 5568,
    "7761726c696b6520": 5569,
    "746f20636f6d6520": 5570,
    "6e6f626c657320": 5571,
    "726970": 5572,
    "77697468207468697320": 5573,
    "696e20746865736520": 5574,
    "7920746f20": 5575,
    "6573732c20616e6420": 5576,
    "6265747765656e": 5577,
    "737570": 5578,
    "766572736172": 5579,
    "3b2074686520": 5580,
    "656e7465727461696e6d656e74": 5581,
    "746f2068656172": 5582,
    "3b2049206861766520": 5583,
    "676f6f646c7920": 5584,
    "7769646f77": 5585,
    "27666f726520": 5586,
    "2c0a4c65737420": 5587,
    "746861742074687920": 5588,
    "70756e": 5589,
    "576869636820": 5590,
    "467269": 5591,
    "2c0a41726520": 5592,
    "0a556e": 5593,
    "74616b652074686520": 5594,
    "2c0a49276c6c20": 5595,
    "73657276696365": 5596,
    "6f74": 5597,
    "656e63652061726520796f75": 5598,
    "727420": 5599,
    "2e0a0a54686972642053657276696e676d616e3a0a5768617420": 5600,
    "686561727468": 5601,
    "74616b65207570": 5602,
    "576865726520": 5603,
    "6477656c6c": 5604,
    "556e646572": 5605,
    "6b6974": 5606,
    "6b6974657320616e6420": 5607,
    "616e206173": 5608,
    "6564646c6520": 5609,
    "6573746572": 5610,
    "6572766520": 5611,
    "656e2068696d20": 5612,
    "3f0a5768": 5613,
    "686174277320746879206e616d65": 5614,
    "4920616d2c20": 5615,
    "6974790a": 5616,
    "566f6c736369616e73": 5617,
    "207468696e65": 5618,
    "61206e6f626c6520": 5619,
    "6b6e6f7727": 5620,
    "6e616d6520697320": 5621,
    "0a47": 5622,
    "0a477265617420": 5623,
    "66756c2073": 5624,
    "68656420": 5625,
    "666f72206d": 5626,
    "6d656d": 5627,
    "6d656d6f72": 5628,
    "6d656d6f7279": 5629,
    "737461726420": 5630,
    "72657374": 5631,
    "746f206265": 5632,
    "7374616b6520": 5633,
    "6e6f742d2d": 5634,
    "6c6966652c20": 5635,
    "776f726c640a": 5636,
    "2e205468": 5637,
    "2077726f6e67": 5638,
    "207368616d6520": 5639,
    "2e2042757420": 5640,
    "616e64207468617420": 5641,
    "4c6f6e67": 5642,
    "77656172": 5643,
    "74206f6620": 5644,
    "6e6f742062656c6965766520": 5645,
    "206d6f7265": 5646,
    "4d696e6520": 5647,
    "206f66206d7920": 5648,
    "737472656e67": 5649,
    "737472656e67746820": 5650,
    "74686174204920": 5651,
    "492074656c6c": 5652,
    "776e": 5653,
    "2074686f75206861737420": 5654,
    "746f67657468657220": 5655,
    "7468726f6174": 5656,
    "6e6f7468696e67": 5657,
    "616420": 5658,
    "7175617272656c20": 5659,
    "626f77656c": 5660,
    "3b0a57686f20": 5661,
    "7465727269746f72": 5662,
    "7465727269746f72696573": 5663,
    "636f6d6d6973": 5664,
    "73657420646f776e": 5665,
    "74686f752061727420": 5666,
    "20776179": 5667,
    "66726967687420": 5668,
    "64657374726f79": 5669,
    "77656c636f6d65": 5670,
    "66696e67": 5671,
    "6b6e657720": 5672,
    "6b696e64206f6620": 5673,
    "74686f75676874": 5674,
    "63616e6e6f742074656c6c20": 5675,
    "686f7720746f20": 5676,
    "6c6f6f6b696e67": 5677,
    "696e2068696d": 5678,
    "536f2064696420": 5679,
    "49276c6c20626520": 5680,
    "73696d70": 5681,
    "74206f6e": 5682,
    "6c6f6f6b20796f75": 5683,
    "41792c20616e6420": 5684,
    "733b20": 5685,
    "7761636b20": 5686,
    "7361792027": 5687,
    "3b2720": 5688,
    "7361792074686520": 5689,
    "65642068696d20": 5690,
    "7475726e7320": 5691,
    "626f74746f6d206f662074686520": 5692,
    "6e65777320697320": 5693,
    "63757420": 5694,
    "68696d2c20616e6420": 5695,
    "7061737361": 5696,
    "696d6167": 5697,
    "647572": 5698,
    "2077686174277320": 5699,
    "6f7574206f66": 5700,
    "3b20796f75": 5701,
    "20776f726c6420": 5702,
    "706561636520697320": 5703,
    "7468696e672c20": 5704,
    "7275737420": 5705,
    "6d616b": 5706,
    "3b20697420": 5707,
    "66756c6c206f6620": 5708,
    "76697368": 5709,
    "63686561": 5710,
    "6368656170": 5711,
    "3b0a48697320": 5712,
    "6c757368": 5713,
    "686164": 5714,
    "74696f757320": 5715,
    "67726f776e": 5716,
    "54726962756e65733a0a": 5717,
    "206d6973": 5718,
    "68652c20": 5719,
    "656e20746f20796f75": 5720,
    "207768656e": 5721,
    "7374616e6365": 5722,
    "697420736f": 5723,
    "730a41726520": 5724,
    "64656570": 5725,
    "706565": 5726,
    "63616e6e6f74206265": 5727,
    "726561736f6e20": 5728,
    "6269647320": 5729,
    "650a4f66": 5730,
    "2e0a0a4d657373656e6765723a0a": 5731,
    "5965732c20": 5732,
    "526f6d652c0a416e6420": 5733,
    "6c696b": 5734,
    "6665617266756c20": 5735,
    "726167": 5736,
    "636f6e7375": 5737,
    "676f6f6420776f726b": 5738,
    "686f6c7020746f20": 5739,
    "746865206e657773": 5740,
    "6275726e": 5741,
    "6672616e": 5742,
    "596f752068617665206d616465206661697220": 5743,
    "643a20686520": 5744,
    "627574746572": 5745,
    "74657273": 5746,
    "796f75276c6c20": 5747,
    "7374616e7420": 5748,
    "666f6f6c73": 5749,
    "57686f20": 5750,
    "626c616d6520": 5751,
    "6d65726379": 5752,
    "666f7220736861": 5753,
    "2061732074686520": 5754,
    "63726166": 5755,
    "636c7573": 5756,
    "732068697320": 5757,
    "65726520636f6d6520": 5758,
    "65726520636f6d652074686520": 5759,
    "6578696c65": 5760,
    "74756d": 5761,
    "206d696e65206f776e20": 5762,
    "416e6420736f20": 5763,
    "792120": 5764,
    "6d6173746572732c20": 5765,
    "4c6965": 5766,
    "4c69657574": 5767,
    "4c69657574656e": 5768,
    "4c69657574656e616e74": 5769,
    "4c69657574656e616e743a0a": 5770,
    "64657369676e": 5771,
    "2e20486520": 5772,
    "0a5768656e20": 5773,
    "6368616e67": 5774,
    "6578637573": 5775,
    "0a4920": 5776,
    "6f7220656c7365": 5777,
    "6b6e6f777320": 5778,
    "6865276c6c20": 5779,
    "6f6c6469657273": 5780,
    "6f66206e6174757265": 5781,
    "49206461726520": 5782,
    "746174696f6e": 5783,
    "6173206120": 5784,
    "6669726520": 5785,
    "6e61696c": 5786,
    "6172742074686f75": 5787,
    "62616e697368276420": 5788,
    "6e61792c20": 5789,
    "776f756c64206e6f7420": 5790,
    "446f20796f7520": 5791,
    "61637175": 5792,
    "626c656420": 5793,
    "62616420": 5794,
    "616c7320": 5795,
    "746f20706172646f6e": 5796,
    "617761": 5797,
    "6f6666656e6365": 5798,
    "75726e": 5799,
    "3b207768617420": 5800,
    "2c0a416e64207468656e20": 5801,
    "676f6c": 5802,
    "696e6a7572": 5803,
    "68696d3b0a": 5804,
    "3f0a0a5365636f6e642053656e61746f723a0a": 5805,
    "6265666f72650a": 5806,
    "6e616d650a": 5807,
    "7061737320": 5808,
    "736f65766572": 5809,
    "6c696172": 5810,
    "776f6d656e": 5811,
    "20796f75720a": 5812,
    "696f757320": 5813,
    "647265": 5814,
    "566f6c736369616e20": 5815,
    "616c6f6e67": 5816,
    "666f722074687920": 5817,
    "73616b65": 5818,
    "6173206d7920": 5819,
    "207468657265277320": 5820,
    "726573706563": 5821,
    "2061646d6974": 5822,
    "2c0a4c": 5823,
    "72657368": 5824,
    "73756974": 5825,
    "2e0a4d7920": 5826,
    "696e2068657220": 5827,
    "627265616b": 5828,
    "76697274756f757320": 5829,
    "3f206f72": 5830,
    "20737472": 5831,
    "796f756e6720": 5832,
    "7065637420": 5833,
    "506c": 5834,
    "726f7720": 5835,
    "5468657365206579657320": 5836,
    "736f72726f77": 5837,
    "6a65616c": 5838,
    "696e6365": 5839,
    "6475747920": 5840,
    "20616c6c207468697320": 5841,
    "65642062792074686520": 5842,
    "4469": 5843,
    "76650a546f20": 5844,
    "7368616d6520": 5845,
    "726561736f6e73": 5846,
    "626c616d": 5847,
    "65207468616e": 5848,
    "7369676874": 5849,
    "766963746f72": 5850,
    "74696c6c": 5851,
    "7468657265627920": 5852,
    "2074686f75207368616c7420": 5853,
    "616972": 5854,
    "732074687920": 5855,
    "6368696c64697368": 5856,
    "746573": 5857,
    "6c617374": 5858,
    "6f75736c7920": 5859,
    "7072657661696c": 5860,
    "77697468616c": 5861,
    "416e642c20": 5862,
    "6275696c": 5863,
    "20796f7520746f20": 5864,
    "20746865726520697320": 5865,
    "207468726f": 5866,
    "77616c6b": 5867,
    "6c696b6520616e20": 5868,
    "72696e6b": 5869,
    "64696e67": 5870,
    "7465726e": 5871,
    "616e64206120": 5872,
    "7377656172": 5873,
    "63686573": 5874,
    "3f0a0a5365636f6e64204d657373656e6765723a0a": 5875,
    "61726368": 5876,
    "6c69666520": 5877,
    "74656c6c2074686520": 5878,
    "72657061697220": 5879,
    "65617273": 5880,
    "2c0a57696c6c20": 5881,
    "6279207468697320": 5882,
    "4576656e": 5883,
    "4576656e20736f": 5884,
    "6368617269747920": 5885,
    "6973656420": 5886,
    "69666520": 5887,
    "3a204920": 5888,
    "6c65742068696d20": 5889,
    "7469766520": 5890,
    "4c6f726473": 5891,
    "6576656e20": 5892,
    "6e6f626c65206c6f726473": 5893,
    "646567": 5894,
    "276e20": 5895,
    "7465617273": 5896,
    "7363": 5897,
    "2e0a0a4669727374204c6f72643a0a": 5898,
    "706965636573": 5899,
    "697420796f757220": 5900,
    "656167": 5901,
    "2e272027486520": 5902,
    "2e2720274865206b696c6c": 5903,
    "666f6c": 5904,
    "696c6c2c206b": 5905,
    "6465656420": 5906,
    "2c0a50726f": 5907,
    "6b656420627920": 5908,
    "3a0a48697320": 5909,
    "6d6f6f": 5910,
    "6c6173": 5911,
    "76696f757320": 5912,
    "492c207468617420616d20": 5913,
    "676c617373": 5914,
    "64697373": 5915,
    "64697373656d": 5916,
    "73636172636520": 5917,
    "6d7920736861": 5918,
    "64617973": 5919,
    "647265616d73": 5920,
    "6d6577": 5921,
    "746f2074686520546f776572": 5922,
    "4765": 5923,
    "47656f72": 5924,
    "20746861742c20": 5925,
    "696e74656e74": 5926,
    "526963686172": 5927,
    "6e6f743a20": 5928,
    "477265": 5929,
    "436c6172656e63652c20": 5930,
    "736166652c20": 5931,
    "717565656e277320": 5932,
    "6265747769787420": 5933,
    "53686f72": 5934,
    "3f0a0a474c4f554345535445523a0a48": 5935,
    "6368616d6265726c61": 5936,
    "6c696265727479": 5937,
    "4920626573": 5938,
    "492062657365656368": 5939,
    "427261": 5940,
    "4272616b656e": 5941,
    "3f0a0a4252414b454e425552593a0a": 5942,
    "7365637265": 5943,
    "4252414b454e42555259": 5944,
    "6a656374": 5945,
    "697420746f20": 5946,
    "65616e": 5947,
    "65616e74696d": 5948,
    "65616e74696d652c20": 5949,
    "706c61696e20": 5950,
    "736f756c20": 5951,
    "3f0a0a48415354494e47533a0a": 5952,
    "696d707269736f6e6d656e74": 5953,
    "2e0a0a4841": 5954,
    "6162726f": 5955,
    "6b20616e6420": 5956,
    "5361696e74205061756c": 5957,
    "68617472656420": 5958,
    "576172": 5959,
    "5761727769636b": 5960,
    "6865722068757362616e6420616e6420": 5961,
    "7768696c6520": 5962,
    "756e74696d": 5963,
    "756e74696d656c7920": 5964,
    "686f757365206f6620": 5965,
    "686f757365206f66204c616e636173746572": 5966,
    "62652074686520": 5967,
    "62657469646520": 5968,
    "777265746368": 5969,
    "210a496620": 5970,
    "6c69676874": 5971,
    "43686572": 5972,
    "4368657274": 5973,
    "43686572747365": 5974,
    "48656e7279277320": 5975,
    "207374616e6420": 5976,
    "2c20666f722074687920": 5977,
    "656e6475726520": 5978,
    "74686520646576696c": 5979,
    "686164737420": 5980,
    "6f756c20": 5981,
    "70656e": 5982,
    "70726573656e636520": 5983,
    "2e0a4f20": 5984,
    "6c617720": 5985,
    "2e0a0a474c4f554345535445523a0a42757420": 5986,
    "66756c2c20": 5987,
    "566f756368": 5988,
    "706f7365": 5989,
    "6576696c": 5990,
    "6d7973656c662e0a0a4c41445920414e4e453a0a": 5991,
    "466f756c": 5992,
    "2074687973656c66": 5993,
    "76656e6765616e636520": 5994,
    "666f756c": 5995,
    "74686f75206c69": 5996,
    "6c61696420": 5997,
    "6775696c746c65737320": 5998,
    "476f64206772616e7420": 5999,
    "666f72207468617420": 6000,
    "206d652c207468617420": 6001,
    "2e0a0a474c4f554345535445523a0a596f757220": 6002,
    "636865": 6003,
    "6f6e2074686565": 6004,
    "6c6164792c20": 6005,
    "576f756c6420": 6006,
    "73616420": 6007,
    "2e0a54": 6008,
    "726f73": 6009,
    "63757273657320": 6010,
    "77686f6d20": 6011,
    "546577": 6012,
    "5465776b73": 6013,
    "5465776b7362757279": 6014,
    "726967687420": 6015,
    "2e0a0a4752": 6016,
    "2e0a0a475245": 6017,
    "68697320677261636520": 6018,
    "636c75": 6019,
    "515545454e20454c495a41424554483a0a": 6020,
    "20746865206b696e67": 6021,
    "4465726279": 6022,
    "444552": 6023,
    "44455242": 6024,
    "44455242593a0a": 6025,
    "6d79204c6f7264206f6620": 6026,
    "3f0a4f": 6027,
    "6f75747761726420": 6028,
    "6865206d617920": 6029,
    "796f75207765726520": 6030,
    "53686520": 6031,
    "536865206d61": 6032,
    "536865206d61792c20": 6033,
    "6d617272792c20": 6034,
    "6d617272792c206d617920": 6035,
    "6d617272792c206d617920736865": 6036,
    "717565656e2c20": 6037,
    "6a6f7920": 6038,
    "456e67": 6039,
    "456e676c616e64": 6040,
    "210a54687920": 6041,
    "2c207768617420": 6042,
    "5965612c20616e6420": 6043,
    "5269766572": 6044,
    "4d61726761726574": 6045,
    "2e0a0a515545454e204d41524741524554": 6046,
    "696520": 6047,
    "68656c6c20": 6048,
    "7061696e20": 6049,
    "64756b6520": 6050,
    "444f": 6051,
    "444f52": 6052,
    "444f5253": 6053,
    "444f52534554": 6054,
    "444f525345543a0a": 6055,
    "5072": 6056,
    "5072696e": 6057,
    "6875726c20": 6058,
    "64757479": 6059,
    "27747765726520": 6060,
    "4368": 6061,
    "43687269": 6062,
    "686176652074686520": 6063,
    "6574686f7567687420": 6064,
    "2e0a0a4669727374204d757264657265723a0a486f7720": 6065,
    "68652063616e6e6f7420": 6066,
    "206861737420": 6067,
    "73706f6b656e": 6068,
    "20776f726473": 6069,
    "526f6d65277320": 6070,
    "0a5765726520696e20": 6071,
    "2c20616e642074687920": 6072,
    "4261": 6073,
    "0a417320686520": 6074,
    "626567616e": 6075,
    "2c20616e64206e6f7420": 6076,
    "6865206d616465": 6077,
    "4920776f756c64206865206861": 6078,
    "4920776f756c6420686520686164": 6079,
    "275477617320": 6080,
    "796f7520696e": 6081,
    "64676520": 6082,
    "6d79": 6083,
    "507261792c206c657420757320676f": 6084,
    "676f6e653a0a": 6085,
    "646f6e65206120": 6086,
    "6c616479277320": 6087,
    "746869732c20": 6088,
    "646f20796f752073": 6089,
    "2d2d0a5768": 6090,
    "62616e69736827642c20": 6091,
    "57656c6c2c2077656c6c2c20": 6092,
    "796f752e0a0a534943494e4955533a0a": 6093,
    "62616974": 6094,
    "77616e747320": 6095,
    "77697473": 6096,
    "2e0a4920776f756c6420": 6097,
    "6e6f7468696e6720656c736520": 6098,
    "612d": 6099,
    "697420776f756c6420": 6100,
    "68656172740a": 6101,
    "686561767920": 6102,
    "63617573652e20": 6103,
    "73757020": 6104,
    "6d79206d": 6105,
    "206d7973656c66": 6106,
    "2c0a416e6420736f20": 6107,
    "66656564": 6108,
    "70756c": 6109,
    "696e6720616e6420": 6110,
    "6c616d656e7420": 6111,
    "210a0a526f6d616e3a0a": 6112,
    "2c20616e6420796f7520": 6113,
    "7472756c": 6114,
    "792c2049206861766520": 6115,
    "4920616d206120": 6116,
    "3b20616e64206d7920": 6117,
    "2c0a617320": 6118,
    "796f75206172652c20": 6119,
    "206d6520796574": 6120,
    "3f0a0a566f6c73": 6121,
    "3f0a0a566f6c736365": 6122,
    "4e69": 6123,
    "4e6963616e": 6124,
    "4e6963616e6f72": 6125,
    "652c20736972": 6126,
    "7768656e204920": 6127,
    "6e6f746520": 6128,
    "566f6c736369616e2073": 6129,
    "566f6c736369616e207374617465": 6130,
    "566f6c736369616e2073746174652c0a": 6131,
    "766564206d6520": 6132,
    "737472616e676520": 6133,
    "76650a": 6134,
    "7269706520": 6135,
    "666f722065766572": 6136,
    "736169642c20": 6137,
    "6573740a": 6138,
    "63686f6f7365": 6139,
    "61636369": 6140,
    "6163636964": 6141,
    "656e64656420": 6142,
    "627573696e6573732c20616e6420": 6143,
    "6163636f6d70": 6144,
    "7065722c20": 6145,
    "3b20616c6c20": 6146,
    "74656e64": 6147,
    "6164766572736172": 6148,
    "206f6620746865697220": 6149,
    "6d616e2c20": 6150,
    "676c616420": 6151,
    "6f6620796f757273": 6152,
    "4120676f6f646c7920": 6153,
    "6369747920697320": 6154,
    "2e2043": 6155,
    "49207468617420": 6156,
    "68656972": 6157,
    "207468657365206661697220": 6158,
    "616e20616e6420": 6159,
    "3a207468656e20": 6160,
    "776976657320": 6161,
    "626f797320": 6162,
    "77697468207374": 6163,
    "626174746c6520": 6164,
    "736c617920": 6165,
    "736c6179206d65": 6166,
    "796f752e0a0a434f52494f4c414e55533a0a": 6167,
    "446972": 6168,
    "44697265": 6169,
    "6d652c20696620": 6170,
    "6c696573": 6171,
    "697320686520": 6172,
    "3f0a0a436974697a656e3a0a": 6173,
    "6665617374": 6174,
    "686f7573652c20": 6175,
    "2e0a4f": 6176,
    "20776f726c": 6177,
    "20776f726c642c20": 6178,
    "656e647320": 6179,
    "6661737420": 6180,
    "7365656d20746f20": 6181,
    "7765617220": 6182,
    "7477696e": 6183,
    "2c207368616c6c20": 6184,
    "64697373656e": 6185,
    "656e6d": 6186,
    "656e6d697479": 6187,
    "70617373696f6e": 6188,
    "62726f6b6520": 6189,
    "6368616e6365": 6190,
    "747269636b20": 6191,
    "776f72746820": 6192,
    "616e2065": 6193,
    "3a0a4d7920": 6194,
    "6d79206c6f7665": 6195,
    "646f2068697320": 6196,
    "2e0a0a46697273742053657276696e676d616e3a0a57": 6197,
    "696e652c20": 6198,
    "61736c656570": 6199,
    "2e0a0a5365636f6e642053657276696e676d616e3a0a57": 6200,
    "6f747573": 6201,
    "6d617374657220": 6202,
    "73742073": 6203,
    "2e0a0a46697273742053657276696e676d616e3a0a5768617420": 6204,
    "6e6f20706c61636520": 6205,
    "6e6f20706c61636520666f7220796f75": 6206,
    "2e0a0a5365636f6e642053657276696e676d616e3a0a5768": 6207,
    "706f7274657220": 6208,
    "696e206869730a": 6209,
    "636f6d70616e696f6e": 6210,
    "2e0a0a434f52494f4c414e55533a0a41776179": 6211,
    "210a0a5365636f6e6420": 6212,
    "210a0a5365636f6e642053657276696e676d616e3a0a": 6213,
    "27727420": 6214,
    "796f7520736f20": 6215,
    "6272617665": 6216,
    "6564207769746820": 6217,
    "616e6f6e": 6218,
    "3f0a0a46697273742053657276696e676d616e3a0a": 6219,
    "6c6f6f6b656420": 6220,
    "6f6e3a20": 6221,
    "61766f69": 6222,
    "3f0a0a434f52494f4c414e55533a0a4120": 6223,
    "76656c6c": 6224,
    "76656c6c6f757320": 6225,
    "66756e": 6226,
    "66756e6374696f6e": 6227,
    "796f752077696c6c20": 6228,
    "6e6f743f20": 6229,
    "507269746865652c20": 6230,
    "6d79206d6173746572": 6231,
    "2e0a0a5365636f6e642053657276696e676d616e3a0a416e6420": 6232,
    "6477656c6c65737420": 6233,
    "556e6465722074686520": 6234,
    "556e646572207468652063616e": 6235,
    "556e646572207468652063616e6f70": 6236,
    "556e646572207468652063616e6f7079": 6237,
    "4179": 6238,
    "492720746865206369747920": 6239,
    "4927207468652063697479206f6620": 6240,
    "4927207468652063697479206f66206b6974657320616e6420": 6241,
    "4927207468652063697479206f66206b6974657320616e64206372": 6242,
    "210a5468": 6243,
    "6e6f742074687920": 6244,
    "77697468206d7920": 6245,
    "6d6564646c6520": 6246,
    "77697468207468790a": 6247,
    "707261746573": 6248,
    "70726174657374": 6249,
    "65722c20": 6250,
    "53657276696e676d616e3a0a48": 6251,
    "49276c6420": 6252,
    "73742074686f75": 6253,
    "20746879206e616d65": 6254,
    "6e6f743f": 6255,
    "2c206d616e": 6256,
    "3a2077686174277320746879206e616d65": 6257,
    "3a2077686174277320746879206e616d653f0a0a434f52494f4c414e55533a0a": 6258,
    "7965742074686f7520": 6259,
    "0a5468696e6b": 6260,
    "6e616d6520756e": 6261,
    "6f776e3a20": 6262,
    "2074686565206e6f74": 6263,
    "6861746820646f6e65": 6264,
    "6d69736368696566": 6265,
    "7320616e642074686520": 6266,
    "626c6f6f640a": 6267,
    "726571756974": 6268,
    "77697468207468617420": 6269,
    "3b206120": 6270,
    "2073686f75": 6271,
    "6e616d652072656d61696e73": 6272,
    "6d697474656420": 6273,
    "6e6f626c65732c20": 6274,
    "2764206d6520": 6275,
    "65787472656d697479": 6276,
    "697374616b6520": 6277,
    "69660a492068616420": 6278,
    "64656174682c20": 6279,
    "6f6620616c6c2074686520": 6280,
    "4920776f756c64206861766520": 6281,
    "746865652068657265": 6282,
    "20746865652c207468617420": 6283,
    "0a5468696e6520": 6284,
    "636f756e7472792c20": 6285,
    "7374726169676874": 6286,
    "6d697365727920": 6287,
    "62656e6566": 6288,
    "0a416761696e737420": 6289,
    "0a416761696e7374206d7920": 6290,
    "6669656e6473": 6291,
    "657374206e6f7420": 6292,
    "746f2070726f766520": 6293,
    "20776f72642c20": 6294,
    "657220746f20": 6295,
    "746f207468656520616e6420": 6296,
    "6d616c696365": 6297,
    "3b0a576869636820": 6298,
    "20746865652062757420": 6299,
    "2c0a53696e636520": 6300,
    "492068617665206576657220": 6301,
    "666f6c6c6f77276420": 6302,
    "2c0a416e642063616e6e6f7420": 6303,
    "7368616d652c20": 6304,
    "275469732074727565": 6305,
    "616761696e7374": 6306,
    "74696d657320": 6307,
    "6d6f6f6e20": 6308,
    "68657265204920": 6309,
    "73776f72642c20616e6420": 6310,
    "6573740a417320": 6311,
    "6c6f76650a417320": 6312,
    "6d62": 6313,
    "6974696f757320": 6314,
    "49206469": 6315,
    "656e6420616761696e737420": 6316,
    "72696564": 6317,
    "3b206e65766572": 6318,
    "747275657220": 6319,
    "616e63657320": 6320,
    "0a5468616e207768656e20": 6321,
    "0a5468616e207768656e204920": 6322,
    "6464656420": 6323,
    "6d6973747265737320": 6324,
    "2e205768792c20": 6325,
    "6120706f77657220": 6326,
    "6d6f726520746f20": 6327,
    "772074687920": 6328,
    "746172": 6329,
    "77656c766520": 6330,
    "7365766572616c20": 6331,
    "696e206d7920736c656570": 6332,
    "6c696e6720": 6333,
    "7468726f61742c0a416e6420": 6334,
    "77616b656420": 6335,
    "746f20526f6d652c20": 6336,
    "7468656e636520": 6337,
    "706f7572": 6338,
    "696e2c0a416e6420": 6339,
    "616761696e737420796f757220": 6340,
    "6e6f7420666f7220": 6341,
    "626c65737320": 6342,
    "6f66207468696e6520": 6343,
    "636f6d6d697373696f6e": 6344,
    "70657269": 6345,
    "737472656e67746820616e6420": 6346,
    "6761746573206f6620526f6d65": 6347,
    "72756465": 6348,
    "727564656c7920": 6349,
    "72656d6f": 6350,
    "3a0a4c6574206d6520": 6351,
    "68616e643a": 6352,
    "77656c636f6d65210a0a466972737420": 6353,
    "68616e642c20": 6354,
    "74686f7567687420746f20": 6355,
    "7475726e656420": 6356,
    "7468756d": 6357,
    "746f70": 6358,
    "4e61792c204920": 6359,
    "66616365207468617420": 6360,
    "74686572652077617320": 6361,
    "6d6574686f75676874": 6362,
    "63616e6e6f742074656c6c20686f7720746f20": 6363,
    "7465726d20": 6364,
    "2e0a0a46697273742053657276696e676d616e3a0a486520": 6365,
    "49207765726520": 6366,
    "6865206973": 6367,
    "677265617465722073": 6368,
    "6772656174657220736f6c64696572": 6369,
    "207468616e20686520": 6370,
    "796f752077": 6371,
    "20736978": 6372,
    "2073697820": 6373,
    "74616b652068696d20": 6374,
    "46616974682c20": 6375,
    "2c206f6e6520": 6376,
    "6f75722067656e6572616c20697320": 6377,
    "657863656c6c": 6378,
    "2e0a0a46697273742053657276696e676d616e3a0a41792c20616e6420": 6379,
    "7361756c": 6380,
    "7361756c7420": 6381,
    "4f20736c61": 6382,
    "6e6577732c20": 6383,
    "6120526f6d616e": 6384,
    "6120526f6d616e2c20": 6385,
    "6e6174696f6e": 6386,
    "68657265666f7265": 6387,
    "3f0a0a54686972642053657276696e676d616e3a0a5768792c20": 6388,
    "7761636b206f75722067656e6572616c": 6389,
    "667269656e64733a20": 6390,
    "6861726420": 6391,
    "77617320746f6f20": 6392,
    "746f207361792074686520": 6393,
    "62616c6c": 6394,
    "4275742c20": 6395,
    "6966206865207765726520": 6396,
    "4d617273": 6397,
    "3b206e6f": 6398,
    "71756573": 6399,
    "68696d73656c6620": 6400,
    "75702074686520": 6401,
    "65796520": 6402,
    "6461793b20": 6403,
    "656e74726561": 6404,
    "7061737361676520": 6405,
    "696d6167696e65": 6406,
    "446f": 6407,
    "6c6f6f6b20796f752c207369722c20": 6408,
    "73656c7665732c20": 6409,
    "7768696c": 6410,
    "7768696c737420": 6411,
    "63746974756465": 6412,
    "7365652c20": 6413,
    "626c6f6f642c20": 6414,
    "6c696b6520636f6e": 6415,
    "7261696e": 6416,
    "76656c": 6417,
    "676f657320": 6418,
    "3a0a546f": 6419,
    "70726573656e746c79": 6420,
    "207368616c6c206861766520": 6421,
    "2073747275": 6422,
    "2073747275636b20": 6423,
    "65786563": 6424,
    "657865637574": 6425,
    "6520746865697220": 6426,
    "5768792c207468656e": 6427,
    "7272": 6428,
    "6e6f7468696e672c20": 6429,
    "7461696c": 6430,
    "7461696c6f72": 6431,
    "656c792c20": 6432,
    "6b696e672c20": 6433,
    "6973206120": 6434,
    "6c6578": 6435,
    "617267": 6436,
    "20776172277320": 6437,
    "20736f6d652073": 6438,
    "726176697368": 6439,
    "63616e6e6f7420626520": 6440,
    "64656e69656420": 6441,
    "6974206d616b657320": 6442,
    "6f6e6520616e6f74686572": 6443,
    "3b206265": 6444,
    "7320617320": 6445,
    "73696e672c20": 6446,
    "2c20696e2c20696e": 6447,
    "666561722068696d": 6448,
    "65732061726520": 6449,
    "7175696574": 6450,
    "20746861742074686520": 6451,
    "2074686579": 6452,
    "207468656d73656c76657320": 6453,
    "74726565": 6454,
    "676f696e67": 6455,
    "676f696e670a41": 6456,
    "626f757420": 6457,
    "2e0a0a426f74682054726962756e65733a0a": 6458,
    "796f7520626f7468": 6459,
    "796f7520626f7468210a0a534943494e4955533a0a": 6460,
    "7765616c": 6461,
    "616e642c20616e6420": 6462,
    "616e67727920": 6463,
    "77656c6c3b20616e6420": 6464,
    "686973206d6f7468657220": 6465,
    "616e642068697320": 6466,
    "0a4865617220": 6467,
    "66726f6d2068696d": 6468,
    "707265736572766520": 6469,
    "476f642d": 6470,
    "2c206f757220": 6471,
    "64656e20746f20796f75": 6472,
    "20616c6c2c20": 6473,
    "6f6e206f757220": 6474,
    "6b6e656573": 6475,
    "626f756e6420746f20": 6476,
    "46617265": 6477,
    "4661726577656c6c2c20": 6478,
    "77697368276420": 6479,
    "7765206469": 6480,
    "2e0a0a534943494e4955533a0a5468697320697320": 6481,
    "7374726565": 6482,
    "7279696e6720": 6483,
    "776173": 6484,
    "6f66666963657220": 6485,
    "7061737420": 6486,
    "696e672c0a53": 6487,
    "6374696e6720": 6488,
    "6e6f7420736f": 6489,
    "2e0a0a534943494e4955533a0a576520": 6490,
    "6c616d656e746174696f6e": 6491,
    "76652c20": 6492,
    "0a446573": 6493,
    "79207768617420": 6494,
    "0a54686520566f6c7363657320": 6495,
    "6e6f74206265": 6496,
    "68617665207265": 6497,
    "746872656520": 6498,
    "616765": 6499,
    "2077686f20": 6500,
    "207768617420697320": 6501,
    "6d653a0a": 6502,
    "636f756e74656e": 6503,
    "2d2d0a": 6504,
    "64656c697665722764": 6505,
    "4920646f206e6f74206b6e6f77": 6506,
    "4a6f696e": 6507,
    "737061": 6508,
    "73706163696f757320": 6509,
    "6c696b656c79": 6510,
    "6f727420": 6511,
    "0a476f6f6420": 6512,
    "686f6d6520616761696e": 6513,
    "657479": 6514,
    "2e0a0a5365636f6e64204d657373656e6765723a0a": 6515,
    "6c656420627920": 6516,
    "5570": 6517,
    "6265666f7265207468656d": 6518,
    "6d61646520676f6f6420776f726b": 6519,
    "2c0a546f2073656520": 6520,
    "57686174277320": 6521,
    "57686174277320746865206e657773": 6522,
    "6672616e636869": 6523,
    "7365732c20": 6524,
    "796f7572206e657773": 6525,
    "596f752068617665206d616465206661697220776f726b": 6526,
    "206d652e": 6527,
    "6a6f696e": 6528,
    "61207468696e67": 6529,
    "0a4d61646520": 6530,
    "627920736f6d6520": 6531,
    "62726174": 6532,
    "666c696573": 6533,
    "6b696c6c696e6720": 6534,
    "2c0a596f7520616e6420796f757220": 6535,
    "206d756368": 6536,
    "0a4265666f726520": 6537,
    "696e676c7920": 6538,
    "636f6e7374616e7420": 6539,
    "3f0a596f757220": 6540,
    "3f0a54686520": 6541,
    "6f657320": 6542,
    "746f20526f6d65": 6543,
    "686174652c0a416e6420": 6544,
    "496620686520": 6545,
    "4966206865207765726520": 6546,
    "0a546861742073686f756c6420": 6547,
    "2120796f75206861766520": 6548,
    "53617920": 6549,
    "756e746f20796f757220": 6550,
    "636c757374657273": 6551,
    "742068696d20": 6552,
    "492066656172": 6553,
    "7365636f6e6420": 6554,
    "63616e206d616b6520": 6555,
    "6d6164652074686520": 6556,
    "61697220": 6557,
    "6361707320": 6558,
    "6f6f74696e6720": 6559,
    "6861697220": 6560,
    "6120776869": 6561,
    "6275726e20": 6562,
    "6465736572766564206974": 6563,
    "7361696420277477617320": 6564,
    "416e6420736f2064696420": 6565,
    "416e6420736f206469642049": 6566,
    "766572790a": 6567,
    "3b20616e640a": 6568,
    "74686f75676820776520": 6569,
    "656e74656420": 6570,
    "7965740a": 6571,
    "6469736d61": 6572,
    "736967": 6573,
    "54686520676f647320626520": 6574,
    "54686520676f647320626520676f6f6420": 6575,
    "6c6574277320686f6d65": 6576,
    "79207468697320": 6577,
    "7769746368": 6578,
    "696e207468697320616374696f6e": 6579,
    "6974206e6f77": 6580,
    "732c204920": 6581,
    "6c616d6520": 6582,
    "4f6620": 6583,
    "626561727320": 6584,
    "656d627261": 6585,
    "657863757365": 6586,
    "616d656e": 6587,
    "2e0a0a4c69657574656e616e743a0a": 6588,
    "492077697368": 6589,
    "6c65667420": 6590,
    "74686f75207375": 6591,
    "74686f75676820697420": 6592,
    "736f20686520": 6593,
    "706172656e74": 6594,
    "67617220": 6595,
    "6579652c20": 6596,
    "73686f777320": 6597,
    "696768747320": 6598,
    "64726167": 6599,
    "736f6f6e": 6600,
    "627265616b2068697320": 6601,
    "61726420": 6602,
    "6e6f2073": 6603,
    "626520617320": 6604,
    "0a546f206578": 6605,
    "49207468696e6b206865276c6c20": 6606,
    "736f766572": 6607,
    "736f76657265": 6608,
    "736f7665726569676e": 6609,
    "686520636f756c6420": 6610,
    "646169": 6611,
    "6461696c7920": 6612,
    "6661696c20": 6613,
    "63757368696f6e": 6614,
    "696e67207065616365": 6615,
    "4576656e20": 6616,
    "6f6e65206f66": 6617,
    "686520686174682073": 6618,
    "66617220": 6619,
    "697420696e2074686520": 6620,
    "7574746572": 6621,
    "696e746572707265": 6622,
    "696e746572707265746174696f6e": 6623,
    "2c20756e": 6624,
    "746f6d": 6625,
    "65766964656e7420": 6626,
    "7320627920": 6627,
    "7320646f20": 6628,
    "6973207468": 6629,
    "2c0a54686f752061727420": 6630,
    "3b207468656e": 6631,
    "6f72746c7920": 6632,
    "206d696e65": 6633,
    "2e0a0a4d454e454e4955533a0a4e6f2c2049276c6c20": 6634,
    "2e0a0a4d454e454e4955533a0a4e6f2c2049276c6c206e6f7420": 6635,
    "3a20796f7520": 6636,
    "63616c6c2764206d6520": 6637,
    "796f75207468617420": 6638,
    "646f776e2c20616e6420": 6639,
    "696e746f2068697320": 6640,
    "3a206e61792c20": 6641,
    "63616c6c206d6520": 6642,
    "3a0a4920": 6643,
    "6163717561696e": 6644,
    "746f3a20": 6645,
    "636b276420": 6646,
    "61206e6f626c65206d656d6f7279": 6647,
    "7065746974696f6e206f66": 6648,
    "6973682764": 6649,
    "3f0a0a434f4d494e4955533a0a4920": 6650,
    "6f66666572": 6651,
    "7265676172": 6652,
    "636f756c64206e6f7420": 6653,
    "6d7573747920": 6654,
    "6d7573747920636861": 6655,
    "6d75737479206368616666": 6656,
    "6f6e6520706f6f7220": 6657,
    "6f6e6520706f6f7220677261": 6658,
    "6f6e6520706f6f7220677261696e20": 6659,
    "6f6e6520706f6f7220677261696e206f7220": 6660,
    "686973206d6f746865722c20": 6661,
    "6d656c74": 6662,
    "626f76652074686520": 6663,
    "3a20776520": 6664,
    "70617469656e74": 6665,
    "726566": 6666,
    "6272616964": 6667,
    "2c20696620796f75": 6668,
    "73746f7020": 6669,
    "6d616b6520747269": 6670,
    "0a466f7220": 6671,
    "746f776172647320": 6672,
    "736179207468617420": 6673,
    "6865617264": 6674,
    "646973636f6e74656e74": 6675,
    "6772696566": 6676,
    "2d7368": 6677,
    "6b696e646e657373": 6678,
    "3f2073": 6679,
    "6d757374206861766520": 6680,
    "732066726f6d20": 6681,
    "74656e64656420": 6682,
    "756e64657274616b6520": 6683,
    "6d75636820756e": 6684,
    "2e0a486520": 6685,
    "7665696e": 6686,
    "7320756e": 6687,
    "666f7267697665": 6688,
    "0a546865736520": 6689,
    "636f6e7665": 6690,
    "20736f756c": 6691,
    "0a54696c6c20": 6692,
    "2c0a416e64207468656e2049276c6c20": 6693,
    "2e0a0a4d454e454e4955533a0a476f6f6420": 6694,
    "6661697468": 6695,
    "650a4f66206d7920": 6696,
    "686561722068696d": 6697,
    "73697420": 6698,
    "73697420696e20": 6699,
    "676f6c642c20": 6700,
    "686973206579": 6701,
    "6b6e65656c": 6702,
    "6661696e": 6703,
    "207768617420686520776f756c6420": 6704,
    "6f61746820": 6705,
    "536f": 6706,
    "2c20616e642068697320": 6707,
    "206d6572": 6708,
    "676f206261636b2e0a0a4d454e454e4955533a0a": 6709,
    "737065616b207769746820436f72696f6c616e7573": 6710,
    "46726f6d207768": 6711,
    "596f75206d617920": 6712,
    "6c6f747320": 6713,
    "746f20626c": 6714,
    "276420796f7572206561727320": 6715,
    "492074656c6c20746865652c20": 6716,
    "492074656c6c20746865652c2066656c6c6f77": 6717,
    "6c6f766572": 6718,
    "492068617665206265656e": 6719,
    "48697320": 6720,
    "65643b0a466f7220": 6721,
    "20737566666572": 6722,
    "74696d6573": 6723,
    "20737562": 6724,
    "746c6520": 6725,
    "7374616d70": 6726,
    "4661697468": 6727,
    "20617320796f75206861766520": 6728,
    "6368617374": 6729,
    "66656c6c6f772c20": 6730,
    "4d656e656e6975732c0a": 6731,
    "66616374696f6e": 6732,
    "74656c6c696e6720": 6733,
    "617320686520": 6734,
    "63616e73742074686f7520": 6735,
    "20796f752073686f756c6420": 6736,
    "43616e20796f75": 6737,
    "2c20616e642c20": 6738,
    "7468696e6b20": 6739,
    "66726f6e": 6740,
    "726576656e67657320": 6741,
    "6561737920": 6742,
    "76697267": 6743,
    "76697267696e": 6744,
    "732c206f7220": 6745,
    "696e746572636573": 6746,
    "6465636569": 6747,
    "7468657265666f72652c20": 6748,
    "70726570": 6749,
    "7072657061726520": 6750,
    "636f6e64656d": 6751,
    "65766520": 6752,
    "726168": 6753,
    "6361707461696e20": 6754,
    "796f75206e6f74": 6755,
    "2e0a0a4d454e454e4955533a0a4920": 6756,
    "636172657320": 6757,
    "6361726573206e6f7420": 6758,
    "49206c657420": 6759,
    "686176696e67": 6760,
    "61204a61": 6761,
    "6775617264": 6762,
    "732c2062757420": 6763,
    "0a7769746820": 6764,
    "70656374": 6765,
    "656c6c": 6766,
    "776f": 6767,
    "676c6f72696f757320": 6768,
    "7468790a": 6769,
    "6c6f7665207468656520": 6770,
    "21204f": 6771,
    "6d7973656c6620": 6772,
    "626c6f776e20": 6773,
    "733b20616e6420": 6774,
    "636f6e6a": 6775,
    "7468656520746f20": 6776,
    "7772617468": 6777,
    "64726567": 6778,
    "6472656773206f6620": 6779,
    "6368696c642c20": 6780,
    "616666616972": 6781,
    "73657276616e74": 6782,
    "2074686f75676820": 6783,
    "70726f706572": 6784,
    "666f72676574": 6785,
    "0a5468616e207069747920": 6786,
    "6572207468616e": 6787,
    "616761696e7374206d7920": 6788,
    "666f7263652e20": 6789,
    "2c0a576173206d7920": 6790,
    "2c2049206861766520": 6791,
    "746f2073": 6792,
    "68617468206120": 6793,
    "3a206c657420": 6794,
    "6265207468617420": 6795,
    "746f2c20": 6796,
    "6265666f72652074686520": 6797,
    "77697468207375636820": 6798,
    "0a546861742074686f7567687420": 6799,
    "73656e7420746f20": 6800,
    "2c0a4c6f": 6801,
    "696e64656564": 6802,
    "73656e642068696d": 6803,
    "736f7572": 6804,
    "646f206d6f72652c20": 6805,
    "7969656c64": 6806,
    "6672657368": 6807,
    "6c656e6420": 6808,
    "73686f757420": 6809,
    "4920626520": 6810,
    "74656d7074656420": 6811,
    "766f77": 6812,
    "0a496e2074686520": 6813,
    "6672616d65": 6814,
    "0a546865206772": 6815,
    "746f2068657220": 6816,
    "6f75742c20": 6817,
    "6f627374": 6818,
    "3f204920": 6819,
    "207374726f6e67": 6820,
    "74696f6e20": 6821,
    "4974616c": 6822,
    "6e657665720a42": 6823,
    "6e657665720a426520": 6824,
    "736c": 6825,
    "696e7374": 6826,
    "6b696e": 6827,
    "6c6f726420616e6420": 6828,
    "736f72726f77207468617420": 6829,
    "4c696b65206120": 6830,
    "64756c6c20": 6831,
    "6469736772616365": 6832,
    "27466f72": 6833,
    "6b6973730a": 6834,
    "2c20737765657420": 6835,
    "6a65616c6f757320": 6836,
    "717565656e20": 6837,
    "6f662068656176656e": 6838,
    "6f662068656176656e2c207468617420": 6839,
    "6361727269656420": 6840,
    "276420697420": 6841,
    "746865206d6f7374206e6f626c6520": 6842,
    "696d70726573": 6843,
    "696d7072657373696f6e": 6844,
    "792c20617320": 6845,
    "0a426574": 6846,
    "702074686520": 6847,
    "6365646172": 6848,
    "746f206d61": 6849,
    "54686f7520": 6850,
    "3b0a4920": 6851,
    "73746572206f6620": 6852,
    "696369": 6853,
    "6573742073": 6854,
    "676f6420": 6855,
    "206d6179737420": 6856,
    "2d6d61726b": 6857,
    "4f72": 6858,
    "72656d656d626572207468697320": 6859,
    "73776f726e20746f20": 6860,
    "62696420": 6861,
    "6361706974": 6862,
    "74656c6c206d6520": 6863,
    "210a596f75206861766520": 6864,
    "616e79207468696e67": 6865,
    "20796f752064656e7920": 6866,
    "3b0a54": 6867,
    "6e6f7567687420": 6868,
    "656e7420616e6420": 6869,
    "64616e6365": 6870,
    "73747261696e": 6871,
    "626f77656c7320": 6872,
    "616c6c2062757420": 6873,
    "656e6a6f79": 6874,
    "686f772063616e": 6875,
    "666f72206f757220": 6876,
    "2e0a5768657265": 6877,
    "746f2077652061726520": 6878,
    "746f2077652061726520626f756e": 6879,
    "766963746f7279": 6880,
    "2c206f72": 6881,
    "6e7572": 6882,
    "636f6d666f727420": 6883,
    "5765206d75737420": 6884,
    "0a416e20": 6885,
    "756d7068": 6886,
    "747265616420": 6887,
    "6f6e2074687920": 6888,
    "686176696e6720": 6889,
    "6368696c6472656e277320": 6890,
    "7065727375": 6891,
    "6d6f74686572277320": 6892,
    "776f6d62": 6893,
    "2c0a546861742062726f7567687420": 6894,
    "626f792c20": 6895,
    "596f756e": 6896,
    "20776f6d616e277320": 6897,
    "2e0a496620": 6898,
    "20736572": 6899,
    "2c20796f75206d": 6900,
    "706f69736f6e6f757320": 6901,
    "7265636f6e": 6902,
    "7265636f6e6369": 6903,
    "68696c6520": 6904,
    "275468697320": 6905,
    "6d6572637920": 6906,
    "207369": 6907,
    "756e6365727461696e": 6908,
    "7065746974696f6e20": 6909,
    "617474656d": 6910,
    "70656420": 6911,
    "696e672061": 6912,
    "3a0a54686f75206861737420": 6913,
    "67726163657320": 6914,
    "3b0a546f20": 6915,
    "7769646520": 6916,
    "686f6e6f757261626c6520": 6917,
    "6d6f766520": 6918,
    "6e6f206d616e20": 6919,
    "636b73": 6920,
    "206d6f7468657220": 6921,
    "636f7572746573": 6922,
    "636f757274657379": 6923,
    "6a757374": 6924,
    "2c0a416e64207370": 6925,
    "74686520676f64732077696c6c20": 6926,
    "6c6164696573": 6927,
    "2e0a546f20": 6928,
    "686f6c647320": 6929,
    "3a0a5468697320": 6930,
    "20616e642068697320": 6931,
    "7573206f757220": 6932,
    "757368276420": 6933,
    "2e0a0a434f52494f4c414e55533a0a4f": 6934,
    "206d6f746865722c20": 6935,
    "62656c69657665206974": 6936,
    "7072657661696c2764": 6937,
    "6c657420697420": 6938,
    "2e0a41": 6939,
    "3f206f7220": 6940,
    "61647669": 6941,
    "73776f726473": 6942,
    "706f737369626c6520": 6943,
    "66696e676572": 6944,
    "7072657661696c20": 6945,
    "7468617420736f20": 6946,
    "206f662061206d616e": 6947,
    "646966666572": 6948,
    "67727562": 6949,
    "6d6f7265207468616e": 6950,
    "63726565": 6951,
    "6372656570": 6952,
    "656e20686520": 6953,
    "70696572636520": 6954,
    "657465726e": 6955,
    "616c6520": 6956,
    "3b2074686174": 6957,
    "207468697320697320": 6958,
    "75732e20": 6959,
    "68652072657475726e": 6960,
    "68696d207570": 6961,
    "646f776e2c20": 6962,
    "566f6c736369616e": 6963,
    "677265657420": 6964,
    "2c0a4e6f2c20": 6965,
    "746865207265": 6966,
    "6861726b": 6967,
    "65732c0a54": 6968,
    "2e204861726b": 6969,
    "70617472696369616e73": 6970,
    "6c616e6420": 6971,
    "2c20686f77": 6972,
    "416c": 6973,
    "7472696265": 6974,
    "57656c": 6975,
    "57656c636f6d652c20": 6976,
    "57656c636f6d652c206c616469": 6977,
    "57656c636f6d652c206c61646965732c20": 6978,
    "6c69766572": 6979,
    "7061706572": 6980,
    "7265616420": 6981,
    "616363757365": 6982,
    "656e746572276420": 6983,
    "736c61696e": 6984,
    "20796f757220677265617420": 6985,
    "2e0a0a546869726420436f6e7370697261746f72": 6986,
    "66616c6c206f6620": 6987,
    "616b65732074686520": 6988,
    "72616973656420": 6989,
    "696e6720736f20": 6990,
    "6865696768": 6991,
    "2c2d2d0a0a41": 6992,
    "2c2d2d0a0a41554649444955533a0a": 6993,
    "2c2d2d0a0a41554649444955533a0a54": 6994,
    "756e746f206d7920": 6995,
    "6b6e69666520": 6996,
    "6b2068696d": 6997,
    "686973206f776e20": 6998,
    "65733b20": 6999,
    "6a6563747320": 7000,
    "6c697368": 7001,
    "66616d65": 7002,
    "617279": 7003,
    "73706f696c": 7004,
    "676c6f7279": 7005,
    "69743a0a": 7006,
    "66657720": 7007,
    "64726f707320": 7008,
    "656e277320": 7009,
    "2c20776869636820": 7010,
    "6f6c642074686520": 7011,
    "6e6f697365": 7012,
    "70617469656e7420": 7013,
    "3a0a5468657265": 7014,
    "3a0a5468657265666f72652c20": 7015,
    "617420796f757220": 7016,
    "206d6f766520": 7017,
    "20796f75722073776f7264": 7018,
    "3a0a4865726520636f6d652074686520": 7019,
    "2e0a0a416c6c20": 7020,
    "2e0a0a416c6c2054686520": 7021,
    "4c6f7264733a0a": 7022,
    "2e0a4275742c20": 7023,
    "6865656420": 7024,
    "6368617267652c20": 7025,
    "20796f75207368616c6c20": 7026,
    "2c206c6f726473": 7027,
    "686f6d": 7028,
    "6368617267657320": 7029,
    "74726169746f722c20": 7030,
    "646567726565": 7031,
    "686174682061": 7032,
    "210a0a41554649444955533a0a41792c20": 7033,
    "73746f6c": 7034,
    "686561647320": 7035,
    "62657472": 7036,
    "676976656e20": 7037,
    "7265736f6c75": 7038,
    "436f756e": 7039,
    "206f272074686520": 7040,
    "4e61": 7041,
    "4e616d6520": 7042,
    "6d79206865617274": 7043,
    "73206974": 7044,
    "2e20426f": 7045,
    "210a50": 7046,
    "732c206d7920": 7047,
    "206d656e20616e6420": 7048,
    "6c616473": 7049,
    "20616c6c20796f757220": 7050,
    "6561676c6520": 7051,
    "626c696e6420": 7052,
    "666f7274756e65": 7053,
    "6c6c20436f6e7370697261746f72": 7054,
    "6c6c20436f6e7370697261746f72733a0a": 7055,
    "2e2720274865206b696c6c656420": 7056,
    "2e2720274865206b696c6c6564206d7920": 7057,
    "5365636f6e64204c6f7264": 7058,
    "6f75747261": 7059,
    "7065616365210a54686520": 7060,
    "2d696e": 7061,
    "696c6c2c206b696c6c2c206b": 7062,
    "2e0a0a41554649444955533a0a4d7920": 7063,
    "2c0a50726f766f": 7064,
    "637574206f6666": 7065,
    "6c6f79": 7066,
    "6c6f79616c": 7067,
    "656e64757265": 7068,
    "6865617669": 7069,
    "6f75726e": 7070,
    "636f72736520": 7071,
    "686572616c": 7072,
    "626c616d65": 7073,
    "6d616b652074686520": 7074,
    "7769746820736f72726f77": 7075,
    "66756c6c79": 7076,
    "6d616e79206120": 7077,
    "686f757220": 7078,
    "7761696c": 7079,
    "696e6a7572792c0a": 7080,
    "746572206f66206f757220": 7081,
    "596f726b": 7082,
    "636c6f75647320": 7083,
    "733b0a": 7084,
    "733b0a4f757220": 7085,
    "68756e6720": 7086,
    "756d656e74": 7087,
    "6d6572727920": 7088,
    "647265616466756c": 7089,
    "72696e6b6c656420": 7090,
    "6672696768742074686520": 7091,
    "706c656173696e6720": 7092,
    "6c75": 7093,
    "6c6f6f6b696e672d": 7094,
    "6c6f6f6b696e672d676c617373": 7095,
    "3b0a492c207468617420616d20": 7096,
    "6f662066": 7097,
    "64697373656d626c696e6720": 7098,
    "2c0a4465": 7099,
    "6265666f7265206d7920": 7100,
    "627265617468696e67": 7101,
    "66617368696f6e": 7102,
    "6261726b": 7103,
    "64656c6967687420": 7104,
    "64656c6967687420746f20": 7105,
    "2c0a556e6c65737320": 7106,
    "6d792073686164": 7107,
    "6465666f726d": 7108,
    "6465666f726d697479": 7109,
    "70726f7665206120": 7110,
    "77656c6c2d": 7111,
    "64657465726d696e": 7112,
    "686174652074686520": 7113,
    "706c656173757265": 7114,
    "70726f7068656369": 7115,
    "6d792062726f7468657220": 7116,
    "0a4173204920616d": 7117,
    "7472656163686572": 7118,
    "6d6577276420": 7119,
    "6d65772764207570": 7120,
    "746f206d7920736f756c": 7121,
    "2e0a42726f": 7122,
    "2e0a42726f74686572": 7123,
    "2e0a42726f746865722c20": 7124,
    "3f0a0a434c4152454e4345": 7125,
    "0a54656e": 7126,
    "79206d6520": 7127,
    "73686f756c": 7128,
    "686973206d616a6573747920": 7129,
    "6e65772d": 7130,
    "5965612c20": 7131,
    "6e616d65206f6620": 7132,
    "47656f72676520": 7133,
    "4c61647920": 7134,
    "2e0a57617320": 7135,
    "42792068656176656e": 7136,
    "42792068656176656e2c20": 7137,
    "717565656e2773206b696e64": 7138,
    "717565656e2773206b696e6472656420": 7139,
    "6973747265737320": 7140,
    "697374726573732053686f72": 7141,
    "2e0a48656172": 7142,
    "616e2068756d626c6520": 7143,
    "73757070": 7144,
    "737570706c69": 7145,
    "6d79206c6f7264206368616d6265726c61": 7146,
    "2e0a49276c6c20": 7147,
    "2077652077696c6c20": 7148,
    "7769646f7720": 7149,
    "616e6420686572": 7150,
    "49206265736565636820796f757220": 7151,
    "636f6e666572": 7152,
    "2c206120": 7153,
    "67656e746c652d": 7154,
    "7769746820686572": 7155,
    "2e0a0a4252414b454e42555259": 7156,
    "64756b65": 7157,
    "4272616b656e627572": 7158,
    "756e746f20746865206b696e67": 7159,
    "746f2068656176656e": 7160,
    "476f6f642074696d65206f6620": 7161,
    "476f6f642074696d65206f662064617920": 7162,
    "67726163696f7573206c6f7264": 7163,
    "6f70656e": 7164,
    "70617469656e63652c20": 7165,
    "646f7562742c20": 7166,
    "5354494e4753": 7167,
    "3a0a4d6f726520": 7168,
    "7072657920": 7169,
    "6174206c696265727479": 7170,
    "2e0a0a474c4f554345535445523a0a5768617420": 7171,
    "7369636b": 7172,
    "6d656c616e": 7173,
    "6d656c616e63686f6c": 7174,
    "792c0a416e6420": 7175,
    "726f79616c20706572736f6e": 7176,
    "2c0a5769746820": 7177,
    "6966204920": 7178,
    "616e6f7468657220": 7179,
    "6c656176652074686520": 7180,
    "6b696c6c276420": 7181,
    "6b696c6c2764206865722068757362616e6420616e6420": 7182,
    "68657220666174686572": 7183,
    "636c6f736520": 7184,
    "2e0a0a4c41445920414e4e453a0a53": 7185,
    "6c6f6164": 7186,
    "68696c737420": 7187,
    "73206f662074686520": 7188,
    "6c617766756c": 7189,
    "766f63": 7190,
    "67686f7374": 7191,
    "2c0a546f2068656172": 7192,
    "2c0a546f20686561722074686520": 7193,
    "416e6e65": 7194,
    "4564776172642c20": 7195,
    "736c6175": 7196,
    "736c61756768": 7197,
    "2c0a537461": 7198,
    "2c0a53746162": 7199,
    "2c0a5374616262276420": 7200,
    "73656c6673616d6520": 7201,
    "68616e64207468617420": 7202,
    "68616e642074686174206d61646520": 7203,
    "68616e642074686174206d61646520746865736520": 7204,
    "210a4c": 7205,
    "20746879206c696665": 7206,
    "43757273656420": 7207,
    "4375727365642062652074686520": 7208,
    "686f6c6573": 7209,
    "746f20646f206974": 7210,
    "492063616e207769736820": 7211,
    "646572732c20": 7212,
    "737069": 7213,
    "210a4966206576657220": 7214,
    "210a4966206576657220686520": 7215,
    "210a49662065766572206865206861766520": 7216,
    "61626f72": 7217,
    "657261626c6520": 7218,
    "436865727473657920": 7219,
    "2e0a0a4c41445920414e4e453a0a5768617420": 7220,
    "6465766f": 7221,
    "6465766f74656420": 7222,
    "56696c6c": 7223,
    "56696c6c61696e": 7224,
    "2074686520636f727365": 7225,
    "2c206279205361696e74205061756c": 7226,
    "636f6666": 7227,
    "737472696b65207468656520": 7228,
    "7472656d626c65": 7229,
    "3b207468657265666f726520": 7230,
    "696e742c20": 7231,
    "476f642773207361": 7232,
    "476f6427732073616b652c20": 7233,
    "732e0a": 7234,
    "6275746368657269": 7235,
    "65616c276420": 7236,
    "426c757368": 7237,
    "65786861": 7238,
    "2e0a4f20476f642c20": 7239,
    "7768696368207468697320": 7240,
    "7768696368207468697320626c6f6f6420": 7241,
    "726576656e67652068697320": 7242,
    "726576656e676520686973206465617468": 7243,
    "210a4f20": 7244,
    "65617274682c20": 7245,
    "796f75206b6e6f7720": 7246,
    "63686172697479": 7247,
    "676f6f6420666f7220": 7248,
    "626c657373": 7249,
    "6f75636820": 7250,
    "66756c2c207768656e20": 7251,
    "616e67656c": 7252,
    "566f756368736166652c20": 7253,
    "746f2067697665206d6520": 7254,
    "746f2067697665206d65206c65617665": 7255,
    "746f2067697665206d65206c656176652c0a427920": 7256,
    "746f2067697665206d65206c656176652c0a42792063": 7257,
    "746f2067697665206d65206c656176652c0a427920636972": 7258,
    "746f2067697665206d65206c656176652c0a42792063697263": 7259,
    "746f2067697665206d65206c656176652c0a42792063697263756d": 7260,
    "746f2067697665206d65206c656176652c0a42792063697263756d7374616e6365": 7261,
    "2c2062757420746f20": 7262,
    "6572207468616e20": 7263,
    "6c656973": 7264,
    "6c65697375726520": 7265,
    "63757365206d7973656c662e0a0a4c41445920414e4e453a0a": 7266,
    "63757272": 7267,
    "63757272656e74": 7268,
    "6465737061": 7269,
    "736c6577": 7270,
    "3f0a0a4c41445920414e4e453a0a": 7271,
    "2e0a0a4c41445920414e4e453a0a5768792c20": 7272,
    "74686f75206c69657374": 7273,
    "4d6172676172657420": 7274,
    "742e0a0a474c4f554345535445523a0a": 7275,
    "70726f766f6b656420627920": 7276,
    "75706f6e206d7920": 7277,
    "2e0a0a4c41445920414e4e453a0a54": 7278,
    "70726f766f6b656420": 7279,
    "446964": 7280,
    "686f67": 7281,
    "64616d6e": 7282,
    "64616d6e656420": 7283,
    "66697474657220": 7284,
    "736f2e0a0a474c4f554345535445523a0a": 7285,
    "74686f": 7286,
    "7468652063617573": 7287,
    "506c616e": 7288,
    "506c616e7461": 7289,
    "506c616e746167656e": 7290,
    "506c616e746167656e6574": 7291,
    "48656e727920": 7292,
    "657865637574696f6e6572": 7293,
    "65666665": 7294,
    "656666656374": 7295,
    "626561757479": 7296,
    "756e7420": 7297,
    "2c0a536f204920": 7298,
    "746861742c204920": 7299,
    "732e0a0a474c4f554345535445523a0a": 7300,
    "636f756c64206e6576657220": 7301,
    "7265636b": 7302,
    "616c6c2074686520776f726c6420": 7303,
    "6368656572": 7304,
    "736861646520": 7305,
    "2e0a0a4c41445920414e4e453a0a4920776f756c6420": 7306,
    "4974206973206120": 7307,
    "2c0a546f20626520726576656e67656420": 7308,
    "2c0a546f20626520726576656e676564206f6e2068696d": 7309,
    "2c0a546f20626520726576656e676564206f6e2068696d207468617420": 7310,
    "746820796f75": 7311,
    "6a75737420": 7312,
    "68656c70207468656520": 7313,
    "6272656174686520": 7314,
    "2e0a0a474c4f554345535445523a0a54686520": 7315,
    "4e6576657220": 7316,
    "706f69736f6e20": 7317,
    "746f6164": 7318,
    "212074686f7520": 7319,
    "2c0a536861": 7320,
    "72656d6f72": 7321,
    "596f726b20616e6420": 7322,
    "527574": 7323,
    "666f726420": 7324,
    "6661746865722c20": 7325,
    "7374616e646572": 7326,
    "77657420": 7327,
    "64617368": 7328,
    "657965732064696420": 7329,
    "2073636f726e": 7330,
    "636f6e74656d7074": 7331,
    "61646f72": 7332,
    "6e616b656420": 7333,
    "2e0a4e61792c20": 7334,
    "2c0a42757420277477617320": 7335,
    "2c0a4275742027747761732074687920": 7336,
    "3b20277477617320": 7337,
    "7374616262276420": 7338,
    "2e0a0a474c4f554345535445523a0a5468656e20": 7339,
    "6c6f76652c20": 7340,
    "6520746f20": 7341,
    "20746869732072": 7342,
    "68617070696e": 7343,
    "68617070696e65737320": 7344,
    "746f2062652061206d": 7345,
    "72657061697220746f20": 7346,
    "72657061697220746f2043": 7347,
    "72657061697220746f2043726f73": 7348,
    "72657061697220746f2043726f73627920": 7349,
    "72657061697220746f2043726f73627920506c61": 7350,
    "726570656e74": 7351,
    "72616e7420": 7352,
    "6e6f626c65206c6f7264": 7353,
    "6576657220776f6d": 7354,
    "6576657220776f6d616e20": 7355,
    "6576657220776f6d616e20696e207468697320": 7356,
    "6576657220776f6d616e20696e20746869732068756d": 7357,
    "6576657220776f6d616e20696e20746869732068756d6f757220": 7358,
    "696e20686572": 7359,
    "210a4861": 7360,
    "7072696e6365": 7361,
    "6174205465776b7362757279": 7362,
    "726f79616c": 7363,
    "6f66756c": 7364,
    "6f66756c20": 7365,
    "3f0a4f6e": 7366,
    "2c0a4920646f20": 7367,
    "2c0a4d7973656c6620": 7368,
    "3a0a53696e636520": 7369,
    "6d61696e": 7370,
    "6865616c7468": 7371,
    "656e7465727461696e20": 7372,
    "717569636b20": 7373,
    "3f0a0a5249564552533a0a": 7374,
    "6c6f7373206f66": 7375,
    "6c6f7373206f662073756368206120": 7376,
    "2e0a0a515545454e20454c495a4142455448": 7377,
    "64657320": 7378,
    "2e0a0a47524559": 7379,
    "747275737420": 7380,
    "6c6f766573206e6f7420": 7381,
    "6c6f766573206e6f74206d652c20": 7382,
    "6e6f6e65206f6620796f75": 7383,
    "636f6e636c75": 7384,
    "636f6e636c7564656420": 7385,
    "4275636b696e6768616d20616e6420": 7386,
    "6d79204c6f7264206f66204465726279": 7387,
    "44657262792c20": 7388,
    "617373757265": 7389,
    "656e76696f757320": 7390,
    "65616b": 7391,
    "207468652044756b65206f6620": 7392,
    "3f0a0a4255434b494e4748414d": 7393,
    "3f0a0a4255434b494e4748414d3a0a4d6164616d": 7394,
    "737065616b7320": 7395,
    "7761726e": 7396,
    "646f206d6520": 7397,
    "77726f6e672c20616e6420": 7398,
    "73696d706c6520": 7399,
    "696e73696e": 7400,
    "696e73696e75": 7401,
    "796f7572206772616365": 7402,
    "7572656420": 7403,
    "706c6167756520": 7404,
    "75706f6e20796f75": 7405,
    "2c20616e6420736f20": 7406,
    "2e0a0a474c4f554345535445523a0a492063616e6e6f7420": 7407,
    "6e656564206f6620796f75": 7408,
    "3a0a596f757220": 7409,
    "6d616e79206661697220": 7410,
    "6461797320": 7411,
    "4920656e": 7412,
    "6e657665722064696420": 7413,
    "7368616d65": 7414,
    "46616c": 7415,
    "737573": 7416,
    "4c6f72642048617374696e67": 7417,
    "2d2d0a0a474c4f554345535445523a0a": 7418,
    "21207768792c20": 7419,
    "666572": 7420,
    "6869676820": 7421,
    "576861742c206d617272792c206d617920736865": 7422,
    "4d79204c6f7264206f6620": 7423,
    "4d79204c6f7264206f6620476c6f75636573746572": 7424,
    "6269747465722073": 7425,
    "7461756e": 7426,
    "492068616420726174686572206265206120": 7427,
    "73636f726e": 7428,
    "456e676c616e64277320": 7429,
    "456e676c616e64277320717565656e": 7430,
    "2e0a0a515545454e204d415247415245543a0a416e6420": 7431,
    "2e0a0a474c4f554345535445523a0a57": 7432,
    "206d65207769746820": 7433,
    "6f6620746865206b696e67": 7434,
    "3f0a54": 7435,
    "546f7765722c0a416e6420": 7436,
    "6d696e65206f776e": 7437,
    "47726579": 7438,
    "5269766572732c20": 7439,
    "7765726520796f75": 7440,
    "2c20616e64207768617420": 7441,
    "6b696e67646f6d20": 7442,
    "6f66206974210a0a": 7443,
    "796f7520737570": 7444,
    "6b696e672c0a417320": 7445,
    "6c6974746c65206a6f7920": 7446,
    "736520696e": 7447,
    "717565656e207468657265": 7448,
    "717565656e2074686572656f66": 7449,
    "686f6c64206d6520": 7450,
    "7375626a656374": 7451,
    "796f75206465": 7452,
    "3f0a0a515545454e204d415247415245543a0a": 7453,
    "65727420": 7454,
    "6f66206465617468": 7455,
    "6b696e67646f6d": 7456,
    "746f206472": 7457,
    "66616c6c276e20": 7458,
    "696e6e6f": 7459,
    "696e6e6f63656e74": 7460,
    "2e0a0a48415354494e47533a0a": 7461,
    "524956455253": 7462,
    "2e0a0a444f525345543a0a": 7463,
    "666f72206974": 7464,
    "5072696e6365206f6620": 7465,
    "5072696e6365206f662057": 7466,
    "5072696e6365206f662057616c": 7467,
    "5072696e6365206f662057616c6573": 7468,
    "2c0a44696520": 7469,
    "6c656e67": 7470,
    "6c656e677468656e": 7471,
    "6c656e677468656e276420": 7472,
    "210a0a515545454e204d415247415245543a0a": 7473,
    "2c0a4f2c20": 7474,
    "74726169746f727320": 7475,
    "746f726d656e74": 7476,
    "73210a54686f7520": 7477,
    "210a54686f75": 7478,
    "7468656420": 7479,
    "2e0a0a474c4f554345535445523a0a4920": 7480,
    "74686f7520686164737420": 7481,
    "61626f7574": 7482,
    "2074686f752077": 7483,
    "6a75646765": 7484,
    "27747765726520746f20": 7485,
    "6c656172": 7486,
    "6c6561726e20": 7487,
    "6c6561726e2069742c20": 7488,
    "6165727920": 7489,
    "61657279206275696c": 7490,
    "61657279206275696c6465": 7491,
    "61657279206275696c6465746820": 7492,
    "62726967687420": 7493,
    "6e6f742062656c696576652062757420": 7494,
    "6269746573": 7495,
    "207468656d207468617420": 7496,
    "43687269737469": 7497,
    "436c6172656e636520697320": 7498,
    "68656172747320746f20": 7499,
    "2e0a0a4669727374204d757264657265723a0a54": 7500,
    "657965732064726f70": 7501,
    "73746f6e": 7502,
    "73746f6e65732c20": 7503,
    "77696c6c2c20": 7504,
    "796f757220677261636520": 7505,
    "3f0a0a434c4152454e43453a0a4f2c20": 7506,
    "2c0a536f2066756c6c206f6620": 7507,
    "20776f726c64206f6620": 7508,
    "20796f752074656c6c20": 7509,
    "20796f752074656c6c206974": 7510,
    "757267": 7511,
    "0a55706f6e2074686520": 7512,
    "68617463686573": 7513,
    "20612074686f7573616e6420": 7514,
    "74686f756768742c20": 7515,
    "647265616466756c20": 7516,
    "696e206d696e6520": 7517,
    "6574686f75676874204920": 7518,
    "73636174746572": 7519,
    "492073747269": 7520,
    "77616e646572": 7521,
    "616c6f75": 7522,
    "7065726a": 7523,
    "2061667261": 7524,
    "65766964656e636520": 7525,
    "6f6e206d7920": 7526,
    "492070726179": 7527,
    "49207072617920746865652c20": 7528,
    "7468656972207469": 7529,
    "2e0a0a4669727374204d757264657265723a0a48": 7530,
    "496e20476f64277320": 7531,
    "796f7520686974686572": 7532,
    "6974206973206120": 7533,
    "7368616c6c20776520": 7534,
    "68652077696c6c2073617920": 7535,
    "2e0a0a5365636f6e64204d757264657265723a0a5768": 7536,
    "206d652e0a0a4669727374204d757264657265723a0a": 7537,
    "6e6f773f0a0a5365636f6e64204d757264657265723a0a": 7538,
    "275a": 7539,
    "275a6f756e": 7540,
    "275a6f756e64732c20": 7541,
    "74687920636f6e736369656e636520": 7542,
    "707572736520": 7543,
    "64616e6765726f7573207468696e67": 7544,
    "3a2069740a": 7545,
    "6d616e207468617420": 7546,
    "6c6976650a": 7547,
    "6f7020": 7548,
    "6b696e672e0a0a434c4152454e43453a0a": 7549,
    "2e0a0a5365636f6e64204d757264657265723a0a416e6420": 7550,
    "4949": 7551,
    "4348": 7552,
    "415244": 7553,
    "4b49": 7554,
    "4b494e47": 7555,
    "4b494e4720": 7556,
    "41524420": 7557,
    "4b494e47205249": 7558,
    "4b494e472052494348": 7559,
    "4b494e47205249434841524420": 7560,
    "4b494e472052494348415244204949": 7561,
[...]
