{
    "[PAD]": 0,
    "[BOS]": 1,
    "[EOS]": 2,
    "00": 3,
    "01": 4,
    "02": 5,
    "03": 6,
    "04": 7,
    "05": 8,
    "06": 9,
    "07": 10,
    "08": 11,
    "09": 12,
    "0a": 13,
    "0b": 14,
    "0c": 15,
    "0d": 16,
    "0e": 17,
    "0f": 18,
    "10": 19,
    "11": 20,
    "12": 21,
    "13": 22,
    "14": 23,
    "15": 24,
    "16": 25,
    "17": 26,
    "18": 27,
    "19": 28,
    "1a": 29,
    "1b": 30,
    "1c": 31,
    "1d": 32,
    "1e": 33,
    "1f": 34,
    "20": 35,
    "21": 36,
    "22": 37,
    "23": 38,
    "24": 39,
    "25": 40,
    "26": 41,
    "27": 42,
    "28": 43,
    "29": 44,
    "2a": 45,
    "2b": 46,
    "2c": 47,
    "2d": 48,
    "2e": 49,
    "2f": 50,
    "30": 51,
    "31": 52,
    "32": 53,
    "33": 54,
    "34": 55,
    "35": 56,
    "36": 57,
    "37": 58,
    "38": 59,
    "39": 60,
    "3a": 61,
    "3b": 62,
    "3c": 63,
    "3d": 64,
    "3e": 65,
    "3f": 66,
    "40": 67,
    "41": 68,
    "42": 69,
    "43": 70,
    "44": 71,
    "45": 72,
    "46": 73,
    "47": 74,
    "48": 75,
    "49": 76,
    "4a": 77,
    "4b": 78,
    "4c": 79,
    "4d": 80,
    "4e": 81,
    "4f": 82,
    "50": 83,
    "51": 84,
    "52": 85,
    "53": 86,
    "54": 87,
    "55": 88,
    "56": 89,
    "57": 90,
    "58": 91,
    "59": 92,
    "5a": 93,
    "5b": 94,
    "5c": 95,
    "5d": 96,
    "5e": 97,
    "5f": 98,
    "60": 99,
    "61": 100,
    "62": 101,
    "63": 102,
    "64": 103,
    "65": 104,
    "66": 105,
    "67": 106,
    "68": 107,
    "69": 108,
    "6a": 109,
    "6b": 110,
    "6c": 111,
    "6d": 112,
    "6e": 113,
    "6f": 114,
    "70": 115,
    "71": 116,
    "72": 117,
    "73": 118,
    "74": 119,
    "75": 120,
    "76": 121,
    "77": 122,
    "78": 123,
    "79": 124,
    "7a": 125,
    "7b": 126,
    "7c": 127,
    "7d": 128,
    "7e": 129,
    "7f": 130,
    "80": 131,
    "81": 132,
    "82": 133,
    "83": 134,
    "84": 135,
    "85": 136,
    "86": 137,
    "87": 138,
    "88": 139,
    "89": 140,
    "8a": 141,
    "8b": 142,
    "8c": 143,
    "8d": 144,
    "8e": 145,
    "8f": 146,
    "90": 147,
    "91": 148,
    "92": 149,
    "93": 150,
    "94": 151,
    "95": 152,
    "96": 153,
    "97": 154,
    "98": 155,
    "99": 156,
    "9a": 157,
    "9b": 158,
    "9c": 159,
    "9d": 160,
    "9e": 161,
    "9f": 162,
    "a0": 163,
    "a1": 164,
    "a2": 165,
    "a3": 166,
    "a4": 167,
    "a5": 168,
    "a6": 169,
    "a7": 170,
    "a8": 171,
    "a9": 172,
    "aa": 173,
    "ab": 174,
    "ac": 175,
    "ad": 176,
    "ae": 177,
    "af": 178,
    "b0": 179,
    "b1": 180,
    "b2": 181,
    "b3": 182,
    "b4": 183,
    "b5": 184,
    "b6": 185,
    "b7": 186,
    "b8": 187,
    "b9": 188,
    "ba": 189,
    "bb": 190,
    "bc": 191,
    "bd": 192,
    "be": 193,
    "bf": 194,
    "c0": 195,
    "c1": 196,
    "c2": 197,
    "c3": 198,
    "c4": 199,
    "c5": 200,
    "c6": 201,
    "c7": 202,
    "c8": 203,
    "c9": 204,
    "ca": 205,
    "cb": 206,
    "cc": 207,
    "cd": 208,
    "ce": 209,
    "cf": 210,
    "d0": 211,
    "d1": 212,
    "d2": 213,
    "d3": 214,
    "d4": 215,
    "d5": 216,
    "d6": 217,
    "d7": 218,
    "d8": 219,
    "d9": 220,
    "da": 221,
    "db": 222,
    "dc": 223,
    "dd": 224,
    "de": 225,
    "df": 226,
    "e0": 227,
    "e1": 228,
    "e2": 229,
    "e3": 230,
    "e4": 231,
    "e5": 232,
    "e6": 233,
    "e7": 234,
    "e8": 235,
    "e9": 236,
    "ea": 237,
    "eb": 238,
    "ec": 239,
    "ed": 240,
    "ee": 241,
    "ef": 242,
    "f0": 243,
    "f1": 244,
    "f2": 245,
    "f3": 246,
    "f4": 247,
    "f5": 248,
    "f6": 249,
    "f7": 250,
    "f8": 251,
    "f9": 252,
    "fa": 253,
    "fb": 254,
    "fc": 255,
    "fd": 256,
    "fe": 257,
    "ff": 258,
    "2074": 259,
    "6865": 260,
    "2061": 261,
    "696e": 262,
    "20746865": 263,
    "6572": 264,
    "6f6e": 265,
    "202c": 266,
    "6564": 267,
    "6f72": 268,
    "2077": 269,
    "2073": 270,
    "656e": 271,
    "6573": 272,
    "202e": 273,
    "6974": 274,
    "206f": 275,
    "6174": 276,
    "2066": 277,
    "616c": 278,
    "6e64": 279,
    "6172": 280,
    "2070": 281,
    "2063": 282,
    "696e67": 283,
    "7265": 284,
    "206f66": 285,
    "6173": 286,
    "2062": 287,
    "20696e": 288,
    "6973": 289,
    "616e": 290,
    "20616e64": 291,
    "200a": 292,
    "20746f": 293,
    "206d": 294,
    "6963": 295,
    "2064": 296,
    "726f": 297,
    "2054": 298,
    "696f6e": 299,
    "616d": 300,
    "203d": 301,
    "2043": 302,
    "6163": 303,
    "2031": 304,
    "6c65": 305,
    "6f75": 306,
    "2041": 307,
    "696c": 308,
    "2053": 309,
    "2068": 310,
    "7374": 311,
    "2067": 312,
    "2042": 313,
    "207265": 314,
    "656e74": 315,
    "20776173": 316,
    "207468": 317,
    "656c": 318,
    "20546865": 319,
    "6f74": 320,
    "6972": 321,
    "20666f72": 322,
    "206e": 323,
    "6164": 324,
    "2040": 325,
    "7572": 326,
    "6f6d": 327,
    "6574": 328,
    "6179": 329,
    "206c": 330,
    "204d": 331,
    "697468": 332,
    "6f6c": 333,
    "6563": 334,
    "207374": 335,
    "2052": 336,
    "2049": 337,
    "2077697468": 338,
    "2027": 339,
    "6f77": 340,
    "7573": 341,
    "746572": 342,
    "2046": 343,
    "7269": 344,
    "20402d": 345,
    "20402d40": 346,
    "203139": 347,
    "6174696f6e": 348,
    "2065": 349,
    "2050": 350,
    "6c79": 351,
    "2022": 352,
    "200a200a": 353,
    "756d": 354,
    "2047": 355,
    "206265": 356,
    "202773": 357,
    "206f6e": 358,
    "6f63": 359,
    "204c": 360,
    "206173": 361,
    "6976": 362,
    "696d": 363,
    "616d65": 364,
    "2057": 365,
    "204e": 366,
    "7574": 367,
    "2032": 368,
    "756e": 369,
    "61636b": 370,
    "6170": 371,
    "2048": 372,
    "61696e": 373,
    "6368": 374,
    "686572": 375,
    "697374": 376,
    "6365": 377,
    "20616e": 378,
    "204a": 379,
    "6967": 380,
    "206279": 381,
    "2074686174": 382,
    "2044": 383,
    "206174": 384,
    "656d": 385,
    "6964": 386,
    "20706c": 387,
    "657273": 388,
    "7468": 389,
    "203b": 390,
    "657265": 391,
    "616c6c": 392,
    "6f73": 393,
    "6c75": 394,
    "2077657265": 395,
    "20616c": 396,
    "20636f6e": 397,
    "2056": 398,
    "696573": 399,
    "204368": 400,
    "206974": 401,
    "207768": 402,
    "766572": 403,
    "206368": 404,
    "6f70": 405,
    "204172": 406,
    "206f72": 407,
    "2067616d65": 408,
    "6f636b": 409,
    "726f6d": 410,
    "207365": 411,
    "2028": 412,
    "2029": 413,
    "616b": 414,
    "756e64": 415,
    "746564": 416,
    "6c64": 417,
    "7175": 418,
    "206465": 419,
    "696c64": 420,
    "206973": 421,
    "20e2": 422,
    "20e280": 423,
    "656e64": 424,
    "756c": 425,
    "2066726f6d": 426,
    "20636f6d": 427,
    "61726b": 428,
    "205374": 429,
    "61746564": 430,
    "656172": 431,
    "726573": 432,
    "6966": 433,
    "206172": 434,
    "697474": 435,
    "6162": 436,
    "617274": 437,
    "6374": 438,
    "6765": 439,
    "207375": 440,
    "2070726f": 441,
    "20686164": 442,
    "726f6e": 443,
    "6c6573": 444,
    "20706c6179": 445,
    "6f7573": 446,
    "207465": 447,
    "617465": 448,
    "657374": 449,
    "20e28093": 450,
    "616c6b": 451,
    "203230": 452,
    "617279": 453,
    "616e73": 454,
    "2056616c6b": 455,
    "2056616c6b79": 456,
    "6f7279": 457,
    "61736f6e": 458,
    "204f": 459,
    "2056616c6b797269": 460,
    "6961": 461,
    "69616c": 462,
    "616e64": 463,
    "6974696f6e": 464,
    "7665": 465,
    "7473": 466,
    "6f776572": 467,
    "6965": 468,
    "6f7264": 469,
    "2045": 470,
    "207370": 471,
    "6f726b": 472,
    "206865": 473,
    "2056616c6b79726961": 474,
    "2079": 475,
    "6768": 476,
    "756d62": 477,
    "20496e": 478,
    "7261": 479,
    "6f7374": 480,
    "69616e": 481,
    "616972": 482,
    "657373": 483,
    "657276": 484,
    "617264": 485,
    "207465616d": 486,
    "696368": 487,
    "6974746c65": 488,
    "204c6974746c65": 489,
    "20436f6c": 490,
    "20666972": 491,
    "206578": 492,
    "206e6f74": 493,
    "656e616c": 494,
    "20756e": 495,
    "207368": 496,
    "20426c75": 497,
    "75696c64": 498,
    "203138": 499,
    "206e65": 500,
    "7070": 501,
    "20526f636b": 502,
    "657473": 503,
    "2076": 504,
    "206669727374": 505,
    "7572696e67": 506,
    "207472": 507,
    "61726b6572": 508,
    "69676e": 509,
    "697479": 510,
    "686564": 511,
    "6d656e74": 512,
    "6666": 513,
    "204a61636b": 514,
    "204261726b6572": 515,
    "203a": 516,
    "6f6e67": 517,
    "207468656d": 518,
    "20426c7565": 519,
    "73656e616c": 520,
    "6f756c64": 521,
    "20686973": 522,
    "737472": 523,
    "75696c64696e67": 524,
    "204a61636b657473": 525,
    "2072": 526,
    "697665": 527,
    "7565": 528,
    "207468656972": 529,
    "20726563": 530,
    "20436f6c756d62": 531,
    "69636c6573": 532,
    "6c61636b": 533,
    "20666f75": 534,
    "7570": 535,
    "69636b": 536,
    "20736561736f6e": 537,
    "2033": 538,
    "20323031": 539,
    "6f7265": 540,
    "2079656172": 541,
    "6f64": 542,
    "696c6c": 543,
    "6f7574": 544,
    "20686572": 545,
    "3030": 546,
    "204368726f6e": 547,
    "204368726f6e69636c6573": 548,
    "20617265": 549,
    "736f": 550,
    "20646573": 551,
    "656c79": 552,
    "776f": 553,
    "20676f": 554,
    "20313932": 555,
    "20436f6c756d627573": 556,
    "6f6b": 557,
    "207768696368": 558,
    "616465": 559,
    "20616c736f": 560,
    "20636f6e74": 561,
    "616d6573": 562,
    "696d65": 563,
    "20697473": 564,
    "2034": 565,
    "204b": 566,
    "20726f": 567,
    "6f6e64": 568,
    "20776f726b": 569,
    "2063686172": 570,
    "696e65": 571,
    "2041726b": 572,
    "2055": 573,
    "20636f6d70": 574,
    "696f7573": 575,
    "6f76": 576,
    "616368": 577,
    "2074776f": 578,
    "20636c": 579,
    "6167": 580,
    "20426c61636b": 581,
    "696465": 582,
    "6f7274": 583,
    "6163746572": 584,
    "73696f6e": 585,
    "6c6f77": 586,
    "206167": 587,
    "6970": 588,
    "7365": 589,
    "616e74": 590,
    "7563": 591,
    "20426c61636b6965": 592,
    "20647572696e67": 593,
    "656d62": 594,
    "696e616c": 595,
    "20627574": 596,
    "207265636f7264": 597,
    "6f67": 598,
    "656e7473": 599,
    "20746f77": 600,
    "696e6773": 601,
    "726564": 602,
    "706c": 603,
    "6174696f6e73": 604,
    "7074": 605,
    "756768": 606,
    "6f6d65": 607,
    "616e6365": 608,
    "6f696e": 609,
    "206c65": 610,
    "207570": 611,
    "696e64": 612,
    "2041726b616e73": 613,
    "2046616972": 614,
    "204949": 615,
    "616374": 616,
    "757374": 617,
    "6f7468": 618,
    "20707265": 619,
    "20696e74": 620,
    "757265": 621,
    "656374": 622,
    "2072656d": 623,
    "6273": 624,
    "2035": 625,
    "2041726b616e736173": 626,
    "76656c": 627,
    "6f726d": 628,
    "696c65": 629,
    "6f6f6b": 630,
    "696b": 631,
    "20636861726163746572": 632,
    "7562": 633,
    "206b": 634,
    "2074686973": 635,
    "617374": 636,
    "204865": 637,
    "61626c65": 638,
    "2077686f": 639,
    "20706572": 640,
    "20736563": 641,
    "20756e64": 642,
    "204974": 643,
    "20776f756c64": 644,
    "2067616d6573": 645,
    "2074686579": 646,
    "206f6666": 647,
    "617665": 648,
    "6c6973": 649,
    "6f756e": 650,
    "206f7264": 651,
    "206162": 652,
    "6e696e67": 653,
    "20676f616c": 654,
    "6176": 655,
    "7279": 656,
    "206164": 657,
    "66746572": 658,
    "697a": 659,
    "6962": 660,
    "616b65": 661,
    "207573": 662,
    "20686173": 663,
    "6374696f6e": 664,
    "696768": 665,
    "20696e63": 666,
    "205468": 667,
    "61746572": 668,
    "20666f7572": 669,
    "726179": 670,
    "206f7574": 671,
    "61736564": 672,
    "2074696d65": 673,
    "206f766572": 674,
    "20756e646572": 675,
    "2064657369676e": 676,
    "207363": 677,
    "206f6e65": 678,
    "206163": 679,
    "206265656e": 680,
    "7275": 681,
    "697465": 682,
    "20546f776572": 683,
    "20746f776572": 684,
    "20402e": 685,
    "20402e40": 686,
    "6273657276": 687,
    "6963616c": 688,
    "76656c6f70": 689,
    "206e6577": 690,
    "726f756768": 691,
    "74686572": 692,
    "20416c": 693,
    "2073706563": 694,
    "726f756e64": 695,
    "726565": 696,
    "6572616c": 697,
    "20466c": 698,
    "20402c": 699,
    "20402c40": 700,
    "206275696c64696e67": 701,
    "6f6f74": 702,
    "2053742e": 703,
    "484c": 704,
    "e381": 705,
    "205265": 706,
    "6f7273": 707,
    "75726e": 708,
    "697265": 709,
    "20776865": 710,
    "696374": 711,
    "6f6c64": 712,
    "61736b": 713,
    "20636f6e73": 714,
    "20466c6f776572": 715,
    "20417273656e616c": 716,
    "2077696e": 717,
    "206f6273657276": 718,
    "746f6e": 719,
    "6f6d656e": 720,
    "6174696f6e616c": 721,
    "20636f6d6d": 722,
    "20646576656c6f70": 723,
    "20736572": 724,
    "696c6974": 725,
    "706572": 726,
    "67616e": 727,
    "20636172": 728,
    "20696e746f": 729,
    "206f6e6c79": 730,
    "20617373": 731,
    "656e73": 732,
    "20706f696e": 733,
    "616765": 734,
    "20726570": 735,
    "204c65": 736,
    "20313934": 737,
    "20313836": 738,
    "20477265": 739,
    "20536865": 740,
    "616d62": 741,
    "204e484c": 742,
    "206d616e": 743,
    "697365": 744,
    "2070617274": 745,
    "20726573": 746,
    "616365": 747,
    "65726564": 748,
    "2061726d": 749,
    "61726473": 750,
    "207365636f6e64": 751,
    "20707562": 752,
    "20617274": 753,
    "6674": 754,
    "20617273656e616c": 755,
    "20666c": 756,
    "6f6369": 757,
    "2046616972696573": 758,
    "206d61736b": 759,
    "206e6f": 760,
    "6c6564": 761,
    "2072656c65": 762,
    "697373696f6e": 763,
    "206f74686572": 764,
    "6174696e67": 765,
    "207468616e": 766,
    "6f756768": 767,
    "69746564": 768,
    "2072656d61696e": 769,
    "6f6e73": 770,
    "656e6365": 771,
    "757365": 772,
    "696365": 773,
    "617074": 774,
    "2047616d62": 775,
    "20556e": 776,
    "69656c": 777,
    "20736572696573": 778,
    "6f79": 779,
    "666f726d": 780,
    "20616761696e": 781,
    "2073756368": 782,
    "2070726576": 783,
    "20706f73": 784,
    "72616e": 785,
    "20617070": 786,
    "20617474": 787,
    "207765": 788,
    "6f7474": 789,
    "726f79": 790,
    "206a": 791,
    "7765": 792,
    "20616d": 793,
    "206d616465": 794,
    "2037": 795,
    "656e63": 796,
    "6c6973686564": 797,
    "656c6c": 798,
    "20313931": 799,
    "2047616d626961": 800,
    "617474": 801,
    "205365": 802,
    "20726574": 803,
    "207468726f756768": 804,
    "2068617665": 805,
    "726f6f70": 806,
    "617373": 807,
    "756c6172": 808,
    "696564": 809,
    "206c6f73": 810,
    "20616c6c": 811,
    "20636f6e74696e": 812,
    "6c6f77696e67": 813,
    "617068": 814,
    "617368": 815,
    "6976656c79": 816,
    "204275696c64696e67": 817,
    "207374617274": 818,
    "20736d": 819,
    "61746f7279": 820,
    "20776f6d656e": 821,
    "206d61736b726179": 822,
    "e382": 823,
    "20506c": 824,
    "2032303131": 825,
    "6f6e65": 826,
    "2070726576696f7573": 827,
    "617365": 828,
    "69766564": 829,
    "656d626572": 830,
    "206f726967": 831,
    "206f726967696e616c": 832,
    "7479": 833,
    "206265696e67": 834,
    "696d70": 835,
    "207468726565": 836,
    "206576": 837,
    "6f7065": 838,
    "207175": 839,
    "6172746572": 840,
    "7665726e": 841,
    "6963616e": 842,
    "65746572": 843,
    "7068": 844,
    "2036": 845,
    "72656e": 846,
    "646f6e": 847,
    "72697374": 848,
    "6f6f7462": 849,
    "6f6f7462616c6c": 850,
    "e383": 851,
    "666572": 852,
    "20616761696e7374": 853,
    "206d6f7265": 854,
    "6177": 855,
    "2072656365": 856,
    "697473": 857,
    "20706c61796572": 858,
    "75616c": 859,
    "207768656e": 860,
    "617973": 861,
    "726f6f7073": 862,
    "206d65": 863,
    "6f6c6c6f77696e67": 864,
    "20436f6e": 865,
    "206166746572": 866,
    "2066696e": 867,
    "2061626f7574": 868,
    "20416e": 869,
    "20696e737472": 870,
    "61696c": 871,
    "20626574": 872,
    "204665": 873,
    "756564": 874,
    "20696e636c75": 875,
    "20696e636c7564": 876,
    "61746573": 877,
    "20416c6c": 878,
    "20647261": 879,
    "20313933": 880,
    "696c6472656e": 881,
    "20436872697374": 882,
    "207472616465": 883,
    "7265616b": 884,
    "20494949": 885,
    "6174746c65": 886,
    "697264": 887,
    "206d696c6974": 888,
    "20646576656c6f706d656e74": 889,
    "6f776e": 890,
    "206672616e": 891,
    "206672616e6368": 892,
    "206672616e6368697365": 893,
    "204173": 894,
    "2063616e": 895,
    "206d61696e": 896,
    "20616464": 897,
    "6f7665": 898,
    "20626563": 899,
    "206d6f7374": 900,
    "20696e746572": 901,
    "697368": 902,
    "20636f6c": 903,
    "20706c61796564": 904,
    "6f7572": 905,
    "206265747765": 906,
    "206265747765656e": 907,
    "6f68": 908,
    "72696e67": 909,
    "6d6572": 910,
    "204175": 911,
    "757365756d": 912,
    "20476f": 913,
    "6978": 914,
    "6579": 915,
    "20646973": 916,
    "2074726f6f7073": 917,
    "20736d616c6c": 918,
    "207468697264": 919,
    "2073746f7279": 920,
    "2073657276": 921,
    "2047616c6c": 922,
    "20576172": 923,
    "20626567616e": 924,
    "20626f7468": 925,
    "206d697373696f6e": 926,
    "20656e": 927,
    "696b65": 928,
    "20666f756e64": 929,
    "20696d70": 930,
    "2077656170": 931,
    "20656172": 932,
    "69676874": 933,
    "20656e64": 934,
    "666f7265": 935,
    "20696e737472756d": 936,
    "204564": 937,
    "75726564": 938,
    "74656e64": 939,
    "75726368": 940,
    "6973746f7279": 941,
    "20323030": 942,
    "207965617273": 943,
    "6f726e": 944,
    "207369676e": 945,
    "6973746572": 946,
    "207061696e": 947,
    "2043726f79": 948,
    "2043726f79646f6e": 949,
    "20426f6f6b": 950,
    "20666f6f7462616c6c": 951,
    "2073706563696573": 952,
    "204e617368": 953,
    "4949": 954,
    "6973696f6e": 955,
    "20506c6179": 956,
    "706c6179": 957,
    "204e616d": 958,
    "206665": 959,
    "20616c6f6e67": 960,
    "207772": 961,
    "207468656d65": 962,
    "616c6573": 963,
    "20657870": 964,
    "7874": 965,
    "20736f6d65": 966,
    "206d696e": 967,
    "20706f696e7473": 968,
    "20736b": 969,
    "2075736564": 970,
    "205370": 971,
    "207768696c65": 972,
    "616e63": 973,
    "616e67": 974,
    "2068696d": 975,
    "20776172": 976,
    "20706f7374": 977,
    "656e6572616c": 978,
    "20647565": 979,
    "696577": 980,
    "20737461746564": 981,
    "2059": 982,
    "72617068": 983,
    "20636f756c64": 984,
    "206c61746572": 985,
    "207269": 986,
    "75696c": 987,
    "75696c74": 988,
    "303030": 989,
    "20737572": 990,
    "203132": 991,
    "61626f72": 992,
    "6f63696574": 993,
    "20736865": 994,
    "206261636b": 995,
    "69656c64": 996,
    "2073616d65": 997,
    "204e616d656c": 998,
    "204e616d656c657373": 999,
    "206d696c6974617279": 1000,
    "2043616c": 1001,
    "205768": 1002,
    "6d656e7473": 1003,
    "69736564": 1004,
    "2063686172616374657273": 1005,
    "72657373": 1006,
    "6363": 1007,
    "69666963": 1008,
    "20656c65": 1009,
    "20447572696e67": 1010,
    "206d6f76": 1011,
    "2063616c6c": 1012,
    "74696e67": 1013,
    "776e": 1014,
    "20696e76": 1015,
    "205368": 1016,
    "637573": 1017,
    "20736f6c64": 1018,
    "20776f726b73": 1019,
    "706f73": 1020,
    "616a": 1021,
    "796d": 1022,
    "20666f6c6c6f77696e67": 1023,
    "207468656e": 1024,
    "6f756e74": 1025,
    "6f726c64": 1026,
    "2070726f64": 1027,
    "6563746564": 1028,
    "206265666f7265": 1029,
    "726963": 1030,
    "20466562": 1031,
    "204665627275": 1032,
    "204665627275617279": 1033,
    "2032303132": 1034,
    "203135": 1035,
    "656e746572": 1036,
    "202d": 1037,
    "736f6e": 1038,
    "204d6163": 1039,
    "6c7562": 1040,
    "204a6f68": 1041,
    "20303030": 1042,
    "7564": 1043,
    "206275696c74": 1044,
    "756e6974696f6e": 1045,
    "6e616e6365": 1046,
    "2063616c": 1047,
    "6f74686572": 1048,
    "616e66": 1049,
    "3073": 1050,
    "20736973746572": 1051,
    "696c79": 1052,
    "6f6369657479": 1053,
    "726577": 1054,
    "6f6c6f67": 1055,
    "207069636b": 1056,
    "206f627365727661746f7279": 1057,
    "73696465": 1058,
    "616b696e67": 1059,
    "2072657475726e": 1060,
    "2064697265": 1061,
    "70656e": 1062,
    "206d6574": 1063,
    "7465726e": 1064,
    "207265636569766564": 1065,
    "206c6f63": 1066,
    "697a6564": 1067,
    "2072656c6561736564": 1068,
    "20706c6179657273": 1069,
    "617073": 1070,
    "20696e64": 1071,
    "20737562": 1072,
    "2072656c": 1073,
    "205468657265": 1074,
    "627574": 1075,
    "207468657265": 1076,
    "206e756d62": 1077,
    "686573": 1078,
    "73656c": 1079,
    "6b73": 1080,
    "76656e": 1081,
    "69657273": 1082,
    "206f72646572": 1083,
    "2054686973": 1084,
    "6164696e67": 1085,
    "20646563": 1086,
    "69726564": 1087,
    "207772697474": 1088,
    "207772697474656e": 1089,
    "6b69": 1090,
    "726f76": 1091,
    "20636f": 1092,
    "206e656564": 1093,
    "61636564": 1094,
    "206d7573": 1095,
    "204e65": 1096,
    "69737473": 1097,
    "2066696e616c": 1098,
    "61746368": 1099,
    "20616e6e": 1100,
    "207175616c": 1101,
    "69736d": 1102,
    "20696c": 1103,
    "20696c6c75": 1104,
    "20696c6c75737472": 1105,
    "200a200a200a": 1106,
    "74687572": 1107,
    "696e6365": 1108,
    "20313939": 1109,
    "6f757468": 1110,
    "72616374": 1111,
    "20476f7665726e": 1112,
    "20657374": 1113,
    "2030": 1114,
    "2039": 1115,
    "2061726d73": 1116,
    "2073656e74": 1117,
    "20616e79": 1118,
    "69766572": 1119,
    "2073686f74": 1120,
    "2053616e66": 1121,
    "2053616e666f7264": 1122,
    "20726f756e64": 1123,
    "20536f6369657479": 1124,
    "20486f77": 1125,
    "206e6174696f6e616c": 1126,
    "20706c61696e": 1127,
    "20636c6f636b": 1128,
    "2073747265616b": 1129,
    "206472616674": 1130,
    "204a6170": 1131,
    "204a6170616e": 1132,
    "2067616d65706c6179": 1133,
    "205768696c65": 1134,
    "61696e6564": 1135,
    "206f70656e": 1136,
    "206372": 1137,
    "204166746572": 1138,
    "206564": 1139,
    "6c6f636b": 1140,
    "797374": 1141,
    "2070657273": 1142,
    "2061726f756e64": 1143,
    "20616374": 1144,
    "2064697374": 1145,
    "69646564": 1146,
    "726964": 1147,
    "617267": 1148,
    "6f726564": 1149,
    "206561726c79": 1150,
    "206f66666963": 1151,
    "206d616b65": 1152,
    "204f6e": 1153,
    "20646566": 1154,
    "6163686564": 1155,
    "20636f6d6d616e64": 1156,
    "20686f7573": 1157,
    "616a6f72": 1158,
    "2073756666": 1159,
    "6174686572": 1160,
    "65766572": 1161,
    "206c697374": 1162,
    "2062657374": 1163,
    "696f": 1164,
    "2070726f647563": 1165,
    "6c6963": 1166,
    "696f6e73": 1167,
    "20636f6e74696e756564": 1168,
    "6d616e": 1169,
    "2058": 1170,
    "204d757365756d": 1171,
    "20696e7374": 1172,
    "72616c": 1173,
    "706564": 1174,
    "207374617465": 1175,
    "65646572616c": 1176,
    "20556e69746564": 1177,
    "657373696f6e": 1178,
    "2072756d": 1179,
    "656e646564": 1180,
    "63757373696f6e": 1181,
    "204d31": 1182,
    "204d3138": 1183,
    "697373": 1184,
    "6f7269616e": 1185,
    "2046726564": 1186,
    "2066616d": 1187,
    "757279": 1188,
    "207068": 1189,
    "207075626c6973686564": 1190,
    "2031393233": 1191,
    "20636f6d706574": 1192,
    "20313935": 1193,
    "20596f726b": 1194,
    "204649": 1195,
    "20464946": 1196,
    "2046494641": 1197,
    "203137": 1198,
    "20436172746572": 1199,
    "204d61736f6e": 1200,
    "20696e6a": 1201,
    "2047726567": 1202,
    "20566174": 1203,
    "205661746963616e": 1204,
    "20506f7065": 1205,
    "2053656e": 1206,
    "657365": 1207,
    "e381ae": 1208,
    "6669656c64": 1209,
    "20506c617953": 1210,
    "20506c61795374": 1211,
    "20506c617953746174696f6e": 1212,
    "204a616e": 1213,
    "726f70": 1214,
    "756c74": 1215,
    "72697074": 1216,
    "204d6179": 1217,
    "204e6f76": 1218,
    "204e6f76656d626572": 1219,
    "207472616e73": 1220,
    "206d697373696f6e73": 1221,
    "20626f6f6b": 1222,
    "20646570": 1223,
    "20646966": 1224,
    "20636f6d706c65": 1225,
    "206164646974696f6e": 1226,
    "756c6174696f6e": 1227,
    "20626174746c65": 1228,
    "656d656e74": 1229,
    "6175": 1230,
    "206b6e": 1231,
    "656e7469616c": 1232,
    "757274": 1233,
    "20436f6d": 1234,
    "20636c617373": 1235,
    "20456e": 1236,
    "2041726d": 1237,
    "696572": 1238,
    "20677265": 1239,
    "2057697468": 1240,
    "6f736564": 1241,
    "616c73": 1242,
    "20776561706f6e73": 1243,
    "20686f6d65": 1244,
    "20736f": 1245,
    "2070726573": 1246,
    "20756e74": 1247,
    "20756e74696c": 1248,
    "2047656e6572616c": 1249,
    "206c617374": 1250,
    "20637265": 1251,
    "206a757374": 1252,
    "204465": 1253,
    "616666": 1254,
    "20706f70": 1255,
    "2072657370": 1256,
    "617a": 1257,
    "6f62": 1258,
    "20497473": 1259,
    "206e756d626572": 1260,
    "766564": 1261,
    "20706f6c": 1262,
    "206d6f64": 1263,
    "2070726f6475636564": 1264,
    "756374696f6e": 1265,
    "20697373": 1266,
    "207075626c6963": 1267,
    "2070726f6d": 1268,
    "726f73": 1269,
    "6974696573": 1270,
    "204d616341": 1271,
    "204d61634172": 1272,
    "204d6163417274687572": 1273,
    "20313839": 1274,
    "676c": 1275,
    "20576f726c64": 1276,
    "20736978": 1277,
    "204a6f686e": 1278,
    "2063616c6c6564": 1279,
    "20617574": 1280,
    "2072756d6f7273": 1281,
    "63686564": 1282,
    "2038": 1283,
    "207369676e6564": 1284,
    "206f72646e616e6365": 1285,
    "20436f6e66": 1286,
    "20436f6e666564": 1287,
    "20436f6e6665646572": 1288,
    "20657175": 1289,
    "756e6e696e67": 1290,
    "206d6f6e": 1291,
    "206d6f6e7468": 1292,
    "203133": 1293,
    "20467265646572": 1294,
    "2046726564657269636b": 1295,
    "6f727468": 1296,
    "20686973746f7279": 1297,
    "2043687269737469616e": 1298,
    "2045646d": 1299,
    "616c6c79": 1300,
    "20313938": 1301,
    "2063617265": 1302,
    "20707269": 1303,
    "7269656e64": 1304,
    "79696e67": 1305,
    "206368696c6472656e": 1306,
    "2064697363": 1307,
    "20676f616c74656e64": 1308,
    "20676f616c74656e646572": 1309,
    "6761": 1310,
    "204a616e75": 1311,
    "204a616e75617279": 1312,
    "756e73": 1313,
    "20496d": 1314,
    "61747572": 1315,
    "617761": 1316,
    "2068616e64": 1317,
    "20706f736974": 1318,
    "696373": 1319,
    "2072656c65617365": 1320,
    "20646f776e": 1321,
    "20766172": 1322,
    "616d70": 1323,
    "71756164": 1324,
    "206d656d62": 1325,
    "206d656d62657273": 1326,
    "6f7365": 1327,
    "20656c656d656e7473": 1328,
    "206f6e6365": 1329,
    "20706572736f6e": 1330,
    "2073696e67": 1331,
    "657468": 1332,
    "61636b73": 1333,
    "2068656c": 1334,
    "2061637175": 1335,
    "206d6f7665": 1336,
    "2066697665": 1337,
    "206368616e67": 1338,
    "2047616c6c69616e": 1339,
    "2041726d79": 1340,
    "3232": 1341,
    "20446172": 1342,
    "204d6172": 1343,
    "20796f756e": 1344,
    "20796f756e67": 1345,
    "2066656c": 1346,
    "20636f6e73697374": 1347,
    "20736f6c6469657273": 1348,
    "696d6573": 1349,
    "2072616e": 1350,
    "6174656c79": 1351,
    "20656666": 1352,
    "206c6f7373": 1353,
    "20686f77": 1354,
    "2073757070": 1355,
    "207374616666": 1356,
    "2072657175": 1357,
    "6969": 1358,
    "20696d70726f76": 1359,
    "2073747275": 1360,
    "6772": 1361,
    "70697465": 1362,
    "2064657369676e6564": 1363,
    "636564": 1364,
    "20696e737472756d656e7473": 1365,
    "207365766572": 1366,
    "20736f6e67": 1367,
    "2064656d": 1368,
    "204170": 1369,
    "72696c": 1370,
    "203233": 1371,
    "6f6f72": 1372,
    "20646179": 1373,
    "203130": 1374,
    "2070726f76": 1375,
    "617468": 1376,
    "2052696368": 1377,
    "20726567": 1378,
    "20417567": 1379,
    "20417567757374": 1380,
    "20676f616c73": 1381,
    "20646964": 1382,
    "2073696e6365": 1383,
    "2068656164": 1384,
    "20c3": 1385,
    "20c386": 1386,
    "20c3867374": 1387,
    "20c38673746865": 1388,
    "20c3867374686574": 1389,
    "20c38673746865746963": 1390,
    "20436c7562": 1391,
    "2063656e74": 1392,
    "206573746162": 1393,
    "20576f726b": 1394,
    "204265": 1395,
    "20616d6d": 1396,
    "20616d6d756e6974696f6e": 1397,
    "20537461746573": 1398,
    "20417274": 1399,
    "657279": 1400,
    "2043617074": 1401,
    "20546f7474": 1402,
    "20546f7474656e": 1403,
    "205374617465": 1404,
    "617272": 1405,
    "206c6f6e67": 1406,
    "20626568": 1407,
    "20626568696e64": 1408,
    "20726570616972": 1409,
    "676573": 1410,
    "2073746172": 1411,
    "6f727473": 1412,
    "203234": 1413,
    "20666c696e": 1414,
    "20666c696e74": 1415,
    "20696e66": 1416,
    "205269766572": 1417,
    "2031383632": 1418,
    "20432e": 1419,
    "20656c": 1420,
    "696272": 1421,
    "2044756e6e696e67": 1422,
    "2044756e6e696e67746f6e": 1423,
    "20696e636c7564696e67": 1424,
    "61646564": 1425,
    "657267": 1426,
    "204d617279": 1427,
    "69726c": 1428,
    "207468656d6564": 1429,
    "20e28099": 1430,
    "20446f72": 1431,
    "20446f726f7468": 1432,
    "20446f726f746879": 1433,
    "204661697279": 1434,
    "2066616d696c79": 1435,
    "616368696e67": 1436,
    "2073747564": 1437,
    "20416e64": 1438,
    "20416e64726577": 1439,
    "20313936": 1440,
    "6e65": 1441,
    "6f6e74": 1442,
    "207175616c6966": 1443,
    "6c696e65": 1444,
    "204b696e6773": 1445,
    "20486f77736f6e": 1446,
    "206c6f73696e67": 1447,
    "20636f6e7472616374": 1448,
    "20477265676f7269616e": 1449,
    "206f62736572766174696f6e73": 1450,
    "c58d": 1451,
    "20706172": 1452,
    "20756e6974": 1453,
    "20626c61636b": 1454,
    "2032303130": 1455,
    "20486974": 1456,
    "6869": 1457,
    "20656e74": 1458,
    "616b6573": 1459,
    "20707261": 1460,
    "2063726974": 1461,
    "206c6f77": 1462,
    "207768657265": 1463,
    "6f72696573": 1464,
    "206c696b65": 1465,
    "656c73": 1466,
    "69616c6c79": 1467,
    "656368": 1468,
    "75616c6c79": 1469,
    "616e6e": 1470,
    "2065616368": 1471,
    "20756e697473": 1472,
    "2067726f": 1473,
    "206f6363": 1474,
    "2073797374": 1475,
    "2073797374656d": 1476,
    "717565": 1477,
    "2054686579": 1478,
    "205363": 1479,
    "77617264": 1480,
    "7269627574": 1481,
    "6174757265": 1482,
    "20526567": 1483,
    "6168": 1484,
    "2064657374": 1485,
    "207468657365": 1486,
    "2075": 1487,
    "696c697479": 1488,
    "65637473": 1489,
    "204174": 1490,
    "206f776e": 1491,
    "206b65": 1492,
    "20686f757365": 1493,
    "20666f726d": 1494,
    "20686f7765766572": 1495,
    "69656e74": 1496,
    "66616374": 1497,
    "6973686564": 1498,
    "20706f70756c6172": 1499,
    "68656e": 1500,
    "2064657370697465": 1501,
    "20616e696d65": 1502,
    "6a656374": 1503,
    "2074686f756768": 1504,
    "206775": 1505,
    "756e65": 1506,
    "207365766572616c": 1507,
    "20706172746963": 1508,
    "20617070656172": 1509,
    "206176": 1510,
    "20617661696c": 1511,
    "207374696c6c": 1512,
    "6f7465": 1513,
    "207072": 1514,
    "6f6666": 1515,
    "2068696768": 1516,
    "2051": 1517,
    "2050696374": 1518,
    "206f6c64": 1519,
    "20626563616d65": 1520,
    "204578": 1521,
    "616d6564": 1522,
    "20476f7665726e6f72": 1523,
    "206c6966": 1524,
    "2065737461626c6973686564": 1525,
    "2077616c6c": 1526,
    "7465": 1527,
    "204361707461696e": 1528,
    "656e74696f6e": 1529,
    "2068656c64": 1530,
    "6563746f72": 1531,
    "2061757468": 1532,
    "2063616d65": 1533,
    "2070726f63": 1534,
    "70746564": 1535,
    "20706f696e74": 1536,
    "20666c696e746c6f636b": 1537,
    "20726966": 1538,
    "697070": 1539,
    "203131": 1540,
    "20636f756e74": 1541,
    "696272617279": 1542,
    "20436f6e6665646572617465": 1543,
    "20477265656e": 1544,
    "75636b": 1545,
    "2026": 1546,
    "2053756d": 1547,
    "20696e646963": 1548,
    "206c657373": 1549,
    "206f7267616e": 1550,
    "2066616972": 1551,
    "204368696c6472656e": 1552,
    "6f6f6c": 1553,
    "20537072696e67": 1554,
    "207061696e74": 1555,
    "6f6772617068": 1556,
    "204175737472": 1557,
    "204175737472616c": 1558,
    "20667269656e64": 1559,
    "6967696f7573": 1560,
    "205761726e65": 1561,
    "656f72": 1562,
    "206674": 1563,
    "204166": 1564,
    "20636d": 1565,
    "20436172": 1566,
    "20776f72": 1567,
    "20776f727374": 1568,
    "206465616c": 1569,
    "206d696e7574": 1570,
    "726f6e6f6d": 1571,
    "494949": 1572,
    "204a6170616e657365": 1573,
    "206c6974": 1574,
    "20426174746c65": 1575,
    "207265666572": 1576,
    "20726f6c65": 1577,
    "207265616c": 1578,
    "2070726564": 1579,
    "6563657373": 1580,
    "69706c65": 1581,
    "206d616b696e67": 1582,
    "6976696e67": 1583,
    "2053616b": 1584,
    "6f746f": 1585,
    "2072657475726e6564": 1586,
    "20646972656374": 1587,
    "6f6164": 1588,
    "616e646564": 1589,
    "69626c65": 1590,
    "2074616b65": 1591,
    "20617070726f": 1592,
    "207371756164": 1593,
    "696e6573": 1594,
    "74686f756768": 1595,
    "72696564": 1596,
    "656e7365": 1597,
    "207468726f7567686f7574": 1598,
    "706f72": 1599,
    "206163746976": 1600,
    "20646f": 1601,
    "20706c616365": 1602,
    "206b6e6f776e": 1603,
    "2066656d": 1604,
    "616c65": 1605,
    "70706572": 1606,
    "63657074": 1607,
    "66756c": 1608,
    "206361": 1609,
    "6f6d6573": 1610,
    "676564": 1611,
    "6f756e64": 1612,
    "20747261": 1613,
    "657363": 1614,
    "2063697479": 1615,
    "2073686f7274": 1616,
    "78696d": 1617,
    "206368616e6365": 1618,
    "20626567": 1619,
    "20626567696e": 1620,
    "206e657874": 1621,
    "76696577": 1622,
    "2075706f6e": 1623,
    "6174657269616c": 1624,
    "20696e766f6c": 1625,
    "206e6565646564": 1626,
    "205768656e": 1627,
    "626c65": 1628,
    "6964656e74": 1629,
    "207468656d6573": 1630,
    "206d75": 1631,
    "206d756368": 1632,
    "20736576656e": 1633,
    "207265636f72646564": 1634,
    "20636f6e737472": 1635,
    "2066656c74": 1636,
    "20417072696c": 1637,
    "204279": 1638,
    "6174746572": 1639,
    "20636974": 1640,
    "204164": 1641,
    "2070657269": 1642,
    "20706572696f64": 1643,
    "204a756e65": 1644,
    "7370": 1645,
    "207072696e": 1646,
    "656e636564": 1647,
    "6973746963": 1648,
    "6f6f6d": 1649,
    "206576656e74": 1650,
    "532e": 1651,
    "206e616d65": 1652,
    "696e6374": 1653,
    "2072656d61696e696e67": 1654,
    "776179": 1655,
    "6f636b6579": 1656,
    "696f72": 1657,
    "206665646572616c": 1658,
    "20676f7665726e": 1659,
    "206d656e": 1660,
    "206465746572": 1661,
    "20617574686f72": 1662,
    "6d696e": 1663,
    "20736974": 1664,
    "2073697475": 1665,
    "656e6379": 1666,
    "2064656c": 1667,
    "2050726573": 1668,
    "206d6172": 1669,
    "20757365": 1670,
    "206d616e75": 1671,
    "206d616e7566616374": 1672,
    "2063617274": 1673,
    "2063617274726964": 1674,
    "2073746172746564": 1675,
    "2070657263757373696f6e": 1676,
    "2077656c6c": 1677,
    "2048616c6c": 1678,
    "20616363": 1679,
    "20616e6f74686572": 1680,
    "6164656c": 1681,
    "6164656c7068": 1682,
    "6164656c70686961": 1683,
    "206c61626f72": 1684,
    "206f696c": 1685,
    "2073706972": 1686,
    "6f776c6564": 1687,
    "6f776c65646765": 1688,
    "2070726f6375726564": 1689,
    "2062726f756768": 1690,
    "2062726f75676874": 1691,
    "20636f756e747279": 1692,
    "20706170": 1693,
    "656d616e": 1694,
    "2061626f7665": 1695,
    "20537465": 1696,
    "20747261646564": 1697,
    "204e6174696f6e616c": 1698,
    "61636573": 1699,
    "206173736f6369": 1700,
    "636f636b": 1701,
    "686f": 1702,
    "63686f6f6c": 1703,
    "20486572": 1704,
    "20626f6f6b73": 1705,
    "20636f6c6c": 1706,
    "20636f6c6c61626f72": 1707,
    "2045646d756e64": 1708,
    "6c696e67": 1709,
    "61776179": 1710,
    "20696e666c75": 1711,
    "616c64": 1712,
    "206b696e64": 1713,
    "206b696e64657267": 1714,
    "206b696e64657267617274": 1715,
    "206b696e64657267617274656e": 1716,
    "203139323073": 1717,
    "6865726e": 1718,
    "6767": 1719,
    "207768697465": 1720,
    "2031393239": 1721,
    "796368": 1722,
    "6170656c": 1723,
    "6c616e64": 1724,
    "6f7269616c": 1725,
    "6572766174696f6e": 1726,
    "20437570": 1727,
    "206163726f73": 1728,
    "206163726f7373": 1729,
    "2073636f726564": 1730,
    "204175737472616c6961": 1731,
    "61677565": 1732,
    "20706c61796f6666": 1733,
    "20436f": 1734,
    "207265706c": 1735,
    "205269636861726473": 1736,
    "2066726565": 1737,
    "2077696e6e696e67": 1738,
    "20636172656572": 1739,
    "20646566656e73": 1740,
    "207072696f72": 1741,
    "206d696e75746573": 1742,
    "2064656164": 1743,
    "20646561646c696e65": 1744,
    "6f746573": 1745,
    "2048756e": 1746,
    "2048756e77": 1747,
    "2048756e7769636b": 1748,
    "7374726f6e6f6d": 1749,
    "656e646172": 1750,
    "2058494949": 1751,
    "756e6469616c": 1752,
    "207374616765": 1753,
    "20696e737472756d656e74": 1754,
    "20696e6368": 1755,
    "204361726579": 1756,
    "2053656e6a": 1757,
    "2053656e6ac58d": 1758,
    "e688": 1759,
    "e688a6": 1760,
    "aae382": 1761,
    "20706c6179696e67": 1762,
    "2076696465": 1763,
    "20766964656f": 1764,
    "2053656761": 1765,
    "204d6564": 1766,
    "706c6f79": 1767,
    "2047616c6c6961": 1768,
    "726574": 1769,
    "206f706572": 1770,
    "6974746564": 1771,
    "2043616c616d": 1772,
    "20526176": 1773,
    "20526176656e": 1774,
    "206c6172": 1775,
    "206c61726765": 1776,
    "206d756c74": 1777,
    "2043686172": 1778,
    "20436861726163746572": 1779,
    "697461": 1780,
    "2053616b696d": 1781,
    "2053616b696d6f746f": 1782,
    "206f70656e696e67": 1783,
    "2073756e": 1784,
    "20706f736974697665": 1785,
    "2070726169736564": 1786,
    "65737465726e": 1787,
    "20417a": 1788,
    "766f6c": 1789,
    "2047616d65": 1790,
    "6772657373": 1791,
    "206772": 1792,
    "2073656c65": 1793,
    "63746564": 1794,
    "204f7574": 1795,
    "206f63637572": 1796,
    "20646966666572": 1797,
    "206570": 1798,
    "666963": 1799,
    "20616c74686f756768": 1800,
    "207573696e67": 1801,
    "207475726e": 1802,
    "206c696d": 1803,
    "206966": 1804,
    "6f74656e7469616c": 1805,
    "696c6c73": 1806,
    "20646976": 1807,
    "2068656c70": 1808,
    "20626f": 1809,
    "74657273": 1810,
    "696e6b": 1811,
    "204b757274": 1812,
    "20436f6d6d": 1813,
    "20776561706f6e": 1814,
    "20616666": 1815,
    "2073746174": 1816,
    "2076696374": 1817,
    "206578706572": 1818,
    "72696d": 1819,
    "204f72": 1820,
    "76696e67": 1821,
    "6f6d616e": 1822,
    "6574686572": 1823,
    "206d6f73746c79": 1824,
    "2074696d6573": 1825,
    "20746572": 1826,
    "206f7264657273": 1827,
    "2077697468696e": 1828,
    "2070726f74": 1829,
    "766573": 1830,
    "206b657074": 1831,
    "20636170": 1832,
    "6974616c": 1833,
    "2070726573656e74": 1834,
    "6964656e6365": 1835,
    "206d616a6f72": 1836,
    "20706f736974696f6e": 1837,
    "20666f726365": 1838,
    "204d61": 1839,
    "2061726d6564": 1840,
    "2061736b": 1841,
    "6c6567": 1842,
    "706172": 1843,
    "69766573": 1844,
    "20746f6f6b": 1845,
    "20636f6e736964": 1846,
    "756b69": 1847,
    "206d6174657269616c": 1848,
    "20696d70726f76656d": 1849,
    "20696d70726f76656d656e7473": 1850,
    "6174697665": 1851,
    "2072656d6f76": 1852,
    "20736574": 1853,
    "20776f726b6564": 1854,
    "2073656e7365": 1855,
    "206d75736963": 1856,
    "20696e6974": 1857,
    "68657374": 1858,
    "617379": 1859,
    "20647574": 1860,
    "206973737565": 1861,
    "20617661696c61626c65": 1862,
    "20766973": 1863,
    "616964": 1864,
    "697461626c65": 1865,
    "617461": 1866,
    "2077657374": 1867,
    "206f766572616c6c": 1868,
    "2070726f7669646564": 1869,
    "206e6f746564": 1870,
    "2048696e64": 1871,
    "2048696e646d616e": 1872,
    "206c656674": 1873,
    "20726570726573": 1874,
    "207075726368": 1875,
    "20616e6e6f756e": 1876,
    "20616e6e6f756e636564": 1877,
    "75726573": 1878,
    "20707572": 1879,
    "73657175": 1880,
    "656e636573": 1881,
    "20706f7373": 1882,
    "20657874": 1883,
    "616e636573": 1884,
    "6c6f77657273": 1885,
    "2054776f": 1886,
    "206c6f6361746564": 1887,
    "206d757365756d": 1888,
    "20486973746f7279": 1889,
    "2043616d": 1890,
    "2043616d64": 1891,
    "2043616d64656e": 1892,
    "204578706564": 1893,
    "2045787065646974696f6e": 1894,
    "206e616d6564": 1895,
    "204a616d6573": 1896,
    "206c696665": 1897,
    "206d616e79": 1898,
    "204d616a6f72": 1899,
    "6f626572": 1900,
    "206275696c64": 1901,
    "2024": 1902,
    "203134": 1903,
    "656164": 1904,
    "6976696c": 1905,
    "20736572766564": 1906,
    "2031383631": 1907,
    "20526563746f72": 1908,
    "666f726d6564": 1909,
    "656e746c79": 1910,
    "69736f6e": 1911,
    "20536d": 1912,
    "2073746f72": 1913,
    "20617373656d62": 1914,
    "2062656c": 1915,
    "20636974697a": 1916,
    "656e646572": 1917,
    "20636861726765": 1918,
    "204d61726368": 1919,
    "20506572": 1920,
    "20616c6c6f77": 1921,
    "20616c6c6f776564": 1922,
    "2063617274726964676573": 1923,
    "203235": 1924,
    "206d75736b": 1925,
    "7a65": 1926,
    "202e36": 1927,
    "202e3639": 1928,
    "207269666c6573": 1929,
    "203534": 1930,
    "2073657276696365": 1931,
    "20766172696f7573": 1932,
    "202f": 1933,
    "206e656172": 1934,
    "2041726b6164656c70686961": 1935,
    "204c656164": 1936,
    "20656d": 1937,
    "207374726f6e": 1938,
    "207374726f6e67": 1939,
    "646572": 1940,
    "2064617973": 1941,
    "616e6765": 1942,
    "726f77": 1943,
    "20572e": 1944,
    "20696e636c75646564": 1945,
    "2062616c6c": 1946,
    "6e6572": 1947,
    "6963616c6c79": 1948,
    "63686573": 1949,
    "20666c6f6f72": 1950,
    "20737572726f756e64": 1951,
    "20737572726f756e64696e67": 1952,
    "207061726b": 1953,
    "206d6f766564": 1954,
    "206f7267616e697a": 1955,
    "20666966": 1956,
    "207375666665726564": 1957,
    "204772656174": 1958,
    "2043656e746572": 1959,
    "6973746f72": 1960,
    "20313937": 1961,
    "206173736f63696174696f6e": 1962,
    "636f": 1963,
    "2065647563": 1964,
    "206361726473": 1965,
    "2048796d": 1966,
    "2048796d6e": 1967,
    "20636f6c6c61626f726174696f6e": 1968,
    "2077696e64": 1969,
    "20506974": 1970,
    "205069746c": 1971,
    "205069746c616b65": 1972,
    "20517565": 1973,
    "20477265656e61776179": 1974,
    "2052617068": 1975,
    "205261706861": 1976,
    "205261706861656c": 1977,
    "20706f737463": 1978,
    "20776f6e": 1979,
    "20636f6d7065746974696f6e": 1980,
    "206465617468": 1981,
    "206d6f74686572": 1982,
    "205065746572": 1983,
    "20667269656e6473": 1984,
    "207061696e74696e6773": 1985,
    "20436c": 1986,
    "2072656c6967696f7573": 1987,
    "2043616e": 1988,
    "2047617264": 1989,
    "2062726f": 1990,
    "20636875726368": 1991,
    "63656e74": 1992,
    "6f6c6f6779": 1993,
    "204f6c64": 1994,
    "205268": 1995,
    "205268796d": 1996,
    "205268796d6573": 1997,
    "67656c": 1998,
    "204e6577": 1999,
    "2057696e64": 2000,
    "204c6f75": 2001,
    "204c6f756973": 2002,
    "206d61746368": 2003,
    "67726f756e64": 2004,
    "207374696e67": 2005,
    "20626f7474": 2006,
    "20626f74746f6d": 2007,
    "206469": 2008,
    "207461696c": 2009,
    "2067656e": 2010,
    "6f6c6f676963616c": 2011,
    "206c696e65": 2012,
    "206368616e676573": 2013,
    "696e73": 2014,
    "20436f616368": 2015,
    "20546f64": 2016,
    "205269636b": 2017,
    "204c6f73": 2018,
    "207365636f6e6473": 2019,
    "2066616e73": 2020,
    "20576973": 2021,
    "205769736e": 2022,
    "205769736e696577": 2023,
    "205769736e69657773": 2024,
    "205769736e696577736b69": 2025,
    "20646566656e73656d616e": 2026,
    "20696e6a75726564": 2027,
    "20426c756573": 2028,
    "204869746368": 2029,
    "204869746368636f636b": 2030,
    "20436f79": 2031,
    "20436f796f746573": 2032,
    "6f727265": 2033,
    "20313538": 2034,
    "697573": 2035,
    "206d6574726573": 2036,
    "207265636f7264696e67": 2037,
    "20476f74": 2038,
    "20576179": 2039,
    "20e688a6": 2040,
    "20e688a6e5": 2041,
    "20e688a6e5a0": 2042,
    "20e688a6e5a0b4": 2043,
    "20e688a6e5a0b4e381ae": 2044,
    "20e688a6e5a0b4e381aee383": 2045,
    "20e688a6e5a0b4e381aee383b4": 2046,
    "20e688a6e5a0b4e381aee383b4e382": 2047,
    "20e688a6e5a0b4e381aee383b4e382a1": 2048,
    "20e688a6e5a0b4e381aee383b4e382a1e383": 2049,
    "20e688a6e5a0b4e381aee383b4e382a1e383ab": 2050,
    "20e688a6e5a0b4e381aee383b4e382a1e383abe382": 2051,
    "20e688a6e5a0b4e381aee383b4e382a1e383abe382ad": 2052,
    "20e688a6e5a0b4e381aee383b4e382a1e383abe382ade383": 2053,
    "20e688a6e5a0b4e381aee383b4e382a1e383abe382ade383a5": 2054,
    "20e688a6e5a0b4e381aee383b4e382a1e383abe382ade383a5e383": 2055,
    "20e688a6e5a0b4e381aee383b4e382a1e383abe382ade383a5e383aae382": 2056,
    "20e688a6e5a0b4e381aee383b4e382a1e383abe382ade383a5e383aae382a2": 2057,
    "20426174746c656669656c64": 2058,
    "20636f6d6d6f6e": 2059,
    "207265666572726564": 2060,
    "206f757473696465": 2061,
    "20646576656c6f706564": 2062,
    "204d65646961": 2063,
    "204d656469612e": 2064,
    "204d656469612e56": 2065,
    "204d656469612e566973696f6e": 2066,
    "20456d": 2067,
    "20707265646563657373": 2068,
    "20536563": 2069,
    "205365636f6e64": 2070,
    "20496d706572": 2071,
    "20496d70657269616c": 2072,
    "20706f7274": 2073,
    "206d756c7469706c65": 2074,
    "206469726563746f72": 2075,
    "2073756e67": 2076,
    "2073616c6573": 2077,
    "20636f6e74656e74": 2078,
    "20657870616e646564": 2079,
    "2065646974696f6e": 2080,
    "20447565": 2081,
    "766f6c7574": 2082,
    "766f6c7574696f6e": 2083,
    "20656e656d": 2084,
    "2070616e": 2085,
    "696d61746564": 2086,
    "20737065": 2087,
    "2063616d70": 2088,
    "20646966666572656e74": 2089,
    "2065706973": 2090,
    "20657069736f64": 2091,
    "6176696e67": 2092,
    "20646966666963": 2093,
    "20646966666963756c": 2094,
    "20646966666963756c7479": 2095,
    "2073696d": 2096,
    "2063617272696564": 2097,
    "20626174746c656669656c64": 2098,
    "2045616368": 2099,
    "206c696d69746564": 2100,
    "2073696e676c65": 2101,
    "2077696c6c": 2102,
    "20736f6d": 2103,
    "617070": 2104,
    "20506f74656e7469616c": 2105,
    "20756e69": 2106,
    "20756e69717565": 2107,
    "6974686572": 2108,
    "20546f": 2109,
    "61726e": 2110,
    "206261736564": 2111,
    "2043686172616374657273": 2112,
    "2053706563": 2113,
    "204162": 2114,
    "20776974686f7574": 2115,
    "617679": 2116,
    "20456e67": 2117,
    "206772656174": 2118,
    "69656e6365": 2119,
    "20646973747269627574": 2120,
    "20343232": 2121,
    "20636f6d706f736564": 2122,
    "206572": 2123,
    "204f7264": 2124,
    "204d696c6974": 2125,
    "6966696564": 2126,
    "616479": 2127,
    "204e6f": 2128,
    "73656c66": 2129,
    "2044617263": 2130,
    "204461726373": 2131,
    "204461726373656e": 2132,
    "2064657374726f79": 2133,
    "2043616c616d697479": 2134,
    "207570706572": 2135,
    "206563": 2136,
    "6162696c697479": 2137,
    "7461696e": 2138,
    "206265636f6d6573": 2139,
    "206174746163686564": 2140,
    "6570": 2141,
    "206c656164": 2142,
    "20446168": 2143,
    "204461686175": 2144,
    "20636f6d62": 2145,
    "20636f6d62696e": 2146,
    "20636f6e74696e75": 2147,
    "206361706974616c": 2148,
    "20547265": 2149,
    "206576656e7473": 2150,
    "20746f7761726473": 2151,
    "20726174686572": 2152,
    "20737570706f7274": 2153,
    "206365": 2154,
    "69646573": 2155,
    "20636f6e66": 2156,
    "2066696e6973686564": 2157,
    "2066756c": 2158,
    "2066756c6c": 2159,
    "20626567696e6e696e67": 2160,
    "20726566": 2161,
    "20696e74657276696577": 2162,
    "20636f6e73696465726564": 2163,
    "2073657175": 2164,
    "20706c6174": 2165,
    "20706c6174666f726d": 2166,
    "2067617665": 2167,
    "656e6172": 2168,
    "204675": 2169,
    "2046756a": 2170,
    "20737472756374": 2171,
    "20737472756374757265": 2172,
    "20696e766f6c766564": 2173,
    "676f6e": 2174,
    "20626f64": 2175,
    "20696e636f72": 2176,
    "20696e636f72706f72": 2177,
    "2072656d6f766564": 2178,
    "206d656d": 2179,
    "20657373": 2180,
    "20657373656e7469616c": 2181,
    "2064657369676e73": 2182,
    "6f726d73": 2183,
    "20636f6c6f72": 2184,
    "2050726f": 2185,
    "204d7573": 2186,
    "204d75736963": 2187,
    "206f726967696e616c6c79": 2188,
    "696c6172": 2189,
    "2067756974": 2190,
    "20677569746172": 2191,
    "656365": 2192,
    "206d6f646572": 2193,
    "7563746564": 2194,
    "2053657074": 2195,
    "2053657074656d626572": 2196,
    "20617070656172616e6365": 2197,
    "2064656d6f": 2198,
    "20646574": 2199,
    "206c656164696e67": 2200,
    "20706c616e73": 2201,
    "61676564": 2202,
    "206c6f776572": 2203,
    "2067656e6572616c": 2204,
    "6c697368": 2205,
    "20657863": 2206,
    "6c7573": 2207,
    "204c617374": 2208,
    "20353030": 2209,
    "61746976656c79": 2210,
    "6163696e67": 2211,
    "69746572": 2212,
    "2070726f66": 2213,
    "656c696e67": 2214,
    "20617370": 2215,
    "6167617a": 2216,
    "6167617a696e65": 2217,
    "206d6f72": 2218,
    "20637269746963": 2219,
    "696f6e616c": 2220,
    "75616c73": 2221,
    "656e67": 2222,
    "20726570726573656e74": 2223,
    "616b656e": 2224,
    "2073746f70": 2225,
    "616c66": 2226,
    "205069637475726573": 2227,
    "20696e7370": 2228,
    "20707572706f73": 2229,
    "2073656c": 2230,
    "2073656c66": 2231,
    "686962": 2232,
    "6169": 2233,
    "20696c6c7573747261746564": 2234,
    "206576656e7475616c6c79": 2235,
    "756d6573": 2236,
    "2044656e": 2237,
    "204f74": 2238,
    "205061726b": 2239,
    "6f6d6d": 2240,
    "2031393432": 2241,
    "617274657273": 2242,
    "206275696c64696e6773": 2243,
    "20446f75": 2244,
    "20446f75676c": 2245,
    "20446f75676c6173": 2246,
    "20737570": 2247,
    "2066726f6e": 2248,
    "2066726f6e74": 2249,
    "20416d6572": 2250,
    "206e65776c79": 2251,
    "6b6c": 2252,
    "2070726576696f75736c79": 2253,
    "20636c7562": 2254,
    "6c6579": 2255,
    "204665646572616c": 2256,
    "20476f7665726e6d656e74": 2257,
    "2077616c6c73": 2258,
    "20696e7374656164": 2259,
    "65747465": 2260,
    "616e79": 2261,
    "20636f6e76": 2262,
    "203238": 2263,
    "6772616d": 2264,
    "666f72": 2265,
    "20776964": 2266,
    "204d656d": 2267,
    "20636f6d706c65746564": 2268,
    "20486172": 2269,
    "2073746f726573": 2270,
    "205b": 2271,
    "205d": 2272,
    "20696e74656e646564": 2273,
    "20636974697a656e73": 2274,
    "2073757272": 2275,
    "61646573": 2276,
    "206d756e6974696f6e": 2277,
    "206d756e6974696f6e73": 2278,
    "65637574": 2279,
    "65637574697665": 2280,
    "2061677265": 2281,
    "20646972656374696f6e": 2282,
    "2061776179": 2283,
    "2054686174": 2284,
    "6162726963": 2285,
    "206d616e7566616374757265": 2286,
    "204d6f7374": 2287,
    "20636f6e736973746564": 2288,
    "204d31383232": 2289,
    "20636f6e766572": 2290,
    "204d697373": 2291,
    "204d697373697373": 2292,
    "204d697373697373697070": 2293,
    "204d69737369737369707069": 2294,
    "20736b6574": 2295,
    "69626572": 2296,
    "206571756970": 2297,
    "206d616368": 2298,
    "696e657279": 2299,
    "20456172": 2300,
    "2031383633": 2301,
    "616d656e7473": 2302,
    "20446570": 2303,
    "203735": 2304,
    "206d696c": 2305,
    "20736f757468": 2306,
    "6f6c73": 2307,
    "20667572": 2308,
    "20646f6e": 2309,
    "206d6179": 2310,
    "2073686f7467": 2311,
    "2073686f7467756e73": 2312,
    "204c74": 2313,
    "204c742e": 2314,
    "2064726177": 2315,
    "20706c61636564": 2316,
    "2066756e": 2317,
    "20506f7374": 2318,
    "207061636b": 2319,
    "2070616972": 2320,
    "206275636b": 2321,
    "207265706169726564": 2322,
    "61756c": 2323,
    "2053756d6d": 2324,
    "20526570": 2325,
    "204973": 2326,
    "207061696e746564": 2327,
    "204775": 2328,
    "2072656d61696e6564": 2329,
    "69737472": 2330,
    "206d61726b": 2331,
    "20556e696f6e": 2332,
    "2072656e": 2333,
    "20626173": 2334,
    "206164646564": 2335,
    "20313838": 2336,
    "204e6f727468": 2337,
    "20646576": 2338,
    "686970": 2339,
    "61676f": 2340,
    "20526f6f6d": 2341,
    "206576656e": 2342,
    "207665746572": 2343,
    "206c696272617279": 2344,
    "6c6c": 2345,
    "69746573": 2346,
    "7468726f70": 2347,
    "203136": 2348,
    "20656475636174696f6e": 2349,
    "206769726c": 2350,
    "20636f7572": 2351,
    "736573": 2352,
    "2053696d": 2353,
    "2048796d6e73": 2354,
    "204c656164657468": 2355,
    "204d65": 2356,
    "20737461696e6564": 2357,
    "20676c": 2358,
    "20676c617373": 2359,
    "2077696e646f77": 2360,
    "20436875726368": 2361,
    "204368696c64": 2362,
    "204461726c696e67": 2363,
    "20517565656e": 2364,
    "2064696564": 2365,
    "6f75736c79": 2366,
    "206368696c64": 2367,
    "20706f73746361726473": 2368,
    "20466f6c6c6f77696e67": 2369,
    "20706f": 2370,
    "75676874": 2371,
    "6461": 2372,
    "2031393138": 2373,
    "2031393235": 2374,
    "2057616c64": 2375,
    "2057616c64726f6e": 2376,
    "2057616c64726f6e73": 2377,
    "2073747564696f": 2378,
    "20726f6f6d": 2379,
    "6f7370": 2380,
    "61766573": 2381,
    "206c617465": 2382,
    "2053746f72": 2383,
    "2053746f7272696e67": 2384,
    "2053746f7272696e67746f6e": 2385,
    "206163717569726564": 2386,
    "206579": 2387,
    "696c6c61": 2388,
    "6f6e6573": 2389,
    "204769726c": 2390,
    "20527573": 2391,
    "2047726f756e64": 2392,
    "2047726f756e6473656c": 2393,
    "2031393433": 2394,
    "206167656e6379": 2395,
    "204b6e": 2396,
    "204b6e6f776c65646765": 2397,
    "2031393333": 2398,
    "6564696e67": 2399,
    "2063686170656c": 2400,
    "20506172": 2401,
    "61707469736d": 2402,
    "61707469736d616c": 2403,
    "20666f6e74": 2404,
    "2031393438": 2405,
    "2031393632": 2406,
    "20416e67656c": 2407,
    "207465616d73": 2408,
    "20576f6d656e": 2409,
    "616c6c656e": 2410,
    "204166726963": 2411,
    "20416672696361": 2412,
    "207061727469636970": 2413,
    "20417373": 2414,
    "207374696e67726179": 2415,
    "20616e6e6f74": 2416,
    "6f72746865726e": 2417,
    "2073686170": 2418,
    "20666f6c64": 2419,
    "6f726e73": 2420,
    "206d61736b72617973": 2421,
    "2066656d616c6573": 2422,
    "726f7068": 2423,
    "2074726177": 2424,
    "20706879": 2425,
    "6c6f67": 2426,
    "206d656173": 2427,
    "20746f67": 2428,
    "20746f676574686572": 2429,
    "656e7472616c": 2430,
    "656e61": 2431,
    "2031393930": 2432,
    "20447261": 2433,
    "204472616674": 2434,
    "206c6f74": 2435,
    "206c6f74746572": 2436,
    "206c6f7474657279": 2437,
    "2041726e": 2438,
    "2041726e69656c": 2439,
    "207265706c61636564": 2440,
    "20546f6464": 2441,
    "2053746172": 2442,
    "204a65": 2443,
    "204a656666": 2444,
    "2053746170": 2445,
    "20537461706c6573": 2446,
    "20746f74": 2447,
    "20746f74616c": 2448,
    "61746f7273": 2449,
    "20736561736f6e73": 2450,
    "2043757274": 2451,
    "20437572746973": 2452,
    "20696e6a757279": 2453,
    "20526564": 2454,
    "206465627574": 2455,
    "20636f616368696e67": 2456,
    "2073686f6f74": 2457,
    "2073686f6f746f7574": 2458,
    "20627265616b": 2459,
    "2074726164696e67": 2460,
    "2050686f": 2461,
    "2050686f656e": 2462,
    "2050686f656e6978": 2463,
    "204d63": 2464,
    "2025": 2465,
    "20666f75727468": 2466,
    "20617374726f6e6f6d": 2467,
    "2057696e6473": 2468,
    "2073756e6469616c": 2469,
    "207265666f726d": 2470,
    "204c656f": 2471,
    "20696e737472756d656e746174696f6e": 2472,
    "65726964": 2473,
    "6572696469616e": 2474,
    "2050697573": 2475,
    "206d6574656f72": 2476,
    "20616c62": 2477,
    "20616c62756d": 2478,
    "726563": 2479,
    "20e688a6e5a0b4e381aee383b4e382a1e383abe382ade383a5e383aae382a233": 2480,
    "2074616374": 2481,
    "20746163746963616c": 2482,
    "20506f7274": 2483,
    "20506f727461626c65": 2484,
    "6c6561736564": 2485,
    "2070656e616c": 2486,
    "206e6174696f6e": 2487,
    "204575": 2488,
    "204575726f70": 2489,
    "206f7065726174696f6e73": 2490,
    "206361727279": 2491,
    "20646f6e65": 2492,
    "207374616e64": 2493,
    "617475726573": 2494,
    "2061646a": 2495,
    "2061646a757374": 2496,
    "20486f6e": 2497,
    "20486f6e6a": 2498,
    "20486f6e6a6f75": 2499,
    "20636f6d706f73": 2500,
    "72696573": 2501,
    "204f7a": 2502,
    "204f7a617761": 2503,
    "20276e": 2504,
    "20646f776e6c": 2505,
    "20646f776e6c6f6164": 2506,
    "206c6f63616c": 2507,
    "207472616e736c": 2508,
    "20417a757265": 2509,
    "205265766f6c7574696f6e": 2510,
    "20636f6e74726f": 2511,
    "20636f6e74726f6c": 2512,
    "20656e656d79": 2513,
    "636573": 2514,
    "2070616e656c73": 2515,
    "69636564": 2516,
    "2070726f6772657373": 2517,
    "20756e6c6f636b": 2518,
    "20756e6c6f636b6564": 2519,
    "206d617073": 2520,
    "616e6e6564": 2521,
    "757465": 2522,
    "206d6170": 2523,
    "20696e646976": 2524,
    "20696e6469766964": 2525,
    "7074696f6e": 2526,
    "2073656c6563746564": 2527,
    "2072657374": 2528,
    "20416c6f6e67": 2529,
    "207370656369666963": 2530,
    "206164646974696f6e616c": 2531,
    "2074686f7365": 2532,
    "20746f70": 2533,
    "206d6f766573": 2534,
    "206d6f76656d656e74": 2535,
    "206e696e65": 2536,
    "2061737369676e": 2537,
    "2061737369676e6564": 2538,
    "616c7468": 2539,
    "20506f74656e7469616c73": 2540,
    "20736b696c6c73": 2541,
    "6f6e616c": 2542,
    "206f7468657277": 2543,
    "206f7468657277697365": 2544,
    "77617973": 2545,
    "204d6173": 2546,
    "20506f696e": 2547,
    "2073686966": 2548,
    "20496d63": 2549,
    "20496d6361": 2550,
    "20636c6173736573": 2551,
    "6f757473": 2552,
    "207377": 2553,
    "20766963746f7279": 2554,
    "7970": 2555,
    "207265636f726473": 2556,
    "65726f7573": 2557,
    "20526567756c6172": 2558,
    "206e65766572": 2559,
    "204e6f2e": 2560,
    "6973686573": 2561,
    "20726564": 2562,
    "2068696d73656c66": 2563,
    "207370656369616c": 2564,
    "2064657374726f796564": 2565,
    "205269656c": 2566,
    "205269656c61": 2567,
    "2064657363": 2568,
    "206d797374": 2569,
    "20636f6e73697374696e67": 2570,
    "2064656e": 2571,
    "20616476": 2572,
    "2073756363": 2573,
    "2073756363657373": 2574,
    "207375636365737366756c": 2575,
    "203432326e64": 2576,
    "206d656d626572": 2577,
    "2070726f706f73": 2578,
    "207468656d73656c": 2579,
    "207468656d73656c766573": 2580,
    "6f72746564": 2581,
    "20456d70": 2582,
    "20456d70697265": 2583,
    "206f666665726564": 2584,
    "2064656665": 2585,
    "20616e63": 2586,
    "206372656174696e67": 2587,
    "207065": 2588,
    "20616374696f6e": 2589,
    "6577": 2590,
    "20617070726f78696d": 2591,
    "20617070726f78696d6174656c79": 2592,
    "20726573706f6e": 2593,
    "20726573706f6e7365": 2594,
    "2077686174": 2595,
    "206d656368": 2596,
    "206d656368616e": 2597,
    "2063726561746564": 2598,
    "207265717569726564": 2599,
    "7269616c": 2600,
    "696b6f": 2601,
    "20626f6479": 2602,
    "2064656369646564": 2603,
    "2070726f626c65": 2604,
    "2070726f626c656d": 2605,
    "20637265617465": 2606,
    "20776f726c64": 2607,
    "2070726f6a656374": 2608,
    "2074686f75676874": 2609,
    "206c69676874": 2610,
    "20746f6e65": 2611,
    "2073696d696c6172": 2612,
    "2072656a": 2613,
    "2072656a6563746564": 2614,
    "20696e697469616c6c79": 2615,
    "207069": 2616,
    "20656e64696e67": 2617,
    "206d6f6465726e": 2618,
    "20636f6e7374727563746564": 2619,
    "206c697665": 2620,
    "69747375": 2621,
    "e38282": 2622,
    "2073696e676572": 2623,
    "20706172746963756c6172": 2624,
    "63696f7573": 2625,
    "2046616d": 2626,
    "206c6973746564": 2627,
    "2064657461696c": 2628,
    "203237": 2629,
    "20444c": 2630,
    "20444c43": 2631,
    "20457874": 2632,
    "204578747261": 2633,
    "2045646974696f6e": 2634,
    "2063686f73": 2635,
    "2063686f73656e": 2636,
    "20626f6e": 2637,
    "6f706c65": 2638,
    "207472616e73666572": 2639,
    "6c696b65": 2640,
    "6f7264696e67": 2641,
    "205053": 2642,
    "207061746368": 2643,
    "20456e676c697368": 2644,
    "20436f6d70": 2645,
    "70706564": 2646,
    "20636f6d696e67": 2647,
    "2073697465": 2648,
    "206e6567": 2649,
    "206e6f74696e67": 2650,
    "2072656379": 2651,
    "207265637963": 2652,
    "2072656379636c6564": 2653,
    "20656e746572": 2654,
    "20707574": 2655,
    "696b6573": 2656,
    "206665656c696e67": 2657,
    "20636c6f73": 2658,
    "20706f7369746976656c79": 2659,
    "796c65": 2660,
    "206c6174746572": 2661,
    "207175616c697479": 2662,
    "6973696e67": 2663,
    "207265747572": 2664,
    "2072657475726e696e67": 2665,
    "20696e636c756465": 2666,
    "756573": 2667,
    "205279": 2668,
    "205279616e": 2669,
    "65746974696f6e": 2670,
    "69746c6564": 2671,
    "20657874656e64": 2672,
    "2073756d": 2673,
    "2073756d6d6572": 2674,
    "203239": 2675,
    "2068616c66": 2676,
    "207072696e63": 2677,
    "20737566666572": 2678,
    "616e6b": 2679,
    "6f7363": 2680,
    "20666f63": 2681,
    "20666f637573": 2682,
    "206f76657274": 2683,
    "20736f6e6773": 2684,
    "2072657370656374": 2685,
    "2061727469737473": 2686,
    "6d65": 2687,
    "756d65": 2688,
    "20696e7374616c6c": 2689,
    "6f6d6d697373696f6e": 2690,
    "20686f75736564": 2691,
    "204e61747572": 2692,
    "204e61747572616c": 2693,
    "20416e74": 2694,
    "2031393937": 2695,
    "204d696c6974617279": 2696,
    "20686561647175": 2697,
    "2064697374696e6374": 2698,
    "657369646573": 2699,
    "2063656e7472616c": 2700,
    "20626972": 2701,
    "206269727468": 2702,
    "20636f6d6d616e646572": 2703,
    "20536f757468": 2704,
    "2072657175657374": 2705,
    "2066726f6e74696572": 2706,
    "20776179": 2707,
    "206163726573": 2708,
    "20422e": 2709,
    "20737570657276": 2710,
    "20636f6e737472756374696f6e": 2711,
    "20696e637265": 2712,
    "20696e63726561736564": 2713,
    "203330": 2714,
    "2073706c": 2715,
    "2073706563696d": 2716,
    "20436976696c": 2717,
    "20466f72": 2718,
    "2073696d70": 2719,
    "20416d65726963616e": 2720,
    "20636f6e76656e74696f6e": 2721,
    "207761": 2722,
    "6d6974746564": 2723,
    "20706f7373657373696f6e": 2724,
    "206f66666963657273": 2725,
    "20636f6e6e": 2726,
    "207265696e": 2727,
    "207265696e666f72": 2728,
    "207265696e666f726365": 2729,
    "2074656c6567": 2730,
    "2074656c656772617068": 2731,
    "204861727265": 2732,
    "2048617272656c": 2733,
    "69726d": 2734,
    "2067617272": 2735,
    "206761727269736f6e": 2736,
    "20466f7274": 2737,
    "20536d697468": 2738,
    "656c65": 2739,
    "696d656e74": 2740,
    "20676f7665726e6f72": 2741,
    "206d696c69746961": 2742,
    "6565": 2743,
    "20736974756174696f6e73": 2744,
    "20617373656d626c6564": 2745,
    "20676976696e67": 2746,
    "2066616374": 2747,
    "20736974756174696f6e": 2748,
    "2073757272656e646572": 2749,
    "2070726f6d70746564": 2750,
    "206d79": 2751,
    "206f6666696369616c": 2752,
    "207375626a656374": 2753,
    "68617073": 2754,
    "61757365": 2755,
    "636f6c": 2756,
    "207769746864": 2757,
    "61796564": 2758,
    "2066656c6c": 2759,
    "206566666f727473": 2760,
    "206d75736b6574": 2761,
    "2063617073": 2762,
    "204d313834": 2763,
    "20736d6f": 2764,
    "20736d6f6f7468": 2765,
    "20526966": 2766,
    "204e6f7465": 2767,
    "20736b65746368": 2768,
    "616e747279": 2769,
    "206d757374": 2770,
    "20697373756564": 2771,
    "2063616c69626572": 2772,
    "6176616c": 2773,
    "2056616e": 2774,
    "20446f726e": 2775,
    "20737570706c79": 2776,
    "2065717569706d656e74": 2777,
    "206d616368696e657279": 2778,
    "61626c79": 2779,
    "206e6561726c79": 2780,
    "20636f6c6c65": 2781,
    "204f72646e616e6365": 2782,
    "206972": 2783,
    "2069726f6e": 2784,
    "2076616c": 2785,
    "65646963": 2786,
    "20746f6f6c73": 2787,
    "20617474656d": 2788,
    "20617474656d70746564": 2789,
    "20616d6f6e67": 2790,
    "2066757274686572": 2791,
    "61736573": 2792,
    "20707265706172": 2793,
    "204c696272617279": 2794,
    "207061706572": 2795,
    "20656d706c6f79": 2796,
    "20707572636861736564": 2797,
    "2072656d61696e646572": 2798,
    "20736f6f6e": 2799,
    "206f62": 2800,
    "206368616e6765": 2801,
    "207375697461626c65": 2802,
    "20432e532e": 2803,
    "7261696e": 2804,
    "2061637469766974696573": 2805,
    "2066756e6374696f6e": 2806,
    "6c6574": 2807,
    "20647574696573": 2808,
    "204661756c": 2809,
    "204661756c6b": 2810,
    "204661756c6b6e6572": 2811,
    "2053756d6d617279": 2812,
    "61676573": 2813,
    "204775617264": 2814,
    "61727261636b73": 2815,
    "646179": 2816,
    "206e6f727468": 2817,
    "20666176": 2818,
    "206661766f72": 2819,
    "204f6374": 2820,
    "204f63746f626572": 2821,
    "20c2": 2822,
    "2073696465": 2823,
    "20482e": 2824,
    "206c617267": 2825,
    "206f7267616e697a6174696f6e73": 2826,
    "2043686963": 2827,
    "204368696361676f": 2828,
    "206578686962": 2829,
    "206d656574": 2830,
    "2031393131": 2831,
    "20617474656e646564": 2832,
    "2061726561": 2833,
    "204c61746572": 2834,
    "2031393137": 2835,
    "206e6f77": 2836,
    "2062616e64": 2837,
    "2031393336": 2838,
    "20576f726b73": 2839,
    "20486973746f72": 2840,
    "2064657369676e61746564": 2841,
    "2043697479": 2842,
    "204d61726b": 2843,
    "2031393733": 2844,
    "20696c6c757374726174": 2845,
    "20696c6c7573747261746f72": 2846,
    "20646570696374": 2847,
    "20646570696374696e67": 2848,
    "2066616972696573": 2849,
    "20666c6f77657273": 2850,
    "205363686f6f6c": 2851,
    "2070726f66657373696f6e": 2852,
    "2070726f66657373696f6e616c": 2853,
    "207061696e74696e67": 2854,
    "204b617465": 2855,
    "20507265": 2856,
    "756d6e": 2857,
    "2031393835": 2858,
    "68756d": 2859,
    "68756d6f75736c79": 2860,
    "696f6772617068": 2861,
    "20576164": 2862,
    "20576164646f6e": 2863,
    "206d6964": 2864,
    "2031393139": 2865,
    "207363686f6f6c": 2866,
    "205475636b": 2867,
    "2064726177696e6773": 2868,
    "204a2e": 2869,
    "7761": 2870,
    "6f6d70": 2871,
    "2053756d6d6572": 2872,
    "20436c6179": 2873,
    "20436c6179746f6e": 2874,
    "2043616c7468726f70": 2875,
    "206c6576656c": 2876,
    "20667275": 2877,
    "726962": 2878,
    "617273": 2879,
    "20636c6f736564": 2880,
    "2031393430": 2881,
    "20636f7374": 2882,
    "20636f7374756d6573": 2883,
    "20736163": 2884,
    "20416d": 2885,
    "204e656172": 2886,
    "204f7572": 2887,
    "2031393534": 2888,
    "20756e61626c65": 2889,
    "20657874656e74": 2890,
    "206d61": 2891,
    "69636573": 2892,
    "2063617074": 2893,
    "20636f6d6573": 2894,
    "2063686f": 2895,
    "2063686f696365": 2896,
    "6e657373": 2897,
    "20676976": 2898,
    "20676976656e": 2899,
    "2053656173": 2900,
    "205368616b6573": 2901,
    "205368616b657370": 2902,
    "205368616b657370656172": 2903,
    "205368616b65737065617265": 2904,
    "2031393230": 2905,
    "2052757368": 2906,
    "20527573686965": 2907,
    "204e6563": 2908,
    "204e65636b6c": 2909,
    "204e65636b6c61636573": 2910,
    "20706f766572": 2911,
    "20706f7665727479": 2912,
    "2053696d6f6e": 2913,
    "205377": 2914,
    "2031393838": 2915,
    "2031393136": 2916,
    "204368726973746d": 2917,
    "204368726973746d6173": 2918,
    "2031393236": 2919,
    "207472697074": 2920,
    "207472697074796368": 2921,
    "2046656564696e67": 2922,
    "6f7573616e64": 2923,
    "2070686f74": 2924,
    "2070686f746f6772617068": 2925,
    "206261707469736d616c": 2926,
    "20726f6c6c": 2927,
    "20507265736572766174696f6e": 2928,
    "203139333073": 2929,
    "20536f6e67": 2930,
    "20536f6e6773": 2931,
    "2050696374757265": 2932,
    "2047617264656e": 2933,
    "204c6976656c79": 2934,
    "204d61636d": 2935,
    "204d61636d696c6c": 2936,
    "204d61636d696c6c616e": 2937,
    "2053756e": 2938,
    "2032303037": 2939,
    "2032303038": 2940,
    "20696e7465726e": 2941,
    "20696e7465726e6174696f6e616c": 2942,
    "20636f6d7065746564": 2943,
    "207265636f67": 2944,
    "207265636f676e": 2945,
    "207265636f676e69736564": 2946,
    "2073706f7274": 2947,
    "207175616c696669657273": 2948,
    "206368616c6c656e": 2949,
    "20416672": 2950,
    "204166726963616e": 2951,
    "2047616d6573": 2952,
    "20466f6f7462616c6c": 2953,
    "206d6174": 2954,
    "2054756e": 2955,
    "2054756e6973": 2956,
    "2054756e69736961": 2957,
    "6961746564": 2958,
    "204e656f74": 2959,
    "204e656f747279": 2960,
    "204e656f747279676f6e": 2961,
    "20616e6e6f74617461": 2962,
    "2044617379": 2963,
    "20446173796174": 2964,
    "20686162": 2965,
    "206861626974": 2966,
    "2068616269746174": 2967,
    "206e6f72746865726e": 2968,
    "207769647468": 2969,
    "206469616d": 2970,
    "20736861706564": 2971,
    "2067726179": 2972,
    "2067726179697368": 2973,
    "20726f77": 2974,
    "2074686f726e73": 2975,
    "206461726b": 2976,
    "20706174": 2977,
    "2065796573": 2978,
    "2067656e7573": 2979,
    "20706f6c796368": 2980,
    "20706f6c79636861": 2981,
    "20706f6c796368616574": 2982,
    "20706f6c79636861657465": 2983,
    "20776f726d73": 2984,
    "2075746572": 2985,
    "20636175676874": 2986,
    "20747261776c": 2987,
    "72656174": 2988,
    "656e6564": 2989,
    "207068796c6f67": 2990,
    "207068796c6f67656e": 2991,
    "69656e7469666963": 2992,
    "72697074696f6e": 2993,
    "206d61726b6564": 2994,
    "203231": 2995,
    "205765737465726e": 2996,
    "63756c6172": 2997,
    "65746963": 2998,
    "204e2e": 2999,
    "20657374696d61746564": 3000,
    "206f63637572726564": 3001,
    "697474696e67": 3002,
    "20737069726163": 3003,
    "207370697261636c6573": 3004,
    "20736c": 3005,
    "207374696e6773": 3006,
    "2049736c616e64": 3007,
    "207265706f727473": 3008,
    "2072616e6765": 3009,
    "2072617973": 3010,
    "207465726d": 3011,
    "206d656173757265": 3012,
    "20726573756c": 3013,
    "20486f636b6579": 3014,
    "204c6561677565": 3015,
    "2045646d6f6e": 3016,
    "2045646d6f6e746f6e": 3017,
    "204f696c": 3018,
    "204f696c657273": 3019,
    "2048656164": 3020,
    "2053636f7474": 3021,
    "206669726564": 3022,
    "6573746564": 3023,
    "20416e67656c6573": 3024,
    "2066696e697368": 3025,
    "20616371756973": 3026,
    "206163717569736974696f6e": 3027,
    "206d616e6167": 3028,
    "206d616e6167656d656e74": 3029,
    "2063656e746572": 3030,
    "206669667468": 3031,
    "206c6561677565": 3032,
    "206d696c6c": 3033,
    "206d696c6c696f6e": 3034,
    "20666f726d6572": 3035,
    "204e696b": 3036,
    "2046696c": 3037,
    "204f7474": 3038,
    "2053656e61746f7273": 3039,
    "207665746572616e": 3040,
    "205374657665": 3041,
    "20737472756767": 3042,
    "20636f6e7365637574697665": 3043,
    "7a61": 3044,
    "20706f776572": 3045,
    "20446574": 3046,
    "20446574726f": 3047,
    "20446574726f6974": 3048,
    "2057696e6773": 3049,
    "2072656163686564": 3050,
    "204a6f68616e73": 3051,
    "204a6f68616e73656e": 3052,
    "2070657263656e74": 3053,
    "20757073": 3054,
    "20636f6e63757373696f6e": 3055,
    "2043616e7563": 3056,
    "2043616e75636b73": 3057,
    "696e6e": 3058,
    "20666f7274": 3059,
    "20696365": 3060,
    "207069636b73": 3061,
    "2073687574": 3062,
    "20736875746f7574": 3063,
    "20726567756c6174696f6e": 3064,
    "20656c696d": 3065,
    "20656c696d696e": 3066,
    "20656c696d696e61746564": 3067,
    "20446976": 3068,
    "204469766973696f6e": 3069,
    "206261636b67726f756e64": 3070,
    "20696e64696361746573": 3071,
    "2042656c": 3072,
    "206c697374696e67": 3073,
    "20476f616c73": 3074,
    "204167": 3075,
    "20416761696e": 3076,
    "20416761696e7374": 3077,
    "20546f727265": 3078,
    "6f6c6963": 3079,
    "696361": 3080,
    "204a756c": 3081,
    "204a756c69616e": 3082,
    "2063616c656e646172": 3083,
    "20526f6d616e": 3084,
    "2047696c": 3085,
    "2047696c6969": 3086,
    "206d6574656f726f6c6f676963616c": 3087,
    "207472616e736974": 3088,
    "656c657363": 3089,
    "656c6573636f7065": 3090,
    "2062726964": 3091,
    "20627269646765": 3092,
    "204d6572696469616e": 3093,
    "206365696c": 3094,
    "206365696c696e67": 3095,
    "2057616b65": 3096,
    "20747261636b": 3097,
    "207072656465636573736f7273": 3098,
    "616c6c65": 3099,
    "2073657276696e67": 3100,
    "204575726f70616e": 3101,
    "20706572666f726d": 3102,
    "20736563726574": 3103,
    "206361727279696e67": 3104,
    "20706f7274696f6e": 3105,
    "207374616e64617264": 3106,
    "206665617475726573": 3107,
    "20666f7267": 3108,
    "636f6d": 3109,
    "205261": 3110,
    "205261697461": 3111,
    "20636f6d706f736572": 3112,
    "204869746f73": 3113,
    "204869746f736869": 3114,
    "2054616b6573": 3115,
    "2054616b65736869": 3116,
    "2068616e646c6564": 3117,
    "20736372697074": 3118,
    "207765737465726e": 3119,
    "20646f776e6c6f616461626c65": 3120,
    "2061646170": 3121,
    "2061646170746564": 3122,
    "206d616e6761": 3123,
    "20616e696d": 3124,
    "20616e696d6174696f6e": 3125,
    "206c6f63616c697a6564": 3126,
    "2066616e": 3127,
    "207472616e736c6174696f6e": 3128,
    "617469626c65": 3129,
    "2032303134": 3130,
    "2056616c6b796972": 3131,
    "2056616c6b79697261": 3132,
    "20666f72636573": 3133,
    "2053746f72696573": 3134,
    "20746f6c64": 3135,
    "20706f72747261": 3136,
    "20706f72747261697473": 3137,
    "20737065616b696e67": 3138,
    "207061727469616c6c79": 3139,
    "6f69636564": 3140,
    "20737065656368": 3141,
    "2074657874": 3142,
    "2070726f67726573736573": 3143,
    "206c696e": 3144,
    "206c696e656172": 3145,
    "2067726164": 3146,
    "206772616475616c6c79": 3147,
    "20667265": 3148,
    "706c61796564": 3149,
    "206c6f636174696f6e": 3150,
    "656e64696e67": 3151,
    "20696e646976696475616c": 3152,
    "20617070726f616368": 3153,
    "616c6564": 3154,
    "2067726f77": 3155,
    "20416c6f6e6773696465": 3156,
    "20636f6d706c6574": 3157,
    "20657069736f646573": 3158,
    "20686176696e67": 3159,
    "20686967": 3160,
    "20766572": 3161,
    "206d696e6f72": 3162,
    "20426c": 3163,
    "6954": 3164,
    "69545a": 3165,
    "207475726e73": 3166,
    "206669656c64": 3167,
    "20416374696f6e": 3168,
    "61756765": 3169,
    "205570": 3170,
    "20736f6d657468": 3171,
    "20736f6d657468696e67": 3172,
    "206865616c7468": 3173,
    "2064697669646564": 3174,
    "616c746572": 3175,
    "6c657373": 3176,
    "20656974686572": 3177,
    "20616c77617973": 3178,
    "206772616e74": 3179,
    "206c696e6b": 3180,
    "696c6974696573": 3181,
    "2074656d": 3182,
    "2074656d706f72": 3183,
    "6f737473": 3184,
    "206163746976617465": 3185,
    "20436f6d6d616e64": 3186,
    "207368696674": 3187,
    "206265636f6d65": 3188,
    "2074617267": 3189,
    "20746172676574": 3190,
    "206865617679": 3191,
    "726f6f70657273": 3192,
    "69746368": 3193,
    "206761696e6564": 3194,
    "20657870657269656e6365": 3195,
    "206174747269627574": 3196,
    "61726564": 3197,
    "20656e74697265": 3198,
    "79706573": 3199,
    "205371756164": 3200,
    "206e616d6573": 3201,
    "206f6666696369616c6c79": 3202,
    "206e756d62657273": 3203,
    "2064616e67": 3204,
    "207461736b": 3205,
    "206d65616e": 3206,
    "206d65616e696e67": 3207,
    "2061726d79": 3208,
    "206f666669636572": 3209,
    "206163637573": 3210,
    "2061636375736564": 3211,
    "204e6f2e31": 3212,
    "2066656d616c65": 3213,
    "20736565": 3214,
    "207365656d": 3215,
    "696e676c79": 3216,
    "20776f6d616e": 3217,
    "2066656c6c6f77": 3218,
    "206669676874": 3219,
    "206578697374": 3220,
    "68656c": 3221,
    "206578706c": 3222,
    "20636f6e63657074": 3223,
    "206c6f7365": 3224,
    "2066616365": 3225,
    "2074657272": 3226,
    "69746f7279": 3227,
    "206361757365": 3228,
    "20636572": 3229,
    "206365727461696e": 3230,
    "204f6e65": 3231,
    "757267": 3232,
    "206162616e64": 3233,
    "2072616e6b73": 3234,
    "20696465": 3235,
    "2070726f706f736564": 3236,
    "2070726f74656374": 3237,
    "20696e746572657374": 3238,
    "20636f6d62696e6564": 3239,
    "207472616974": 3240,
    "2074726169746f72": 3241,
    "20646573706572": 3242,
    "206b656570": 3243,
    "206566666f7274": 3244,
    "736579": 3245,
    "2043726f": 3246,
    "2043726f7765": 3247,
    "72657374": 3248,
    "2052616e64": 3249,
    "2065766964656e6365": 3250,
    "2077656172": 3251,
    "20706172746c79": 3252,
    "206c6f73736573": 3253,
    "20666f726d616c": 3254,
    "206c69766564": 3255,
    "204d6178696d": 3256,
    "204d6178696d696c": 3257,
    "204d6178696d696c69616e": 3258,
    "20616e6369656e74": 3259,
    "2056616c6b797269616e": 3260,
    "207375706572": 3261,
    "656e65": 3262,
    "2066697265": 3263,
    "2061736b696e67": 3264,
    "206b696c6c": 3265,
    "207365706172": 3266,
    "207365706172617465": 3267,
    "2077617973": 3268,
    "206c69766573": 3269,
    "20446576656c6f70": 3270,
    "20446576656c6f706d656e74": 3271,
    "2073686f72746c79": 3272,
    "204c696b65": 3273,
    "207072656465636573736f72": 3274,
    "206d656368616e696373": 3275,
    "20636f6d65": 3276,
    "72616e74": 3277,
    "20537065": 3278,
    "2074727565": 3279,
    "2073657175656c": 3280,
    "726f7665": 3281,
    "207061727473": 3282,
    "207363656e6172": 3283,
    "207363656e6172696f": 3284,
    "204869": 3285,
    "2046756a6969": 3286,
    "204d616a": 3287,
    "616769": 3288,
    "6a69": 3289,
    "206461726b6572": 3290,
    "626572": 3291,
    "206d616a6f72697479": 3292,
    "206772617068": 3293,
    "206772617068696373": 3294,
    "2075706772": 3295,
    "20706f6c79": 3296,
    "206d6f64656c73": 3297,
    "20616368": 3298,
    "206163686965": 3299,
    "2061636869657665": 3300,
    "20696e636f72706f7261746564": 3301,
    "206d656d6f7279": 3302,
    "2061646a7573746564": 3303,
    "65616c": 3304,
    "61696e696e67": 3305,
    "206964656e74": 3306,
    "696679": 3307,
    "7461696e696e67": 3308,
    "20656e67": 3309,
    "206578706563746564": 3310,
    "2070726f64756374696f6e": 3311,
    "206f7263": 3312,
    "206f726368657374": 3313,
    "206f7263686573747261": 3314,
    "207379": 3315,
    "2073796e": 3316,
    "2073796e74": 3317,
    "2073796e74686573": 3318,
    "207069656365": 3319,
    "2066616e74": 3320,
    "2066616e74617379": 3321,
    "20776f726b696e67": 3322,
    "6869726f": 3323,
    "20747261636b73": 3324,
    "20596f75": 3325,
    "2057697368": 3326,
    "e38282e381": 3327,
    "e590": 3328,
    "e3818c": 3329,
    "206761": 3330,
    "20726561736f6e": 3331,
    "6962696c697479": 3332,
    "2064757479": 3333,
    "206c79": 3334,
    "206c79726963": 3335,
    "206c7972696373": 3336,
    "69626179": 3337,
    "69626179617368": 3338,
    "6962617961736869": 3339,
    "2077656273": 3340,
    "2077656273697465": 3341,
    "2072657665": 3342,
    "2046616d69747375": 3343,
    "205447": 3344,
    "20544753": 3345,
    "6f75726e": 3346,
    "616c69737473": 3347,
    "20617474656e64": 3348,
    "20746f6f": 3349,
    "2070726f6d6f7465": 3350,
    "2076697375616c": 3351,
    "2073616964": 3352,
    "2066656174": 3353,
    "206f776e6564": 3354,
    "2073617665": 3355,
    "2064617461": 3356,
    "2076657273": 3357,
    "20556e6c696b65": 3358,
    "20416363": 3359,
    "204163636f7264696e67": 3360,
    "20706f6f72": 3361,
    "696369616c": 3362,
    "2052656365": 3363,
    "206578636c7573": 3364,
    "206368617274": 3365,
    "203737": 3366,
    "20656e6a": 3367,
    "20656e6a6f79": 3368,
    "20706c6561736564": 3369,
    "2067616d": 3370,
    "2067616d696e67": 3371,
    "206e656761746976656c79": 3372,
    "20706163696e67": 3373,
    "2067656e6572616c6c79": 3374,
    "207370696b6573": 3375,
    "616d6572": 3376,
    "204e61": 3377,
    "2050534e": 3378,
    "2061737065637473": 3379,
    "204f6666": 3380,
    "204d6167617a696e65": 3381,
    "20554b": 3382,
    "20626c": 3383,
    "207374796c65": 3384,
    "2062616c": 3385,
    "2062616c616e6365": 3386,
    "2063726974696369736d": 3387,
    "206166666563746564": 3388,
    "20506f696e7473": 3389,
    "20726576696577": 3390,
    "7363": 3391,
    "206f63636173": 3392,
    "206f63636173696f6e616c": 3393,
    "20696d70726f766564": 3394,
    "2052696368617264": 3395,
    "20686967686c79": 3396,
    "20486973": 3397,
    "206c656e67": 3398,
    "206c656e677468": 3399,
    "205a": 3400,
    "6170746174696f6e73": 3401,
    "e8aa": 3402,
    "776f726b": 3403,
    "20706c616e6e6564": 3404,
    "20617661696c6162696c697479": 3405,
    "20657874656e646564": 3406,
    "2073746f7070": 3407,
    "203331": 3408,
    "20726976": 3409,
    "20726976616c73": 3410,
    "616d61": 3411,
    "69746c65": 3412,
    "20707572706f7365": 3413,
    "20526f6164": 3414,
    "204b7562": 3415,
    "204b7562696e6b": 3416,
    "204b7562696e6b61": 3417,
    "20636f6e73657175": 3418,
    "20726573656172": 3419,
    "207665": 3420,
    "2064616d": 3421,
    "2064616d61676564": 3422,
    "2074656c65": 3423,
    "2063617374": 3424,
    "20617070656172616e636573": 3425,
    "617269": 3426,
    "204c69676874": 3427,
    "202d54": 3428,
    "20544f": 3429,
    "4f53": 3430,
    "61796c": 3431,
    "20466c6f77657273": 3432,
    "2057696c6c": 3433,
    "e38184": 3434,
    "a4e381": 3435,
    "8be5": 3436,
    "e381aee8": 3437,
    "e381aee88a": 3438,
    "e381aee88ab1": 3439,
    "2048616e": 3440,
    "2048616e61": 3441,
    "616d69": 3442,
    "616b69": 3443,
    "20766f6c": 3444,
    "756765": 3445,
    "2053686f74": 3446,
    "20552e": 3447,
    "20552e532e": 3448,
    "20313834": 3449,
    "2031383430": 3450,
    "2053696e6365": 3451,
    "206465636f6d6d697373696f6e": 3452,
    "20416e7469": 3453,
    "20416e74697175": 3454,
    "20416e746971756974696573": 3455,
    "2032303031": 3456,
    "20686561647175617274657273": 3457,
    "2031383934": 3458,
    "206f6c64657374": 3459,
    "206269727468706c": 3460,
    "206269727468706c616365": 3461,
    "205553": 3462,
    "20506163": 3463,
    "2050616369666963": 3464,
    "207374617274696e67": 3465,
    "72616374696f6e73": 3466,
    "2070617373": 3467,
    "20526f626572": 3468,
    "20526f62657274": 3469,
    "206c616e64": 3470,
    "20726163": 3471,
    "726967": 3472,
    "6f6361746564": 3473,
    "207065726d616e": 3474,
    "207065726d616e656e74": 3475,
    "20666f6f74": 3476,
    "20746869636b": 3477,
    "206d61736f6e": 3478,
    "206d61736f6e7279": 3479,
    "2073706563696d656e": 3480,
    "20676f7665726e6d656e74": 3481,
    "206465706f74": 3482,
    "20427574": 3483,
    "2031383630": 3484,
    "20636f6d70616e79": 3485,
    "696c6c657279": 3486,
    "207472616e73666572726564": 3487,
    "20686f6c64": 3488,
    "2064657465726d": 3489,
    "2064657465726d696e65": 3490,
    "2073686f756c64": 3491,
    "20656c656374": 3492,
    "20696e666f726d6564": 3493,
    "20617574686f72697479": 3494,
    "2070656f706c65": 3495,
    "207368616c6c": 3496,
    "2064657465726d696e": 3497,
    "2064657465726d696e6564": 3498,
    "20636f6e6e656374": 3499,
    "20636f6e6e656374696f6e": 3500,
    "2074656c6c": 3501,
    "20756c74": 3502,
    "20756c74696d": 3503,
    "20667574": 3504,
    "2064697370": 3505,
    "206c6574": 3506,
    "2073707265": 3507,
    "20737072656164": 3508,
    "207370616e": 3509,
    "2061736b6564": 3510,
    "20496e64": 3511,
    "2077696e746572": 3512,
    "207175617274657273": 3513,
    "206465706f73": 3514,
    "206465706f736974": 3515,
    "2073696d706c79": 3516,
    "206e657773": 3517,
    "20717569636b": 3518,
    "206675": 3519,
    "20617373656d626c65": 3520,
    "206e6563657373": 3521,
    "206e6563657373617279": 3522,
    "2064656e696564": 3523,
    "2062656c6965": 3524,
    "20636976696c": 3525,
    "20636976696c69616e": 3526,
    "20666f72636564": 3527,
    "2064656d616e64": 3528,
    "20656d6572": 3529,
    "20656d657267": 3530,
    "20656d657267656e6379": 3531,
    "20617574686f726974696573": 3532,
    "20617373756d": 3533,
    "20617373756d6564": 3534,
    "20796f7572": 3535,
    "2050657268617073": 3536,
    "20507265736964656e74": 3537,
    "20696e737472756374696f6e": 3538,
    "20616772656564": 3539,
    "6166": 3540,
    "2070726f706572": 3541,
    "2062657369646573": 3542,
    "206c656176696e67": 3543,
    "206d6f726e696e67": 3544,
    "2061677265656d656e74": 3545,
    "20706c6163696e67": 3546,
    "2068616e6473": 3547,
    "206f6666696369616c73": 3548,
    "6f6f6e": 3549,
    "206d617263686564": 3550,
    "20657863657074": 3551,
    "20737461796564": 3552,
    "206c697374656e": 3553,
    "6f757365": 3554,
    "7374616e74": 3555,
    "20666162726963": 3556,
    "206e6f72": 3557,
    "20736372": 3558,
    "20696e76656e74": 3559,
    "20323437": 3560,
    "20323530": 3561,
    "203632": 3562,
    "20636f6e766572746564": 3563,
    "20736d6f6f746862": 3564,
    "207269666c65": 3565,
    "206d75736b657473": 3566,
    "204d313831": 3567,
    "203236": 3568,
    "3634": 3569,
    "203936": 3570,
    "20446973": 3571,
    "706f736974696f6e": 3572,
    "20496e66": 3573,
    "20496e66616e747279": 3574,
    "20526567696d": 3575,
    "20526567696d656e7473": 3576,
    "206d75737465726564": 3577,
    "20666c696e746c6f636b73": 3578,
    "20397468": 3579,
    "205269666c6573": 3580,
    "2057657374": 3581,
    "20326e64": 3582,
    "2031327468": 3583,
    "20616c6d": 3584,
    "20616c6d6f7374": 3585,
    "756e6b": 3586,
    "2065617374": 3587,
    "2047656e": 3588,
    "204561726c": 3589,
    "206163636f756e74": 3590,
    "206c6f7374": 3591,
    "207269766572": 3592,
    "6f6c65": 3593,
    "2070726f62": 3594,
    "2070726f6261626c79": 3595,
    "69636b73": 3596,
    "20646573746974": 3597,
    "20646573746974757465": 3598,
    "2061726d6f7279": 3599,
    "20726576": 3600,
    "20636f6c6c656374696f6e": 3601,
    "207475726e6564": 3602,
    "206f70656e6564": 3603,
    "68656d": 3604,
    "206c61626f7261746f7279": 3605,
    "20446570617274": 3606,
    "204465706172746d656e74": 3607,
    "20676174686572": 3608,
    "6f7468696e67": 3609,
    "206b6e6f776c65646765": 3610,
    "2074616b656e": 3611,
    "20766963": 3612,
    "20766963696e": 3613,
    "20766963696e697479": 3614,
    "20696d7072657373": 3615,
    "6966756c": 3616,
    "756e736d": 3617,
    "756e736d697468": 3618,
    "756e736d69746873": 3619,
    "20656d706c6f796564": 3620,
    "20636f6d6d656e636564": 3621,
    "20737069726974": 3622,
    "206566666563746564": 3623,
    "6f6f6b696e67": 3624,
    "204e617679": 3625,
    "20626f72": 3626,
    "20626f72726f77": 3627,
    "69657574": 3628,
    "69657574656e": 3629,
    "69657574656e616e74": 3630,
    "2067756e": 3631,
    "20506f6e": 3632,
    "20506f6e6368": 3633,
    "20506f6e6368617274": 3634,
    "20506f6e63686172747261696e": 3635,
    "2072616e6b": 3636,
    "20436f6c2e": 3637,
    "20526574": 3638,
    "2052657475726e": 3639,
    "20432e532e41": 3640,
    "20432e532e412e": 3641,
    "62656c": 3642,
    "6f726473": 3643,
    "20656e6c": 3644,
    "2073686f70": 3645,
    "206c61626f72657273": 3646,
    "207061636b696e67": 3647,
    "20626f78": 3648,
    "20626f786573": 3649,
    "20706572666f726d6564": 3650,
    "20466162726963": 3651,
    "206775617264": 3652,
    "206f6666696365": 3653,
    "20706f6c696365": 3654,
    "206e6176616c": 3655,
    "2073686f77": 3656,
    "20726f756e6473": 3657,
    "20706f756e64": 3658,
    "20706f756e646572": 3659,
    "20526570616972": 3660,
    "205265706169726564": 3661,
    "20696e6469636174696e67": 3662,
    "20707265646f6d": 3663,
    "20707265646f6d696e": 3664,
    "20707265646f6d696e616e74": 3665,
    "207369787468": 3666,
    "20636f6e74696e7565": 3667,
    "20776565": 3668,
    "204469737472": 3669,
    "204469737472696374": 3670,
    "20537465656c65": 3671,
    "2031383634": 3672,
    "7269636b": 3673,
    "726965": 3674,
    "2042726f": 3675,
    "2042726f6f6b": 3676,
    "2042726f6f6b73": 3677,
    "6178": 3678,
    "20313837": 3679,
    "20446563": 3680,
    "2072656e616d6564": 3681,
    "206261727261636b73": 3682,
    "72617374": 3683,
    "20616c746572": 3684,
    "20507269": 3685,
    "205072696f72": 3686,
    "2072656e6f76": 3687,
    "2072656172": 3688,
    "20656e7472": 3689,
    "20656e7472616e6365": 3690,
    "20666c6f": 3691,
    "20666c6f6f7273": 3692,
    "20696e746572696f72": 3693,
    "207374616972": 3694,
    "20746f646179": 3695,
    "20626f726e": 3696,
    "77657374": 3697,
    "20666174686572": 3698,
    "20417274687572": 3699,
    "2073746174696f6e": 3700,
    "20736d616c6c6572": 3701,
    "207261": 3702,
    "20776f7264": 3703,
    "206b6d": 3704,
    "20c2b2": 3705,
    "20636f6e64": 3706,
    "20707572706f736573": 3707,
    "206d6f6e65": 3708,
    "206d6f6e6579": 3709,
    "20436f6c756d6269616e": 3710,
    "20636f6e63": 3711,
    "206d656574696e6773": 3712,
    "206669667479": 3713,
    "207369676e69666963": 3714,
    "207369676e69666963616e74": 3715,
    "206465746572696f72": 3716,
    "2066696e616e63": 3717,
    "2066696e616e6369616c": 3718,
    "2070616964": 3719,
    "2032307468": 3720,
    "2063656e74757279": 3721,
    "204f766572": 3722,
    "2031393132": 3723,
    "206c6f6e676572": 3724,
    "2050726f6772657373": 3725,
    "2041646d696e": 3726,
    "2041646d696e69737472": 3727,
    "2041646d696e697374726174696f6e": 3728,
    "2041727473": 3729,
    "20486973746f726963": 3730,
    "2031393730": 3731,
    "2031393934": 3732,
    "696c616e": 3733,
    "2066696e616c6c79": 3734,
    "20686f6e": 3735,
    "20686f6e6f72": 3736,
    "20686973746f72": 3737,
    "656d656e": 3738,
    "20436963": 3739,
    "20436963656c79": 3740,
    "2031383935": 3741,
    "20696c6c757374726174696f6e73": 3742,
    "686f6f64": 3743,
    "20636f72": 3744,
    "20636f72726573": 3745,
    "20636f7272657370": 3746,
    "20636f72726573706f6e64": 3747,
    "20636f72726573706f6e64656e6365": 3748,
    "20636f7572736573": 3749,
    "206561726c": 3750,
    "206d6167617a696e65": 3751,
    "2064656361646573": 3752,
    "206465766f7574": 3753,
    "20646f6e61746564": 3754,
    "20666577": 3755,
    "20486173": 3756,
    "20436f6d65": 3757,
    "20657175616c6c79": 3758,
    "207761746572": 3759,
    "207761746572636f6c": 3760,
    "2070656e": 3761,
    "20696e6b": 3762,
    "206f696c73": 3763,
    "2070617374": 3764,
    "2070617374656c73": 3765,
    "205261706861656c69746573": 3766,
    "207072696e636970": 3767,
    "20696e666c75656e636573": 3768,
    "20696e7374696e6374": 3769,
    "20696e7374696e63746976656c79": 3770,
    "206172746973746963": 3771,
    "207468656f72696573": 3772,
    "2054686f756768": 3773,
    "207761736e": 3774,
    "202774": 3775,
    "20706f737468756d6f75736c79": 3776,
    "204561726c79": 3777,
    "206461": 3778,
    "20796f756e67657374": 3779,
    "20616d617465": 3780,
    "20616d6174657572": 3781,
    "20617274697374": 3782,
    "20776966": 3783,
    "2077696665": 3784,
    "204f73": 3785,
    "204f7377": 3786,
    "204f7377616c64": 3787,
    "20537572": 3788,
    "205375727265": 3789,
    "20537572726579": 3790,
    "20456e676c": 3791,
    "20456e676c616e64": 3792,
    "70746963": 3793,
    "20706172656e7473": 3794,
    "2062656c6f6e67": 3795,
    "2062656c6f6e676564": 3796,
    "646c65": 3797,
    "207370656e74": 3798,
    "206e7572": 3799,
    "206e757273": 3800,
    "20313930": 3801,
    "206576656e696e67": 3802,
    "203139343073": 3803,
    "207465616368696e67": 3804,
    "20626f756768": 3805,
    "20626f75676874": 3806,
    "2072656d61726b": 3807,
    "204d79": 3808,
    "204c656164696e67": 3809,
    "2070726976": 3810,
    "20686f75736568": 3811,
    "20686f757365686f6c64": 3812,
    "206661697279": 3813,
    "204f757468": 3814,
    "204f7574687761": 3815,
    "204f7574687761697465": 3816,
    "207075626c6973": 3817,
    "207075626c6973686572": 3818,
    "207075626c697368657273": 3819,
    "206163636f6d70": 3820,
    "206163636f6d70616e": 3821,
    "206163636f6d70616e79696e67": 3822,
    "74696573": 3823,
    "2044696f6e": 3824,
    "2077726f": 3825,
    "2077726f7465": 3826,
    "2073656d": 3827,
    "2056696374": 3828,
    "2061746d": 3829,
    "2061746d6f7370": 3830,
    "2061746d6f73706865": 3831,
    "2061746d6f737068657265": 3832,
    "2072656c6174": 3833,
    "2072656c617469766573": 3834,
    "20706c616e": 3835,
    "2047617264656e73": 3836,
    "2070726f76696465": 3837,
    "207477": 3838,
    "2062726f6b": 3839,
    "2062726f6b656e": 3840,
    "20646f75": 3841,
    "20656e6f756768": 3842,
    "20666f637573696e67": 3843,
    "20736163726564": 3844,
    "20726563656976696e67": 3845,
    "20537573": 3846,
    "205375737365": 3847,
    "20537573736578": 3848,
    "20736f7574": 3849,
    "20736f75746865726e": 3850,
    "20636f617374": 3851,
    "204d617267": 3852,
    "204d6172676172": 3853,
    "204d61726761726574": 3854,
    "2054617272": 3855,
    "2054617272616e74": 3856,
    "7368": 3857,
    "6279": 3858,
    "2067697665": 3859,
    "20466972": 3860,
    "204669727374": 3861,
    "2061676564": 3862,
    "2031393631": 3863,
    "206d6169736f6e": 3864,
    "206d6169736f6e65747465": 3865,
    "2074616b696e67": 3866,
    "207265736964656e6365": 3867,
    "206469766973696f6e": 3868,
    "2050656e67": 3869,
    "2050656e6775": 3870,
    "20426f6f6b73": 3871,
    "20696e64696361746564": 3872,
    "20696e666c75656e6365": 3873,
    "207375626a": 3874,
    "207375626a65637473": 3875,
    "206e6f7374": 3876,
    "676963": 3877,
    "63686f6c": 3878,
    "20666c6174": 3879,
    "207072696e74696e67": 3880,
    "2074656368": 3881,
    "20746563686e": 3882,
    "20616e616c": 3883,
    "20616e616c79": 3884,
    "20696e666c75656e636564": 3885,
    "207468696e6773": 3886,
    "20636f76": 3887,
    "20636f76657273": 3888,
    "205069637475726573717565": 3889,
    "20416c6c696573": 3890,
    "2053656173696465": 3891,
    "20486f6c": 3892,
    "20486f6c6964": 3893,
    "20426f79": 3894,
    "2054696d6573": 3895,
    "2031393238": 3896,
    "204c6f7264": 3897,
    "2031393338": 3898,
    "20637269746963616c6c79": 3899,
    "2031383030": 3900,
    "2073756767": 3901,
    "2073756767657374": 3902,
    "20736f63": 3903,
    "20736f6369616c": 3904,
    "20636f6e7363696f7573": 3905,
    "205377616e": 3906,
    "20726573706563746976656c79": 3907,
    "204769726c73": 3908,
    "20467269656e64": 3909,
    "20467269656e646c79": 3910,
    "203436": 3911,
    "2068756e": 3912,
    "2052656c": 3913,
    "2052656c6967696f7573": 3914,
    "2046697665": 3915,
    "2054686f7573616e64": 3916,
    "2050656e6172": 3917,
    "2050656e61727468": 3918,
    "2057616c6573": 3919,
    "2050617261626c65": 3920,
    "205375": 3921,
    "20537570706572": 3922,
    "2031393334": 3923,
    "2047656f72": 3924,
    "2047656f726765": 3925,
    "2043686170656c": 3926,
    "20646973617070": 3927,
    "20726570726f": 3928,
    "20726570726f64": 3929,
    "72616d656e7473": 3930,
    "20726f6c6c73": 3931,
    "2031393436": 3932,
    "2054726962": 3933,
    "2054726962756c6174696f6e": 3934,
    "204d656d6f7269616c": 3935,
    "204e6f72": 3936,
    "204e6f7262": 3937,
    "204e6f7262757279": 3938,
    "6f64697374": 3939,
    "206d656d6f7269616c": 3940,
    "2066656574": 3941,
    "20696e7374616c6c6564": 3942,
    "2053616c": 3943,
    "2053616c6d": 3944,
    "2053616c6d6f6e": 3945,
    "20456c": 3946,
    "20436f6c746f6e": 3947,
    "2056657273": 3948,
    "20417574": 3949,
    "20417574756d6e": 3950,
    "2031393237": 3951,
    "205472656573": 3952,
    "2031393434": 3953,
    "2053616e64": 3954,
    "2046616972796f70": 3955,
    "2046616972796f706f6c": 3956,
    "2046616972796f706f6c6973": 3957,
    "2057696c64": 3958,
    "616e6e6572": 3959,
    "204c6574": 3960,
    "20416e6472657773": 3961,
    "2031393938": 3962,
    "20796f757468": 3963,
    "207769746864726577": 3964,
    "20726567696f6e616c": 3965,
    "206661636573": 3966,
    "206368616c6c656e676573": 3967,
    "77696465": 3968,
    "6b6564": 3969,
    "6374696f6e6564": 3970,
    "20706172746963697061746564": 3971,
    "20746f75726e": 3972,
    "204368616d70": 3973,
    "204368616d70696f6e73": 3974,
    "204368616d70696f6e73686970": 3975,
    "20417a6572": 3976,
    "20417a657262": 3977,
    "20417a6572626169": 3978,
    "20417a65726261696a": 3979,
    "20417a65726261696a616e": 3980,
    "206e6172": 3981,
    "206e6172726f77": 3982,
    "2053696572": 3983,
    "20536965727261": 3984,
    "204c656f6e65": 3985,
    "207175616c696679696e67": 3986,
    "616d656e74": 3987,
    "20686f7572": 3988,
    "2062656174": 3989,
    "207175616c6966696564": 3990,
    "204261636b": 3991,
    "204261636b67726f756e64": 3992,
    "756d616e": 3993,
    "2072696768": 3994,
    "20726967687473": 3995,
    "20636f6e74696e656e74": 3996,
    "2067726561746572": 3997,
    "206f7070": 3998,
    "206f70706f7274": 3999,
    "206f70706f7274756e": 4000,
    "206f70706f7274756e697479": 4001,
    "20666f756e646564": 4002,
    "20616666696c": 4003,
    "206c61": 4004,
    "206c61756e": 4005,
    "206c61756e63686564": 4006,
    "20436f6d7065746974696f6e": 4007,
    "20616374697665": 4008,
    "2032303039": 4009,
    "206465646963": 4010,
    "206861626974617473": 4011,
    "206469616d6f6e64": 4012,
    "20677265656e": 4013,
    "20706563746f72": 4014,
    "20706563746f72616c": 4015,
    "20616c7465726e": 4016,
    "20616c7465726e6174696e67": 4017,
    "2062616e6473": 4018,
    "2062617365": 4019,
    "20736b696e": 4020,
    "207061747465726e": 4021,
    "206d61696e6c79": 4022,
    "20636172696465": 4023,
    "20636172696465616e": 4024,
    "20736872696d": 4025,
    "20736872696d70": 4026,
    "20626f6e79": 4027,
    "20666973686573": 4028,
    "20766976": 4029,
    "207669766970": 4030,
    "2076697669706172": 4031,
    "20766976697061726f7573": 4032,
    "20766961": 4033,
    "2068697374": 4034,
    "20686973746f74": 4035,
    "20686973746f74726f7068": 4036,
    "2075746572696e65": 4037,
    "206d696c6b": 4038,
    "206c61636b73": 4039,
    "6f6e6f6d": 4040,
    "2076616c7565": 4041,
    "20696e636964656e74": 4042,
    "7374616e64": 4043,
    "20646973747269627574696f6e": 4044,
    "20496e7465726e": 4045,
    "20496e7465726e6174696f6e616c": 4046,
    "20436f6e73": 4047,
    "20436f6e736572766174696f6e": 4048,
    "204e6174757265": 4049,
    "204955": 4050,
    "20495543": 4051,
    "204955434e": 4052,
    "20546872656174": 4053,
    "20546872656174656e6564": 4054,
    "20736369656e7469666963": 4055,
    "63686572": 4056,
    "61747573": 4057,
    "204c6174": 4058,
    "204c6174696e": 4059,
    "20636f6c6f726174696f6e": 4060,
    "204461737961746973": 4061,
    "2067726f7570": 4062,
    "657370": 4063,
    "206b75": 4064,
    "206b7568": 4065,
    "206b75686c": 4066,
    "206b75686c6969": 4067,
    "206261736973": 4068,
    "207068796c6f67656e65746963": 4069,
    "696e67616c": 4070,
    "696e67616c6f": 4071,
    "696e67616c6f6f": 4072,
    "206469766572": 4073,
    "207e": 4074,
    "207374756479": 4075,
    "20636f6d706c6578": 4076,
    "696b656c79": 4077,
    "2073706c697474696e67": 4078,
    "20636f726e": 4079,
    "20636f726e657273": 4080,
    "206d617267": 4081,
    "206d617267696e73": 4082,
    "2062726f6164": 4083,
    "20706f696e746564": 4084,
    "20746970": 4085,
    "206d6f757468": 4086,
    "206265617273": 4087,
    "20736c656e646572": 4088,
    "20706170696c6c61": 4089,
    "20706170696c6c6165": 4090,
    "20536d616c6c": 4091,
    "20626172": 4092,
    "20626172656c79": 4093,
    "2076656e7472616c": 4094,
    "20646f7273": 4095,
    "20646f7273616c": 4096,
    "65726d": 4097,
    "2076617269": 4098,
    "203435": 4099,
    "20756e73": 4100,
    "206c65617374": 4101,
    "696f6c6f6779": 4102,
    "2073757266": 4103,
    "2073757266616365": 4104,
    "20646967": 4105,
    "2070726579": 4106,
    "204163": 4107,
    "20646576656c6f70696e67": 4108,
    "616374696f6e73": 4109,
    "657263": 4110,
    "2064656c6963": 4111,
    "2064656c6963617465": 4112,
    "20656e63": 4113,
    "205468657365": 4114,
    "20726573756c746564": 4115,
    "20617373657373": 4116,
    "206173736573736564": 4117,
    "206e6f7465": 4118,
    "2073747261": 4119,
    "207374726169676874": 4120,
    "206d697373": 4121,
    "20706c61796f666673": 4122,
    "73657175656e746c79": 4123,
    "20456e74": 4124,
    "20456e747279": 4125,
    "20417373697374": 4126,
    "20417373697374616e74": 4127,
    "20706572736f6e6e": 4128,
    "20706572736f6e6e656c": 4129,
    "20666f7277617264": 4130,
    "2070726f7370": 4131,
    "20726562": 4132,
    "20726571756573746564": 4133,
    "20616c6c6f77696e67": 4134,
    "2073636f7265": 4135,
    "207479696e67": 4136,
    "206f76657274696d65": 4137,
    "2068656c70696e67": 4138,
    "203635": 4139,
    "206368616e676564": 4140,
    "204d616e": 4141,
    "204d616e6167": 4142,
    "204d616e61676572": 4143,
    "2065696768": 4144,
    "20656967687468": 4145,
    "2065786368": 4146,
    "2065786368616e6765": 4147,
    "204e657874": 4148,
    "206167656e74": 4149,
    "2049736c616e64657273": 4150,
    "2073636f72": 4151,
    "2073636f72696e67": 4152,
    "207465726d73": 4153,
    "207369676e696e67": 4154,
    "203333": 4155,
    "204e696b697461": 4156,
    "2046696c6174": 4157,
    "2046696c61746f76": 4158,
    "204f7474617761": 4159,
    "203434": 4160,
    "2054726f7068": 4161,
    "2054726f706879": 4162,
    "207374727567676c6564": 4163,
    "2044656b": 4164,
    "2044656b616e": 4165,
    "2044656b616e696368": 4166,
    "2041484c": 4167,
    "2067726f696e": 4168,
    "20416c6c656e": 4169,
    "2074696564": 4170,
    "204d696368": 4171,
    "2068656c706564": 4172,
    "6573746f6e6573": 4173,
    "2061737369737473": 4174,
    "20726f7374": 4175,
    "20726f73746572": 4176,
    "20636f6163686564": 4177,
    "766572616765": 4178,
    "2070657263656e74616765": 4179,
    "206d69676874": 4180,
    "20686974": 4181,
    "207761726d": 4182,
    "2056616e63": 4183,
    "2056616e636f75": 4184,
    "2056616e636f75766572": 4185,
    "20737566666572696e67": 4186,
    "207365656e": 4187,
    "20486f7765766572": 4188,
    "20676f696e67": 4189,
    "204d6343": 4190,
    "204d63436f6e": 4191,
    "204d63436f6e6e": 4192,
    "204d63436f6e6e656c6c": 4193,
    "2032303133": 4194,
    "20536b": 4195,
    "20636f727265": 4196,
    "20636f7272656374": 4197,
    "20686f636b6579": 4198,
    "2073746f70706564": 4199,
    "20696e766f6c76696e67": 4200,
    "20636f6d62696e6174696f6e": 4201,
    "204d6345": 4202,
    "204d63456c": 4203,
    "204d63456c68": 4204,
    "204d63456c68696e6e": 4205,
    "204d63456c68696e6e6579": 4206,
    "206f7267616e697a6174696f6e": 4207,
    "20436f6c6f72": 4208,
    "20436f6c6f726164": 4209,
    "20436f6c6f7261646f": 4210,
    "204176": 4211,
    "204176616c": 4212,
    "204176616c616e63": 4213,
    "204176616c616e636865": 4214,
    "2070726f6365": 4215,
    "2070726f63656564": 4216,
    "2070726f636565646564": 4217,
    "20706f73746564": 4218,
    "20766963746f72696573": 4219,
    "206465666561746564": 4220,
    "206561726e": 4221,
    "2074656e": 4222,
    "207361766573": 4223,
    "2073746172746572": 4224,
    "206c6564": 4225,
    "204d696b65": 4226,
    "206c6f77657374": 4227,
    "203634": 4228,
    "726f67": 4229,
    "666572656e6365": 4230,
    "2043656e7472616c": 4231,
    "20576f6e": 4232,
    "696c766572": 4233,
    "2073746174697374": 4234,
    "2073746174697374696373": 4235,
    "2050656e616c": 4236,
    "2050656e616c7479": 4237,
    "206d696e7573": 4238,
    "20737461746973746963": 4239,
    "20506f73": 4240,
    "204750": 4241,
    "204c6f73736573": 4242,
    "204741": 4243,
    "206a6f696e": 4244,
    "205472": 4245,
    "2072656d6564": 4246,
    "20617374726f6e6f6d79": 4247,
    "2048656a": 4248,
    "2048656a6461": 4249,
    "20537472616c": 4250,
    "20537472616c6d616e": 4251,
    "204c6570": 4252,
    "204c6570697374": 4253,
    "204c65706973746f": 4254,
    "20436f6d6d6f64": 4255,
    "20436f6d6d6f646f7265": 4256,
    "207265706c616365": 4257,
    "204d617274": 4258,
    "204d617274696e65": 4259,
    "204d617274696e656b": 4260,
    "204974616c": 4261,
    "204974616c69616e": 4262,
    "2042656c766564": 4263,
    "2042656c766564657265": 4264,
    "2041706f7374": 4265,
    "2041706f73746f6c6963": 4266,
    "2050616c": 4267,
    "2050616c616365": 4268,
    "20313537": 4269,
    "2031353830": 4270,
    "696e6f": 4271,
    "2063726564": 4272,
    "206372656469746564": 4273,
    "2043616c656e646172": 4274,
    "205265666f726d": 4275,
    "20477265676f7279": 4276,
    "2070726f6d756c": 4277,
    "2070726f6d756c67": 4278,
    "2031353832": 4279,
    "20417374726f6e6f6d": 4280,
    "205661746963616e61": 4281,
    "204f6273657276": 4282,
    "204f627365727661746f7279": 4283,
    "20466f7572": 4284,
    "20617374726f6e6f6d6963616c": 4285,
    "20636f6e6669726d": 4286,
    "20636f6e6669726d6174696f6e": 4287,
    "206d6f74": 4288,
    "206d6f7475": 4289,
    "2070726f70": 4290,
    "2070726f707269": 4291,
    "2070726f7072696f": 4292,
    "205574": 4293,
    "206d7973746963": 4294,
    "206d7973746963616d": 4295,
    "2031383931": 4296,
    "6f7068": 4297,
    "204a6573": 4298,
    "61746963": 4299,
    "20436f6c6c65": 4300,
    "20436f6c6c656765": 4301,
    "20657870657274": 4302,
    "206f62736572766174696f6e": 4303,
    "204967": 4304,
    "2049676e": 4305,
    "2049676e617a": 4306,
    "2049676e617a696f": 4307,
    "2044616e74": 4308,
    "2044616e7469": 4309,
    "676961": 4310,
    "697263756c6172": 4311,
    "206d6172626c65": 4312,
    "2063656e747572": 4313,
    "2063656e747572696573": 4314,
    "204d6772": 4315,
    "20426173": 4316,
    "20426173696c": 4317,
    "20426173696c696361": 4318,
    "205649": 4319,
    "20617070726f76": 4320,
    "20617070726f76616c": 4321,
    "20736569736d": 4322,
    "2070656e64": 4323,
    "2070656e64756c": 4324,
    "2070656e64756c756d": 4325,
    "20333030": 4326,
    "20343030": 4327,
    "20313832": 4328,
    "2031383231": 4329,
    "2044656e7a61": 4330,
    "205061726973": 4331,
    "206571756174": 4332,
    "2065717561746f7269616c": 4333,
    "2074656c6573636f7065": 4334,
    "20466174686572": 4335,
    "20746f77657273": 4336,
    "204368617274": 4337,
    "2053756e6469616c": 4338,
    "206465636f72": 4339,
    "206465636f7261746564": 4340,
    "2066726573": 4341,
    "2066726573636f": 4342,
    "2066726573636f6573": 4343,
    "20616e656d": 4344,
    "20616e656d6f7363": 4345,
    "20616e656d6f73636f7065": 4346,
    "69786564": 4347,
    "204d61726961": 4348,
    "204d6172696168": 4349,
    "207469746c6564": 4350,
    "20526963": 4351,
    "2073657373696f6e": 4352,
    "20706f6c6974": 4353,
    "20706f6c69746963616c": 4354,
    "20676f64": 4355,
    "20676f6473": 4356,
    "204567": 4357,
    "20456779": 4358,
    "204567797074": 4359,
    "2064656974696573": 4360,
    "756c6c": 4361,
    "20466572": 4362,
    "20456779707469616e": 4363,
    "2043756c6c": 4364,
    "2043756c6c656e": 4365,
    "657a": 4366,
    "204665726e": 4367,
    "204665726e616e64": 4368,
    "204665726e616e64657a": 4369,
    "20646976696e65": 4370,
    "2073686970": 4371,
    "2041746c": 4372,
    "2041746c616e74": 4373,
    "2068756d616e": 4374,
    "69616e73": 4375,
    "20456779707469616e73": 4376,
    "206465697479": 4377,
    "2041746c616e7461": 4378,
    "20676f6464": 4379,
    "20676f6464657373": 4380,
    "2074656d70": 4381,
    "206d797468": 4382,
    "20696d706f7274": 4383,
    "20e28094": 4384,
    "20696d": 4385,
    "696c6d": 4386,
    "6976657273": 4387,
    "646f6d": 4388,
    "2066696c6d": 4389,
    "204572": 4390,
    "2045727a": 4391,
    "2045727a686572": 4392,
    "2045727a6865727a": 4393,
    "2045727a6865727a6f67": 4394,
    "20696d706f7274616e74": 4395,
    "20416d756e": 4396,
    "20486f72": 4397,
    "204b696e67": 4398,
    "204b696e67646f6d": 4399,
    "20726974": 4400,
    "756d616e73": 4401,
    "2062656c6965766564": 4402,
    "203838": 4403,
    "2046657264": 4404,
    "2046657264696e": 4405,
    "2046657264696e616e64": 4406,
    "204d6178": 4407,
    "2062656c696566": 4408,
    "2072656c6967": 4409,
    "2072656c6967696f6e": 4410,
    "2074656d706c6573": 4411,
    "2068756d616e73": 4412,
    "787473": 4413,
    "20486f727573": 4414,
    "2064657363726962": 4415,
    "206d6d": 4416,
    "20726570726573656e746564": 4417,
    "20496e646961": 4418,
    "20726f6c6573": 4419,
    "206e6174757265": 4420,
    "20696e63686573": 4421,
    "204c696768746e696e67": 4422,
    "206372656174696f6e": 4423,
    "206f6674": 4424,
    "206f6674656e": 4425,
    "207465787473": 4426,
    "6272": 4427,
    "206170706561726564": 4428,
    "20536176": 4429,
    "20536176616e6e": 4430,
    "20536176616e6e6168": 4431,
    "207368697073": 4432,
    "2067756e73": 4433,
    "20536f6d65": 4434,
    "796e": 4435,
    "20776f7273": 4436,
    "20666f726d73": 4437,
    "2074726164": 4438,
    "20747261646974696f6e": 4439,
    "206b696e6773": 4440,
    "6574696d6573": 4441,
    "626f": 4442,
    "20626c6f636b": 4443,
    "2046696e67616c": 4444,
    "20646573637269626564": 4445,
    "20537269": 4446,
    "204c616e6b": 4447,
    "617261": 4448,
    "6174696f6e73686970": 4449,
    "2050656e6775696e73": 4450,
    "2073796d": 4451,
    "61746f72": 4452,
    "2072697475616c73": 4453,
    "204174656e": 4454,
    "2063756c74": 4455,
    "20696d61676573": 4456,
    "2077726974": 4457,
    "20736f6369657479": 4458,
    "636c": 4459,
    "206d6f6e6974": 4460,
    "206d6f6e69746f7273": 4461,
    "2062726f74686572": 4462,
    "207368656c6c": 4463,
    "686177": 4464,
    "20556e6976657273": 4465,
    "204b68": 4466,
    "206f7468657273": 4467,
    "20676f64646573736573": 4468,
    "206d616174": 4469,
    "204243": 4470,
    "68656973746963": 4471,
    "207265616c6d": 4472,
    "204f736972": 4473,
    "204f7369726973": 4474,
    "20736b79": 4475,
    "65726e": 4476,
    "6d6564": 4477,
    "726974": 4478,
    "6f6f64": 4479,
    "76657279": 4480,
    "20726f6164": 4481,
    "72696c6c": 4482,
    "2069726f6e636c": 4483,
    "2069726f6e636c6164": 4484,
    "2063726577": 4485,
    "2041757374": 4486,
    "2061726d6f72": 4487,
    "206b67": 4488,
    "20636f6e6e6563746564": 4489,
    "20446573": 4490,
    "6562": 4491,
    "617269616e": 4492,
    "2072656c6174696f6e73686970": 4493,
    "204b6172": 4494,
    "6a65637473": 4495,
    "20756e6976657273": 4496,
    "63686f6c617273": 4497,
    "6172616f68": 4498,
    "206d79746873": 4499,
    "2073796d62": 4500,
    "2049736973": 4501,
    "206465706963": 4502,
    "206b696e67": 4503,
    "20736f6d6574696d6573": 4504,
    "2063726561746f72": 4505,
    "2074656d706c65": 4506,
    "6966657374": 4507,
    "2073617973": 4508,
    "203731": 4509,
    "2042756c6c": 4510,
    "2042756c6c6f63": 4511,
    "2042756c6c6f6368": 4512,
    "207072696d": 4513,
    "20476f64": 4514,
    "6e616c6c": 4515,
    "20576565": 4516,
    "20706572666f726d616e6365": 4517,
    "6173746963": 4518,
    "2063616e63": 4519,
    "2063616e636572": 4520,
    "20534d": 4521,
    "20534d53": 4522,
    "20666f726d6564": 4523,
    "2070686172616f68": 4524,
    "20636f6d62696e6174696f6e73": 4525,
    "204174656e69736d": 4526,
    "206561727468": 4527,
    "20636861": 4528,
    "206368616f73": 4529,
    "206d616e6966657374": 4530,
    "656d626c65": 4531,
    "206c6974746c65": 4532,
    "20416c74686f756768": 4533,
    "206576657279": 4534,
    "204e656272": 4535,
    "204e65627261736b": 4536,
    "204e65627261736b61": 4537,
    "2042726964": 4538,
    "757272": 4539,
    "20636f6d6d756e": 4540,
    "206661696c": 4541,
    "707473": 4542,
    "20616374696e67": 4543,
    "20737465": 4544,
    "696e6174696f6e": 4545,
    "206e69676874": 4546,
    "204d616c6c": 4547,
    "204d616c6c6f7279": 4548,
    "206d65616e73": 4549,
    "2054617474": 4550,
    "20546174746e616c6c": 4551,
    "20636c65": 4552,
    "204475": 4553,
    "20576565686177": 4554,
    "205765656861776b": 4555,
    "205765656861776b656e": 4556,
    "20636f6e6365": 4557,
    "204c616e6b61": 4558,
    "766973696f6e": 4559,
    "20746872696c6c": 4560,
    "20746872696c6c6572": 4561,
    "6c79776f": 4562,
    "6c79776f6f64": 4563,
    "756b": 4564,
    "206f70706f73": 4565,
    "206f70706f73697465": 4566,
    "204b68616e": 4567,
    "206163636f7264696e67": 4568,
    "6f736d": 4569,
    "2049484c": 4570,
    "657273686970": 4571,
    "207363686f6c617273": 4572,
    "2048756e67": 4573,
    "2048756e67617269616e": 4574,
    "204b61726c": 4575,
    "2062656c69656673": 4576,
    "2068696572": 4577,
    "206f626a65637473": 4578,
    "20617267": 4579,
    "20476f6473": 4580,
    "e1b9": 4581,
    "e1b9af": 4582,
    "2066616c": 4583,
    "206465706963746564": 4584,
    "20706c61636573": 4585,
    "796e6173746963": 4586,
    "2070616e74": 4587,
    "20706174726f6e": 4588,
    "206261": 4589,
    "204672616e": 4590,
    "617265": 4591,
    "2061747461636b": 4592,
    "205065": 4593,
    "616c656e74": 4594,
    "2077726974696e67": 4595,
    "2073747265": 4596,
    "2048696768": 4597,
    "2074726176656c": 4598,
    "20427269646765": 4599,
    "2042726964676570": 4600,
    "20427269646765706f7274": 4601,
    "203338": 4602,
    "2031393836": 4603,
    "2065787072657373": 4604,
    "20636173": 4605,
    "20636173656d": 4606,
    "2047656f72676961": 4607,
    "2062726965": 4608,
    "206272696566": 4609,
    "2042726974": 4610,
    "20426168": 4611,
    "20617474656d7074": 4612,
    "6374696e67": 4613,
    "206c6179": 4614,
    "20736f6c": 4615,
    "20746f72": 4616,
    "20746f72706564": 4617,
    "20746f727065646f": 4618,
    "20747269": 4619,
    "20646966666963756c74": 4620,
    "75636564": 4621,
    "20616972": 4622,
    "20526f79": 4623,
    "20576562": 4624,
    "2057656262": 4625,
    "656479": 4626,
    "2059656172": 4627,
    "20686f7374": 4628,
    "20426172": 4629,
    "61726368": 4630,
    "20616374696f6e73": 4631,
    "20656d6572676564": 4632,
    "696e6974696f6e": 4633,
    "2066756e64": 4634,
    "2048617274": 4635,
    "204861727466": 4636,
    "2048617274666f7264": 4637,
    "206f66666572": 4638,
    "206465616c657273686970": 4639,
    "205465": 4640,
    "20636f6e74616374": 4641,
    "65737473": 4642,
    "72656164": 4643,
    "2062617474": 4644,
    "2041757374726f": 4645,
    "20776f72736869": 4646,
    "2044656974696573": 4647,
    "207068656e": 4648,
    "207068656e6f6d656e": 4649,
    "207068656e6f6d656e61": 4650,
    "697374696373": 4651,
    "6c7564": 4652,
    "20757375616c6c79": 4653,
    "206265696e6773": 4654,
    "206ee1b9af": 4655,
    "206ee1b9af72": 4656,
    "206170706c": 4657,
    "206170706c696564": 4658,
    "20706572736f6e6966696564": 4659,
    "20696e7374616e6365": 4660,
    "20776f7273686970": 4661,
    "2072756c": 4662,
    "204174756d": 4663,
    "20636f736d": 4664,
    "20636f736d6f73": 4665,
    "2044756174": 4666,
    "6572617279": 4667,
    "2065706974": 4668,
    "20657069746865": 4669,
    "20747261646974696f6e616c": 4670,
    "6b68656e": 4671,
    "20617373697374": 4672,
    "796c": 4673,
    "2050656f706c65": 4674,
    "2032303135": 4675,
    "206c6f7665": 4676,
    "20737472656574": 4677,
    "20656c646572": 4678,
    "2048696768776179": 4679,
    "6f6d696e67": 4680,
    "20696e74657273": 4681,
    "203932": 4682,
    "20726f757465": 4683,
    "206d696c6573": 4684,
    "20666172": 4685,
    "6b696e": 4686,
    "20636173656d617465": 4687,
    "20626c6f636b616465": 4688,
    "206661696c6564": 4689,
    "73686970": 4690,
    "6e6579": 4691,
    "20746f6e73": 4692,
    "2076657274": 4693,
    "207370656564": 4694,
    "6f7473": 4695,
    "2062726965666c79": 4696,
    "207072696d617279": 4697,
    "20666f7265": 4698,
    "20666f726569676e": 4699,
    "2061626c65": 4700,
    "75617279": 4701,
    "20686f72": 4702,
    "203530": 4703,
    "72616d": 4704,
    "2061726d6f726564": 4705,
    "20626f77": 4706,
    "20706f756e6473": 4707,
    "666f7274": 4708,
    "2074696465": 4709,
    "204e6168": 4710,
    "204e6168616e74": 4711,
    "20737472": 4712,
    "3530": 4713,
    "205068": 4714,
    "7964": 4715,
    "656e6e": 4716,
    "204a6163": 4717,
    "204a61637175": 4718,
    "204a61637175656c": 4719,
    "204a61637175656c696e65": 4720,
    "2061637472657373": 4721,
    "2032303036": 4722,
    "20556e697665727365": 4723,
    "2070616765": 4724,
    "2070616765616e74": 4725,
    "20636f6d6d756e6963": 4726,
    "20556e6976657273697479": 4727,
    "20636f6d6d657263": 4728,
    "20636f6d6d65726369616c": 4729,
    "20486f757365": 4730,
    "20486f75736566756c": 4731,
    "20486f75736566756c6c": 4732,
    "204177617264": 4733,
    "204b69636b": 4734,
    "726f7373": 4735,
    "20426f6c": 4736,
    "20426f6c6c79776f6f64": 4737,
    "204261687261696e": 4738,
    "204d616c": 4739,
    "2043616e6164": 4740,
    "20696e6475": 4741,
    "20696e6475737472": 4742,
    "20696e647573747279": 4743,
    "2072657669657773": 4744,
    "2052616a": 4745,
    "6861": 4746,
    "68657265": 4747,
    "2073616e": 4748,
    "2073616e6374": 4749,
    "20616e696d616c73": 4750,
    "206f6e6573": 4751,
    "657274": 4752,
    "626573": 4753,
    "205768616c": 4754,
    "205768616c657273": 4755,
    "20536162": 4756,
    "20536162726573": 4757,
    "6261636b": 4758,
    "6f75676874": 4759,
    "6d656469": 4760,
    "20626174746c6573": 4761,
    "636f6e": 4762,
    "20637275": 4763,
    "206372756973": 4764,
    "206372756973657273": 4765,
    "2073697374657273": 4766,
    "20726172": 4767,
    "20726172656c79": 4768,
    "20636861726163746572697374696373": 4769,
    "2067726f757073": 4770,
    "2073796d626f6c": 4771,
    "20736f6c6172": 4772,
    "697a65": 4773,
    "20596574": 4774,
    "20706f6c7974": 4775,
    "2045677970746f6c6f67": 4776,
    "2077686572656173": 4777,
    "206d616c65": 4778,
    "20636f6e6365707473": 4779,
    "20756e697665727365": 4780,
    "207065727370": 4781,
    "207065727370656374": 4782,
    "2050657269": 4783,
    "20506572696f64": 4784,
    "206963": 4785,
    "2069636f6e": 4786,
    "2069636f6e6f6772617068": 4787,
    "20726570726573656e7473": 4788,
    "20536574": 4789,
    "204d616e79": 4790,
    "2048656e": 4791,
    "2070616e746865": 4792,
    "2070616e7468656f6e": 4793,
    "20696e746572616374": 4794,
    "20616273": 4795,
    "2070726965737473": 4796,
    "2070726f6d696e": 4797,
    "2066756e6572617279": 4798,
    "205074": 4799,
    "20696e68": 4800,
    "20696e686162": 4801,
    "2048617468": 4802,
    "20486174686f72": 4803,
    "206d616e69666573746174696f6e73": 4804,
    "63726574": 4805,
    "206d6f6e6f74": 4806,
    "206d756d": 4807,
    "206d756d6d": 4808,
    "20656e67696e65": 4809,
    "206d69786564": 4810,
    "68616d": 4811,
    "207075726368617365": 4812,
    "206578697374656e6365": 4813,
    "20646f6d": 4814,
    "20776f6f64": 4815,
    "20776f6f64656e": 4816,
    "2068696768776179": 4817,
    "20313531": 4818,
    "20333835": 4819,
    "7572616c": 4820,
    "20636f6e63757272": 4821,
    "204d6f72": 4822,
    "204e44": 4823,
    "20636f756e": 4824,
    "2072756e": 4825,
    "206167726f756e64": 4826,
    "2031383635": 4827,
    "65727665": 4828,
    "20446563656d626572": 4829,
    "206d6572": 4830,
    "2063617267": 4831,
    "20636172676f": 4832,
    "6c6f776c79": 4833,
    "20656d62": 4834,
    "206569676874": 4835,
    "20656c6576": 4836,
    "2077656967": 4837,
    "2077656967686564": 4838,
    "207368656c6c73": 4839,
    "20726169736564": 4840,
    "2072656475636564": 4841,
    "20636c656172": 4842,
    "20706173736564": 4843,
    "2072657665616c6564": 4844,
    "656e657373": 4845,
    "2062726f6b65": 4846,
    "626f6174": 4847,
    "206d6973736564": 4848,
    "2073747275636b": 4849,
    "20776f756e64": 4850,
    "20313030": 4851,
    "2073746174696f6e6564": 4852,
    "205068696c": 4853,
    "20537964": 4854,
    "205379646e6579": 4855,
    "69626c79": 4856,
    "205072": 4857,
    "20426179": 4858,
    "617065": 4859,
    "204c616e6b616e": 4860,
    "2074656c65766973696f6e": 4861,
    "20636f6d656479": 4862,
    "20494946": 4863,
    "2049494641": 4864,
    "2053757070": 4865,
    "2053616a": 4866,
    "2053616a6964": 4867,
    "77616c": 4868,
    "2068696768657374": 4869,
    "2067726f7373": 4870,
    "206d6f64656c696e67": 4871,
    "20747261696e696e67": 4872,
    "2061636365": 4873,
    "206163636570746564": 4874,
    "7961": 4875,
    "686d": 4876,
    "20726f6d": 4877,
    "616e636572": 4878,
    "20747572": 4879,
    "20736578": 4880,
    "20616c6f6e6773696465": 4881,
    "20706172746963756c61726c79": 4882,
    "202e2e": 4883,
    "202e2e2e": 4884,
    "206d657373": 4885,
    "20636c6f7365": 4886,
    "206d7574": 4887,
    "6163746564": 4888,
    "204d756d62": 4889,
    "204d756d626169": 4890,
    "2070726f74656374696f6e": 4891,
    "20496e6469616e": 4892,
    "206177617264": 4893,
    "2054656d": 4894,
    "20636f6e7472": 4895,
    "69657374": 4896,
    "20707265636564": 4897,
    "7362": 4898,
    "20546f72": 4899,
    "20546f726f6e74": 4900,
    "20546f726f6e746f": 4901,
    "2054616d70": 4902,
    "2054616d7061": 4903,
    "20426f7374": 4904,
    "20426f73746f6e": 4905,
    "204275": 4906,
    "2063686f7365": 4907,
    "696e74": 4908,
    "20646961": 4909,
    "2064696167": 4910,
    "20646961676e": 4911,
    "20636f6d656261636b": 4912,
    "6972696e67": 4913,
    "20636f616368": 4914,
    "206a6f696e6564": 4915,
    "65636b": 4916,
    "204255": 4917,
    "2045617374": 4918,
    "2031393931": 4919,
    "20756e6966": 4920,
    "2076657279": 4921,
    "6e73": 4922,
    "206f76": 4923,
    "6f74696f6e": 4924,
    "206472656164": 4925,
    "2064726561646e": 4926,
    "2064726561646e6f75676874": 4927,
    "20626174746c6573686970": 4928,
    "2063656e74696d": 4929,
    "20666c65": 4930,
    "20776f7273686970706564": 4931,
    "61747572616c": 4932,
    "2072656c6174696f6e7368697073": 4933,
    "65727365": 4934,
    "206d7973746572": 4935,
    "206d7973746572696f7573": 4936,
    "20617267756564": 4937,
    "2077726974696e6773": 4938,
    "20706f6c797468656973746963": 4939,
    "2066756e64616d656e74": 4940,
    "2066756e64616d656e74616c": 4941,
    "2045677970746f6c6f67697374": 4942,
    "20686965726f67": 4943,
    "20686965726f676c79": 4944,
    "20686965726f676c797068": 4945,
    "20726570726573656e74696e67": 4946,
    "2064697374696e67": 4947,
    "2064697374696e6775": 4948,
    "2064656d6f6e73": 4949,
    "2072697475616c": 4950,
    "20646566696e6974696f6e": 4951,
    "20737567": 4952,
    "20737567676573": 4953,
    "20737567676573746564": 4954,
    "6d616e6e": 4955,
    "20736f75": 4956,
    "20736f756c": 4957,
    "20616e696d616c": 4958,
    "20616e7468726f70": 4959,
    "20426563": 4960,
    "2042656361757365": 4961,
    "20726567696f6e73": 4962,
    "696669636174696f6e": 4963,
    "20726f79": 4964,
    "20726f79616c": 4965,
    "206162736f72": 4966,
    "206162736f7262": 4967,
    "206162736f72626564": 4968,
    "20656c697465": 4969,
    "20706f70756c": 4970,
    "20706f70756c616365": 4971,
    "2073796d626f6c6963": 4972,
    "204e696c65": 4973,
    "2066657274": 4974,
    "20626f64696573": 4975,
    "6172696573": 4976,
    "756465": 4977,
    "2066756c6c79": 4978,
    "20756e6465727374616e64": 4979,
    "2050746168": 4980,
    "2074687573": 4981,
    "206c696e6b6564": 4982,
    "206477": 4983,
    "206477656c6c": 4984,
    "2073746174756573": 4985,
    "20546865626573": 4986,
    "206570697468657473": 4987,
    "6e656164": 4988,
    "20706572696f6473": 4989,
    "204b68656e": 4990,
    "2073796e63726574": 4991,
    "686569736d": 4992,
    "20416b68656e": 4993,
    "20416b68656e6174": 4994,
    "20416b68656e6174656e": 4995,
    "6c75646573": 4996,
    "20486f726e": 4997,
    "20486f726e756e": 4998,
    "20486f726e756e67": 4999,
    "2065717561746564": 5000,
    "206c696f6e": 5001,
    "6f727068": 5002,
    "2061707065617273": 5003,
    "20536f756e64": 5004,
    "20446176": 5005,
    "204461766964": 5006,
    "206b6579": 5007,
    "2072656d6978": 5008,
    "20626567696e73": 5009,
    "63696e67": 5010,
    "6c6572": 5011,
    "20616363657074": 5012,
    "2042696c6c": 5013,
    "20666f6c": 5014,
    "20666f6c6c6f77": 5015,
    "206465706c6f79": 5016,
    "206461696c": 5017,
    "206461696c79": 5018,
    "20686170": 5019,
    "2068617070656e": 5020,
    "2073686f776e": 5021,
    "200a200a200a200a": 5022,
    "205779": 5023,
    "2057796f6d696e67": 5024,
    "205759": 5025,
    "2057594f": 5026,
    "20636f6e74696e756573": 5027,
    "20656e6473": 5028,
    "20696e74657273656374": 5029,
    "206661726d": 5030,
    "206661726d6c616e64": 5031,
    "20636f6e63757272656e6379": 5032,
    "7465656e": 5033,
    "20656e74657273": 5034,
    "7265656b": 5035,
    "696e63": 5036,
    "207261696c": 5037,
    "203431": 5038,
    "20657870726573736564": 5039,
    "66666963": 5040,
    "206964656e746966696564": 5041,
    "20636f6e6e656374696e67": 5042,
    "20646566696e65": 5043,
    "206465636f6d6d697373696f6e6564": 5044,
    "204861": 5045,
    "2048616974": 5046,
    "204861697469": 5047,
    "20736561": 5048,
    "2031383639": 5049,
    "2064656c69766572": 5050,
    "204d6964": 5051,
    "206265616d": 5052,
    "20766572746963616c": 5053,
    "20737465616d": 5054,
    "20656e67696e6573": 5055,
    "2067656e6572": 5056,
    "20666c75": 5057,
    "206b6e6f7473": 5058,
    "206d7068": 5059,
    "20706f727473": 5060,
    "2053657276": 5061,
    "2053657276696365": 5062,
    "204272697461696e": 5063,
    "2064657374696e6174696f6e": 5064,
    "206c6f": 5065,
    "656e67657273": 5066,
    "20486f6c79": 5067,
    "20736c6f776c79": 5068,
    "2072616d": 5069,
    "20417573747269": 5070,
    "2062656361757365": 5071,
    "2077656e74": 5072,
    "20526963686d": 5073,
    "20526963686d6f6e64": 5074,
    "2062726f7468657273": 5075,
    "2068756c6c": 5076,
    "20c2b0": 5077,
    "206c6179657273": 5078,
    "2070696c": 5079,
    "2070696572": 5080,
    "20737465726e": 5081,
    "65746564": 5082,
    "202b": 5083,
    "2042726f6f6b65": 5084,
    "206d6f756e": 5085,
    "206d6964646c65": 5086,
    "20383030": 5087,
    "20313130": 5088,
    "6976616c656e74": 5089,
    "20706f77": 5090,
    "206c65616b": 5091,
    "20636972": 5092,
    "2063697263": 5093,
    "6d656e746564": 5094,
    "20666c6167": 5095,
    "20646566656e736573": 5096,
    "207072657373": 5097,
    "2069726f6e636c616473": 5098,
    "2061727269": 5099,
    "2061727269766564": 5100,
    "61636c6573": 5101,
    "204e6f6e": 5102,
    "206f62737472": 5103,
    "206f62737472756374696f6e": 5104,
    "206f62737472756374696f6e73": 5105,
    "207375636365737366756c6c79": 5106,
    "20526f79616c": 5107,
    "7567": 5108,
    "2061676772657373": 5109,
    "20436f6d6d616e646572": 5110,
    "69616d": 5111,
    "20412e": 5112,
    "2064656d6f6e": 5113,
    "20736f7274": 5114,
    "20736f72746965": 5115,
    "206d65616e74": 5116,
    "2053616d": 5117,
    "20462e": 5118,
    "205371756164726f6e": 5119,
    "6f6467": 5120,
    "2073696e6b": 5121,
    "2067756e626f6174": 5122,
    "206c6f6f6b": 5123,
    "2070656e6574": 5124,
    "2070656e657472": 5125,
    "204461686c": 5126,
    "204461686c67": 5127,
    "204461686c6772656e": 5128,
    "616e636564": 5129,
    "206e6f6e65": 5130,
    "6973746564": 5131,
    "697a6174696f6e": 5132,
    "20656173": 5133,
    "204e6f74": 5134,
    "20506172726f": 5135,
    "20506172726f74": 5136,
    "20506172726f7474": 5137,
    "61776e": 5138,
    "20626574746572": 5139,
    "2073756273657175656e746c79": 5140,
    "6f6d73": 5141,
    "206d6f64656c": 5142,
    "2077696e6e6572": 5143,
    "206772616475": 5144,
    "20636f6d6d756e69636174696f6e": 5145,
    "207265706f72": 5146,
    "207265706f72746572": 5147,
    "206472": 5148,
    "7572646572": 5149,
    "20676c616d": 5150,
    "20676c616d6f72": 5151,
    "20676c616d6f726f7573": 5152,
    "20656e73": 5153,
    "20656e73656d626c65": 5154,
    "2052616365": 5155,
    "2042657374": 5156,
    "20416374": 5157,
    "2041637472657373": 5158,
    "204e6164": 5159,
    "204e616469": 5160,
    "204e6164696164": 5161,
    "204e616469616477616c": 5162,
    "204e616469616477616c61": 5163,
    "2067726f7373696e67": 5164,
    "2043616e616469616e": 5165,
    "6173697a6564": 5166,
    "206d6564": 5167,
    "204261727279": 5168,
    "756b68": 5169,
    "2043686f70": 5170,
    "2043686f707261": 5171,
    "204e4454": 5172,
    "204e445456": 5173,
    "2052616a6565": 5174,
    "2052616a656576": 5175,
    "204d6173616e64": 5176,
    "2070726563696f7573": 5177,
    "20726f6d616e74": 5178,
    "20726f6d616e746963": 5179,
    "204a61": 5180,
    "205265646966": 5181,
    "20526564696666": 5182,
    "205265646966662e": 5183,
    "205265646966662e636f6d": 5184,
    "204468": 5185,
    "617572": 5186,
    "206c69746572616c": 5187,
    "686179": 5188,
    "204b756d": 5189,
    "204b756d6172": 5190,
    "2041627261": 5191,
    "204162726168616d": 5192,
    "20e282": 5193,
    "20e282b9": 5194,
    "2062696c6c": 5195,
    "2062696c6c696f6e": 5196,
    "206e65676174697665": 5197,
    "2044657370697465": 5198,
    "204177": 5199,
    "20417761726473": 5200,
    "204b6170": 5201,
    "656e63696e67": 5202,
    "204672616e63": 5203,
    "204672616e636973": 5204,
    "696566": 5205,
    "205456": 5206,
    "697363": 5207,
    "2066656172": 5208,
    "2046696c6d": 5209,
    "206769766573": 5210,
    "6f74697665": 5211,
    "2044686177": 5212,
    "2044686177616e": 5213,
    "6c79696e67": 5214,
    "203430": 5215,
    "206f6273": 5216,
    "20656e646564": 5217,
    "20647261776e": 5218,
    "2073616e637475617279": 5219,
    "20666c6f6f64": 5220,
    "20636572656d": 5221,
    "20636572656d6f6e": 5222,
    "20636572656d6f6e696573": 5223,
    "204b61": 5224,
    "20636f6e74656d": 5225,
    "20617370656374": 5226,
    "206d616e61676564": 5227,
    "656c66": 5228,
    "656e7468": 5229,
    "6f706f6c": 5230,
    "204c656166": 5231,
    "204c65616673": 5232,
    "2042756666": 5233,
    "2042756666616c": 5234,
    "2042756666616c6f": 5235,
    "20466c696e74": 5236,
    "2031393837": 5237,
    "2056616c": 5238,
    "20646961676e6f736564": 5239,
    "20617373697374616e74": 5240,
    "20546572": 5241,
    "205465727279": 5242,
    "206e65636b": 5243,
    "696d6564": 5244,
    "205465616d": 5245,
    "207375706572696f72": 5246,
    "203934": 5247,
    "696e6564": 5248,
    "20636f6e6365726e": 5249,
    "20696e73": 5250,
    "20696d6d656469": 5251,
    "2043616e636572": 5252,
    "20696c6c": 5253,
    "20756e69666f726d": 5254,
    "20416e6f74686572": 5255,
    "20436c65": 5256,
    "20436c6576656c": 5257,
    "20436c6576656c616e64": 5258,
    "2070726f6d6f74": 5259,
    "20476572": 5260,
    "204765726d616e": 5261,
    "2042726974697368": 5262,
    "206d7574696e": 5263,
    "206d7574696e79": 5264,
    "2043617474": 5265,
    "20436174746172": 5266,
    "204361747461726f": 5267,
    "204f7472616e74": 5268,
    "204f7472616e746f": 5269,
    "2073757270": 5270,
    "2061726d616d656e74": 5271,
    "2063656e74696d65746572": 5272,
    "7469": 5273,
    "7665726564": 5274,
    "20666c656574": 5275,
    "20486f727468": 5276,
    "20486f72746879": 5277,
    "20626174746c657368697073": 5278,
    "207468657265666f7265": 5279,
    "2070726568": 5280,
    "206e61747572616c": 5281,
    "6561736564": 5282,
    "2033313030": 5283,
    "206869657261726368": 5284,
    "2064697665727365": 5285,
    "2076696577": 5286,
    "20636f75727365": 5287,
    "20736872": 5288,
    "20726561736f6e73": 5289,
    "206c6162": 5290,
    "2077686f7365": 5291,
    "6b6e": 5292,
    "20776f726473": 5293,
    "20686965726f676c79706873": 5294,
    "20747261697473": 5295,
    "20646976696e": 5296,
    "207369676e73": 5297,
    "204f74686572": 5298,
    "2066616c636f6e": 5299,
    "20636f62": 5300,
    "20636f627261": 5301,
    "2064697374696e67756973686564": 5302,
    "206964656173": 5303,
    "206d656e74696f6e": 5304,
    "204173736d616e6e": 5305,
    "206d7974686f6c6f6779": 5306,
    "207065727370656374697665": 5307,
    "206d61696e74": 5308,
    "206d61696e7461696e6564": 5309,
    "2050726564": 5310,
    "2050726564796e6173746963": 5311,
    "206561726c69657374": 5312,
    "20726573656d626c65": 5313,
    "2069636f6e6f6772617068696573": 5314,
    "20656e766973696f6e": 5315,
    "6f74686573": 5316,
    "20696e646570": 5317,
    "20696e646570656e64": 5318,
    "20696e646570656e64656e74": 5319,
    "2070686172616f6873": 5320,
    "2076656e": 5321,
    "20736f6e": 5322,
    "2061646f70": 5323,
    "2064696666": 5324,
    "206469666665726564": 5325,
    "206578616d70": 5326,
    "207479706573": 5327,
    "2070687973": 5328,
    "20706879736963616c": 5329,
    "20726567696f6e": 5330,
    "206e6f74696f6e": 5331,
    "2070726f647563696e67": 5332,
    "206c6976696e67": 5333,
    "2066756e6374696f6e73": 5334,
    "20756e6976657273616c": 5335,
    "2064697372": 5336,
    "20646973727570": 5337,
    "20636f6e7374616e74": 5338,
    "20636f6e7374616e746c79": 5339,
    "20746872656174": 5340,
    "206469736f7264": 5341,
    "206469736f72646572": 5342,
    "20636f6d706f6e": 5343,
    "206f6d": 5344,
    "206f6d6e": 5345,
    "20686f7374696c65": 5346,
    "206669786564": 5347,
    "6176696f72": 5348,
    "20446976696e65": 5349,
    "20636f6e7472617374": 5350,
    "2073756363657373696f6e": 5351,
    "20636f6e74726164": 5352,
    "20636f6e74726164696374": 5353,
    "206d756c746970": 5354,
    "206d756c7469706c6963": 5355,
    "206d756c7469706c6963697479": 5356,
    "2070726f63657373": 5357,
    "207275": 5358,
    "2072756c65": 5359,
    "2070726f6d696e656e74": 5360,
    "2072756c6572": 5361,
    "206a6f75726e": 5362,
    "206a6f75726e6579": 5363,
    "20747265": 5364,
    "2074726561746564": 5365,
    "2054656d70": 5366,
    "207265616c6d73": 5367,
    "20636974696573": 5368,
    "20696d706f7274616e6365": 5369,
    "204e656b": 5370,
    "2054687573": 5371,
    "696c696573": 5372,
    "2073657473": 5373,
    "206d65726765": 5374,
    "20656e6e656164": 5375,
    "6578": 5376,
    "72656d65": 5377,
    "20696e6861626974": 5378,
    "204b68656e7479": 5379,
    "206a7564": 5380,
    "2073796e6372657469736d": 5381,
    "207072616374": 5382,
    "207072616374696365": 5383,
    "20636f77": 5384,
    "20756e6966696564": 5385,
    "20776973": 5386,
    "20776973646f6d": 5387,
    "206c69746572": 5388,
    "206c697465726174757265": 5389,
    "206d6f6e6f7468656973746963": 5390,
    "20616e7468726f706f6d": 5391,
    "20616e7468726f706f6d6f727068": 5392,
    "20696d616765": 5393,
    "20496e746572": 5394,
    "20737461747565": 5395,
    "20636f6d6d616e6473": 5396,
    "206d6f72616c": 5397,
    "61656c": 5398,
    "2053747564": 5399,
    "205374756469": 5400,
    "2053747564696f73": 5401,
    "206173736973746564": 5402,
    "656c6c65": 5403,
    "72617a": 5404,
    "2053616e": 5405,
    "206b6579626f": 5406,
    "206b6579626f61726473": 5407,
    "20706572666f726d696e67": 5408,
    "20686f726e73": 5409,
    "20766f63": 5410,
    "20766f63616c73": 5411,
    "2042696c": 5412,
    "2042696c6c79": 5413,
    "20542e": 5414,
    "616d696c": 5415,
    "696168": 5416,
    "20676f7370": 5417,
    "20676f7370656c": 5418,
    "20616374697669736d": 5419,
    "207075626c69636c79": 5420,
    "6c6966": 5421,
    "20746f6c6572": 5422,
    "2072656164": 5423,
    "206177": 5424,
    "2043726974": 5425,
    "7574696f6e": 5426,
    "696c74": 5427,
    "2047726f": 5428,
    "2074657374": 5429,
    "6f6e79": 5430,
    "2074616c656e74": 5431,
    "20646f6573": 5432,
    "206d616b6573": 5433,
    "207477656e74": 5434,
    "207477656e7479": 5435,
    "626f617264": 5436,
    "6572736f6e": 5437,
    "2061707065616c": 5438,
    "20666f6c6c6f776564": 5439,
    "697073": 5440,
    "616e67696e67": 5441,
    "2073746f7265": 5442,
    "616c6b73": 5443,
    "616e696e67": 5444,
    "2073746570": 5445,
    "2065766572796f6e65": 5446,
    "20737461727473": 5447,
    "2064616e6365": 5448,
    "66756c6c79": 5449,
    "6963696e67": 5450,
    "20676574": 5451,
    "204f726967": 5452,
    "6f63616c": 5453,
    "2074726176656c73": 5454,
    "20696e74657273656374696f6e": 5455,
    "2031393337": 5456,
    "2042616e6e6572": 5457,
    "20436f756e": 5458,
    "20436f756e7479": 5459,
    "206e6f7274": 5460,
    "206e6f72746865": 5461,
    "206e6f72746865617374": 5462,
    "20717569636b6c79": 5463,
    "203332": 5464,
    "20696e7465727365637473": 5465,
    "207369787465656e": 5466,
    "204d6f7272696c6c": 5467,
    "2063726f73": 5468,
    "2063726f73736573": 5469,
    "2050756d": 5470,
    "2050756d70": 5471,
    "2050756d706b696e": 5472,
    "20437265656b": 5473,
    "636b": 5474,
    "2076697369626c65": 5475,
    "20746f77617264": 5476,
    "207261696c726f": 5477,
    "207261696c726f6164": 5478,
    "20766568": 5479,
    "2076656869636c6573": 5480,
    "2074726176656c696e67": 5481,
    "20616e6e75616c": 5482,
    "2061766572616765": 5483,
    "2074726166666963": 5484,
    "2053797374": 5485,
    "2053797374656d": 5486,
    "206d6f62": 5487,
    "20756e6f6666": 5488,
    "203836": 5489,
    "7175617465": 5490,
    "2072656e756d62": 5491,
    "2072656e756d6265726564": 5492,
    "6f75746564": 5493,
    "2072756e6e6572": 5494,
    "20436f6e66656465726163": 5495,
    "20436f6e6665646572616379": 5496,
    "20626c6f636b6164": 5497,
    "20626c6f636b6164657273": 5498,
    "20726561726d6564": 5499,
    "206465706c6f796564": 5500,
    "2072657365727665": 5501,
    "205365766572": 5502,
    "205365766572616c": 5503,
    "2064656c6976657279": 5504,
    "2044657363": 5505,
    "6368616e74": 5506,
    "20476c": 5507,
    "20476c6173": 5508,
    "20476c617367": 5509,
    "20476c6173676f77": 5510,
    "2053636f74": 5511,
    "2053636f746c616e64": 5512,
    "205363616c6573": 5513,
    "6173746564": 5514,
    "756c6c6564": 5515,
    "206465707468": 5516,
    "20746f6e": 5517,
    "20746f6e6e": 5518,
    "20373030": 5519,
    "2063796c": 5520,
    "2063796c696e64": 5521,
    "2063796c696e646572": 5522,
    "20747562": 5523,
    "203939": 5524,
    "203736": 5525,
    "206f70657261746564": 5526,
    "636865": 5527,
    "20737570706c": 5528,
    "204265726d": 5529,
    "204265726d7564": 5530,
    "204265726d756461": 5531,
    "204e617373": 5532,
    "204e6173736175": 5533,
    "206c6f61646564": 5534,
    "2070617373656e67657273": 5535,
    "20626f617264": 5536,
    "2072656e64": 5537,
    "20486f6c796865": 5538,
    "20486f6c7968656164": 5539,
    "20417573747269616e": 5540,
    "2062726967": 5541,
    "61726469": 5542,
    "206c696768": 5543,
    "20737465616d6572": 5544,
    "206c6574746572": 5545,
    "20696e73747275": 5546,
    "20696e737472756374696e67": 5547,
    "2073657474": 5548,
    "20656e646f7273": 5549,
    "204575726f7065": 5550,
    "20636f616c": 5551,
    "2070726f766564": 5552,
    "20636f6e74726f6c6c6564": 5553,
    "206368616e6e": 5554,
    "206368616e6e656c": 5555,
    "206f63637570": 5556,
    "7962": 5557,
    "20627265616b696e67": 5558,
    "20686f70": 5559,
    "656c657373": 5560,
    "206f726465726564": 5561,
    "206c617267656c79": 5562,
    "20636f6e76657273": 5563,
    "20646973706c": 5564,
    "20646973706c61636564": 5565,
    "20686f72697a": 5566,
    "20686f72697a6f6e74": 5567,
    "20313830": 5568,
    "206c61796572": 5569,
    "20766572746963616c6c79": 5570,
    "20696e6e6572": 5571,
    "2077617465726c696e65": 5572,
    "7972616d": 5573,
    "7972616d6964": 5574,
    "2070696c6f7468": 5575,
    "2070696c6f74686f757365": 5576,
    "2070726f746563746564": 5577,
    "2073687574746572": 5578,
    "206d6178696d": 5579,
    "206d6178696d756d": 5580,
    "2062616e646564": 5581,
    "203830": 5582,
    "207069657263696e67": 5583,
    "20626f6c": 5584,
    "20626f6c7473": 5585,
    "206571756976616c656e74": 5586,
    "20313330": 5587,
    "2073706172": 5588,
    "20706f6c65": 5589,
    "204a75": 5590,
    "204a756c79": 5591,
    "20436861726c6573": 5592,
    "20636f6e647563746564": 5593,
    "20747269616c73": 5594,
    "207369676e69666963616e746c79": 5595,
    "697274": 5596,
    "20696e74656e7365": 5597,
    "20636f6d6d656e746564": 5598,
    "20636f6d666f7274": 5599,
    "2021": 5600,
    "20636f6d6d697373696f6e": 5601,
    "20636f6d6d697373696f6e6564": 5602,
    "203232": 5603,
    "20666c616773686970": 5604,
    "207072657373757265": 5605,
    "20656e67616765": 5606,
    "20626c6f636b6164696e67": 5607,
    "206f627374": 5608,
    "206f62737461636c6573": 5609,
    "2074696d": 5610,
    "206d616e6e6572": 5611,
    "65746865": 5612,
    "204361726f6c": 5613,
    "696e61": 5614,
    "2061747461636b696e67": 5615,
    "2077616974": 5616,
    "2057617373": 5617,
    "20576173736177": 5618,
    "2072657472656174": 5619,
    "61746973": 5620,
    "206c61636b": 5621,
    "20616767726573736976": 5622,
    "20616767726573736976656e657373": 5623,
    "207371756164726f6e": 5624,
    "2050616765": 5625,
    "2057696c6c69616d": 5626,
    "2064656d6f6e737472": 5627,
    "2064656d6f6e73747261746564": 5628,
    "2070756c6c": 5629,
    "20636f6d706c657465": 5630,
    "2041646d": 5631,
    "2041646d6972": 5632,
    "2041646d6972616c": 5633,
    "2053616d75": 5634,
    "2041746c616e746963": 5635,
    "20426c6f636b": 5636,
    "20426c6f636b6164696e67": 5637,
    "2070617373696e67": 5638,
    "696e67746f6e": 5639,
    "20636f6e6365616c6564": 5640,
    "2065617379": 5641,
    "207265616368": 5642,
    "2073706f74": 5643,
    "2053686f7274": 5644,
    "2073616e64": 5645,
    "2073616e6462": 5646,
    "2073616e64626172": 5647,
    "2068657273656c66": 5648,
    "206f6e74": 5649,
    "206f6e746f": 5650,
    "207961726473": 5651,
    "206261636b696e67": 5652,
    "726179696e67": 5653,
    "20667261": 5654,
    "2066726167": 5655,
    "20667261676d656e7473": 5656,
    "2070656e657472617465": 5657,
    "20776f756e64696e67": 5658,
    "20706f736974696f6e73": 5659,
    "204f66": 5660,
    "20626164": 5661,
    "206261646c79": 5662,
    "20686f7370": 5663,
    "20686f73706974616c": 5664,
    "20656173696c79": 5665,
    "207072697a65": 5666,
    "206372657773": 5667,
    "207369676e616c": 5668,
    "2064697374616e6365": 5669,
    "2072657461696e6564": 5670,
    "20313530": 5671,
    "20616d6964": 5672,
    "2063616c6962": 5673,
    "2063616c6962657273": 5674,
    "20656c65766174696f6e": 5675,
    "2063757272": 5676,
    "205068696c6164656c70686961": 5677,
    "207072696365": 5678,
    "617469766573": 5679,
    "206c6177": 5680,
    "20706f737369626c79": 5681,
    "207669": 5682,
    "2076696f6c": 5683,
    "796c76": 5684,
    "2044656c": 5685,
    "2044656c6177": 5686,
    "2044656c6177617265": 5687,
    "20547269": 5688,
    "20547269756d": 5689,
    "206170706172": 5690,
    "20677261647561746564": 5691,
    "20646567": 5692,
    "20646567726565": 5693,
    "206d617373": 5694,
    "656c6c696e67": 5695,
    "2061737369676e6d656e74": 5696,
    "20617564": 5697,
    "206175646974696f6e": 5698,
    "206175646974696f6e6564": 5699,
    "2053756a": 5700,
    "2053756a6f79": 5701,
    "204768": 5702,
    "2047686f73": 5703,
    "2047686f7368": 5704,
    "206472616d61": 5705,
    "20416c6164": 5706,
    "20416c6164696e": 5707,
    "6f686974": 5708,
    "207073": 5709,
    "207073796368": 5710,
    "204d7572646572": 5711,
    "206761726e": 5712,
    "206761726e65726564": 5713,
    "20537570706f7274": 5714,
    "20537570706f7274696e67": 5715,
    "206e6f6d": 5716,
    "206e6f6d696e6174696f6e": 5717,
    "2066696c6d73": 5718,
    "20616374726573736573": 5719,
    "204465627574": 5720,
    "2046656d": 5721,
    "2046656d616c65": 5722,
    "2073686f7773": 5723,
    "206772616e64": 5724,
    "20657363": 5725,
    "20657363617065": 5726,
    "20616765": 5727,
    "69747a": 5728,
    "206c616e67": 5729,
    "206c616e6775": 5730,
    "206c6561726e": 5731,
    "206265636f6d696e67": 5732,
    "20486f6c6c79776f6f64": 5733,
    "206d6f766965": 5734,
    "20416374696e67": 5735,
    "206f6666657273": 5736,
    "20726573756c74": 5737,
    "2063726f": 5738,
    "2063726f776e": 5739,
    "64696e67": 5740,
    "206b6e6f77": 5741,
    "61746869": 5742,
    "20446573686d": 5743,
    "20446573686d756b68": 5744,
    "20416e7570": 5745,
    "20416e7570616d61": 5746,
    "204942": 5747,
    "20637269746963616c": 5748,
    "206661696c757265": 5749,
    "204a61616e": 5750,
    "204a61616e65": 5751,
    "204b6168": 5752,
    "204b6168616e": 5753,
    "20416179": 5754,
    "2041617969": 5755,
    "20486169": 5756,
    "206170": 5757,
    "207374617273": 5758,
    "61727468": 5759,
    "65706572": 5760,
    "207475726e696e67": 5761,
    "20637269746963697a6564": 5762,
    "2063616c6c696e67": 5763,
    "204268": 5764,
    "2041726a": 5765,
    "2041726a756e": 5766,
    "2048617368": 5767,
    "20486173686d": 5768,
    "20486173686d69": 5769,
    "2047617572": 5770,
    "20476175726176": 5771,
    "204d616c696e": 5772,
    "204d616c696e69": 5773,
    "20416b73": 5774,
    "20416b73686179": 5775,
    "20776f726c6477696465": 5776,
    "2066696e64": 5777,
    "20706c65": 5778,
    "20706c656173": 5779,
    "2031347468": 5780,
    "205361": 5781,
    "20506164": 5782,
    "20506164756b": 5783,
    "20506164756b6f6e65": 5784,
    "65736861": 5785,
    "204b61706f6f72": 5786,
    "206175746f6d": 5787,
    "616268": 5788,
    "61697961": 5789,
    "206d6167": 5790,
    "206d61676963": 5791,
    "2052616a61": 5792,
    "6f677565": 5793,
    "2063726974696373": 5794,
    "203536": 5795,
    "206665617475726564": 5796,
    "205669636b": 5797,
    "2066696c6d6d": 5798,
    "2066696c6d6d616b": 5799,
    "2066696c6d6d616b6572": 5800,
    "2052616e": 5801,
    "20736174": 5802,
    "204d616c68": 5803,
    "204d616c686f74": 5804,
    "204d616c686f747261": 5805,
    "207374617272696e67": 5806,
    "204a656e6e": 5807,
    "656e67696e67": 5808,
    "6d61": 5809,
    "2072656d61726b6564": 5810,
    "62696e67": 5811,
    "20636f6e7461696e6564": 5812,
    "2070726f6a65637473": 5813,
    "20737461676573": 5814,
    "20446566": 5815,
    "20446566696e6974696f6e": 5816,
    "20566172": 5817,
    "20566172756e": 5818,
    "6572736f6e616c": 5819,
    "2073686172": 5820,
    "206d697373696e67": 5821,
    "206576657279646179": 5822,
    "6179696e67": 5823,
    "207461": 5824,
    "20746175676874": 5825,
    "676574": 5826,
    "2077686f6d": 5827,
    "20736570617261746564": 5828,
    "206d65646961": 5829,
    "20737570706f72746564": 5830,
    "2063617573": 5831,
    "20416e696d": 5832,
    "20416e696d616c73": 5833,
    "205045": 5834,
    "20504554": 5835,
    "2050455441": 5836,
    "204d756e": 5837,
    "20686f727365": 5838,
    "20636f6e73756c": 5839,
    "20436f6c6f6d": 5840,
    "20436f6c6f6d626f": 5841,
    "7068616e74": 5842,
    "2061756374696f6e": 5843,
    "2061756374696f6e6564": 5844,
    "20576f6d616e": 5845,
    "206f757466": 5846,
    "206f757466697473": 5847,
    "20776f7265": 5848,
    "20636865": 5849,
    "20636f6e74656d706f72": 5850,
    "20636f6e74656d706f72617279": 5851,
    "20616d62": 5852,
    "617368696f6e": 5853,
    "20466f7265": 5854,
    "20466f7265766572": 5855,
    "207374656164": 5856,
    "206163636f7264696e676c79": 5857,
    "204579": 5858,
    "20457965": 5859,
    "2072616e6b6564": 5860,
    "20707265636564696e67": 5861,
    "2031393634": 5862,
    "2050697474": 5863,
    "20506974747362": 5864,
    "205069747473627572": 5865,
    "2050697474736275726768": 5866,
    "204d6170": 5867,
    "204d61706c65": 5868,
    "207374616e646f7574": 5869,
    "2073636f726572": 5870,
    "20537570706c65": 5871,
    "20537570706c656d656e74": 5872,
    "20537570706c656d656e74616c": 5873,
    "2053706972": 5874,
    "2053706972697473": 5875,
    "20526f6f6b": 5876,
    "20526f6f6b6965": 5877,
    "7561626c65": 5878,
    "20506c61796572": 5879,
    "616c746564": 5880,
    "20486f6467": 5881,
    "20486f64676b696e": 5882,
    "206c796d": 5883,
    "206c796d7068": 5884,
    "206c796d70686f6d": 5885,
    "206c796d70686f6d61": 5886,
    "2064697365": 5887,
    "2064697365617365": 5888,
    "2061776172646564": 5889,
    "204d6173746572": 5890,
    "204d6173746572746f6e": 5891,
    "207265746972696e67": 5892,
    "207365727665": 5893,
    "2063726973": 5894,
    "20637269736973": 5895,
    "204f6e74": 5896,
    "204f6e746172": 5897,
    "204f6e746172696f": 5898,
    "204c6f72": 5899,
    "204c6f726574": 5900,
    "204c6f72657474": 5901,
    "204c6f7265747461": 5902,
    "20756e63": 5903,
    "20756e636c6573": 5904,
    "2063686f6f73": 5905,
    "2031393833": 5906,
    "20636f6e76696e": 5907,
    "20636f6e76696e636564": 5908,
    "20417468": 5909,
    "204174686c6574": 5910,
    "204174686c65746963": 5911,
    "61696d6564": 5912,
    "204c656d": 5913,
    "204c656d6965": 5914,
    "204c656d696575": 5915,
    "204c656d69657578": 5916,
    "2043616e616461": 5917,
    "206162696c6974696573": 5918,
    "207465616d6d": 5919,
    "207465616d6d61746573": 5920,
    "205374616e": 5921,
    "205374616e6c6579": 5922,
    "206865617274": 5923,
    "207368617265": 5924,
    "2064697373": 5925,
    "20636f6e6365726e73": 5926,
    "2031393932": 5927,
    "2031393933": 5928,
    "20646f63": 5929,
    "20646f6374": 5930,
    "20646f63746f7273": 5931,
    "2073796d7074": 5932,
    "2073796d70746f6d73": 5933,
    "206d6f6e746873": 5934,
    "20696c6c6e657373": 5935,
    "20756e64657277": 5936,
    "20756e64657277656e74": 5937,
    "2074756d": 5938,
    "2074756d6f72": 5939,
    "20696d6d6564696174656c79": 5940,
    "207472656174": 5941,
    "2074726561746d656e7473": 5942,
    "20676f6e65": 5943,
    "2070726563": 5944,
    "20696d6d": 5945,
    "2062656e": 5946,
    "20696e74726f": 5947,
    "20696e74726f64": 5948,
    "20696e74726f6475636564": 5949,
    "63686974": 5950,
    "206e656974686572": 5951,
    "2031393939": 5952,
    "2073746f6f64": 5953,
    "2056616c6572": 5954,
    "2056616c65726965": 5955,
    "206461756768": 5956,
    "204b656e6e": 5957,
    "204b656e6e656479": 5958,
    "626f72": 5959,
    "207261697365": 5960,
    "207265736561726368": 5961,
    "20697473656c66": 5962,
    "2043726f6174": 5963,
    "20656e676167": 5964,
    "656d656e7473": 5965,
    "20666c6f74": 5966,
    "20666c6f74696c6c61": 5967,
    "20476f6562": 5968,
    "20476f6562656e": 5969,
    "2042726573": 5970,
    "20427265736c": 5971,
    "20427265736c6175": 5972,
    "204d656469746572": 5973,
    "204d65646974657272616e": 5974,
    "204d65646974657272616e65": 5975,
    "204d65646974657272616e65616e": 5976,
    "20616476616e636564": 5977,
    "204272": 5978,
    "204272696e64": 5979,
    "204272696e646973": 5980,
    "204272696e64697369": 5981,
    "20726563616c6c": 5982,
    "20726563616c6c6564": 5983,
    "20736f6c65": 5984,
    "2031393135": 5985,
    "20626f6d": 5986,
    "20626f6d62": 5987,
    "20626f6d62617264": 5988,
    "20626f6d626172646d656e74": 5989,
    "20416e636f6e": 5990,
    "20416e636f6e61": 5991,
    "204261727261": 5992,
    "2042617272616765": 5993,
    "20537a": 5994,
    "20537a656e74": 5995,
    "20497374": 5996,
    "2049737476": 5997,
    "2049737476c3": 5998,
    "2049737476c3a1": 5999,
    "2049737476c3a16e": 6000,
    "2073756e6b": 6001,
    "2073757270617373": 6002,
    "20486162": 6003,
    "204861627362": 6004,
    "204861627362757267": 6005,
    "2070726f70656c": 6006,
    "2070726f70656c6c6564": 6007,
    "6968": 6008,
    "203432": 6009,
    "207477696e": 6010,
    "207475727265": 6011,
    "2074757272657473": 6012,
    "2063656e7465726c696e65": 6013,
    "20c5": 6014,
    "20c5a0": 6015,
    "20c5a06b": 6016,
    "20c5a06b6f64": 6017,
    "20c5a06b6f6461": 6018,
    "206d6f756e746564": 6019,
    "20626f6174": 6020,
    "2061697263": 6021,
    "20616972637261": 6022,
    "206169726372616674": 6023,
    "696c697a6564": 6024,
    "20737572726f756e646564": 6025,
    "2053616e6b": 6026,
    "2053616e6b74": 6027,
    "2047656f7267": 6028,
    "204b616973": 6029,
    "204b6169736572": 6030,
    "2061737361": 6031,
    "2061737361756c74": 6032,
    "20416c6c696564": 6033,
    "206561726c696572": 6034,
    "20416e63": 6035,
    "20416e6369656e74": 6036,
    "20736f6d6574": 6037,
    "20736f6d6574696d65": 6038,
    "20707265686973746f7279": 6039,
    "206f66666572696e6773": 6040,
    "20726570726573656e746174697665": 6041,
    "2074696573": 6042,
    "6c75646564": 6043,
    "20657261": 6044,
    "20666f6375736564": 6045,
    "206578636c75736976656c79": 6046,
    "20696e666c75656e63696e67": 6047,
    "20696e7465726163746564": 6048,
    "20736872696e6573": 6049,
    "206c6172676572": 6050,
    "207269746573": 6051,
    "2070726179": 6052,
    "206c6162656c": 6053,
    "206c6162656c6564": 6054,
    "207661677565": 6055,
    "20696e64697265": 6056,
    "20696e646972656374": 6057,
    "20502e": 6058,
    "2074686f7573616e64": 6059,
    "2074686f7573616e6473": 6060,
    "2066656d696e": 6061,
    "2066656d696e696e65": 6062,
    "205363686f6c617273": 6063,
    "206574": 6064,
    "206574796d": 6065,
    "206574796d6f6c6f67": 6066,
    "206574796d6f6c6f67696573": 6067,
    "206f726967696e": 6068,
    "206f627363": 6069,
    "206f627363757265": 6070,
    "206964656f67": 6071,
    "206964656f6772616d": 6072,
    "206964656f6772616d73": 6073,
    "2053696d696c6172": 6074,
    "2072656d696e": 6075,
    "2072656d696e6973": 6076,
    "2072656d696e697363656e74": 6077,
    "2066616c63": 6078,
    "2066616c636f6e73": 6079,
    "207265666c65": 6080,
    "207265666c656374696e67": 6081,
    "206d65616e696e6773": 6082,
    "20737068657265": 6083,
    "206c6573736572": 6084,
    "2064657069637473": 6085,
    "206d656e74696f6e6564": 6086,
    "206d6574617068": 6087,
    "206d65746170686f7273": 6088,
    "2064697374696e": 6089,
    "2064697374696e6374696f6e": 6090,
    "206465636561736564": 6091,
    "20736f756c73": 6092,
    "20707265656d": 6093,
    "20707265656d696e": 6094,
    "20707265656d696e656e6365": 6095,
    "2044796e6173746963": 6096,
    "20323638": 6097,
    "2032363836": 6098,
    "20666967": 6099,
    "20636174746c65": 6100,
    "2077686574686572": 6101,
    "2067726577": 6102,
    "20736f7068": 6103,
    "20736f70686973746963": 6104,
    "20736f7068697374696361746564": 6105,
    "2070726564796e6173746963": 6106,
    "204e65697468": 6107,
    "2072657665726564": 6108,
    "2048656e7269": 6109,
    "204672616e6b": 6110,
    "204672616e6b666f7274": 6111,
    "20656e766973696f6e6564": 6112,
    "20726567617264": 6113,
    "207265676172646564": 6114,
    "20746f776e73": 6115,
    "20737461746573": 6116,
    "20656d65726765": 6117,
    "64656e": 6118,
    "20636f756e746572": 6119,
    "20646561746873": 6120,
    "206e6f6e": 6121,
    "2076656e6572": 6122,
    "686f7465": 6123,
    "686f746570": 6124,
    "20486170": 6125,
    "206c69666574696d6573": 6126,
    "2061646f70746564": 6127,
    "2031353530": 6128,
    "206e6174697665": 6129,
    "2063756c": 6130,
    "2063756c7473": 6131,
    "20756e6465727374": 6132,
    "20756e64657273746f6f64": 6133,
    "2070657263657074": 6134,
    "206578616d706c65": 6135,
    "20766973696f6e": 6136,
    "206162737472": 6137,
    "206162737472616374": 6138,
    "20536875": 6139,
    "206f76657273": 6140,
    "206f766572736177": 6141,
    "20636976696c697a6174696f6e": 6142,
    "206f757467": 6143,
    "206f757467726f77": 6144,
    "206f757467726f777468": 6145,
    "204b6865": 6146,
    "204b686570": 6147,
    "204b6865707269": 6148,
    "206163746564": 6149,
    "206f76657261726368": 6150,
    "206f76657261726368696e67": 6151,
    "206d61696e7461696e696e67": 6152,
    "2041706570": 6153,
    "20746872656174656e": 6154,
    "6f6d656e74": 6155,
    "207370686572": 6156,
    "2073706865726573": 6157,
    "206f6d6e697363": 6158,
    "20617267756573": 6159,
    "2065766f6c": 6160,
    "2065766f6c766564": 6161,
    "207472616e7363": 6162,
    "207472616e7363656e64": 6163,
    "207370656369616c697a6564": 6164,
    "20416d6f6e67": 6165,
    "2073706972697473": 6166,
    "20576572": 6167,
    "205468656972": 6168,
    "2070726f74656374697665": 6169,
    "20706f77657273": 6170,
    "2073657276616e": 6171,
    "2073657276616e7473": 6172,
    "20686965726172636879": 6173,
    "206265686176696f72": 6174,
    "20646973727570746564": 6175,
    "6b61": 6176,
    "206d7974686963": 6177,
    "726f6e65": 6178,
    "6e6f74": 6179,
    "20636f6e7461696e": 6180,
    "20636f6e747261646963746f7279": 6181,
    "20617070726f6163": 6182,
    "20617070726f6163686573": 6183,
    "20756e6465727374616e64696e67": 6184,
    "20656d6f74696f6e": 6185,
    "2054686f7468": 6186,
    "20656d626f64": 6187,
    "2070726f6d6f746564": 6188,
    "2073657474696e67": 6189,
    "207374727567676c65": 6190,
    "2077697468647261": 6191,
    "20686973746f726963616c": 6192,
    "206d61696e7461696e": 6193,
    "6976616c": 6194,
    "207265737572": 6195,
    "2072657375727265": 6196,
    "207072696d6f7264": 6197,
    "207072696d6f726469616c": 6198,
    "20496e7374": 6199,
    "20496e7374656164": 6200,
    "20706572696f646963616c6c79": 6201,
    "20706f737369626c65": 6202,
    "20696e68616269746564": 6203,
    "206f726465726c79": 6204,
    "2054656d706c6573": 6205,
    "2068756d616e697479": 6206,
    "20686f6d6573": 6207,
    "207072657369646564": 6208,
    "2031363530": 6209,
    "206b656570696e67": 6210,
    "2053656b": 6211,
    "2053656b686d": 6212,
    "2053656b686d6574": 6213,
    "20706f77657266756c": 6214,
    "204e656b6865": 6215,
    "204e656b686562": 6216,
    "20636c6f73656c79": 6217,
    "2066616c7365": 6218,
    "205465787473": 6219,
    "20536f6b": 6220,
    "20536f6b6172": 6221,
    "206c656172": 6222,
    "206c6561726e696e67": 6223,
    "206c6f7264": 6224,
    "206465736372696265": 6225,
    "206f7665726c": 6226,
    "756c6174696e67": 6227,
    "20746974": 6228,
    "207469746c6573": 6229,
    "2065706974686574": 6230,
    "2052656c6174696f6e73686970": 6231,
    "207368696674696e67": 6232,
    "20636f6e6e656374696f6e73": 6233,
    "2053756368": 6234,
    "20747970": 6235,
    "2074797065": 6236,
    "2070726f637265": 6237,
    "2066616d696c696573": 6238,
    "207769646573": 6239,
    "20776964657370": 6240,
    "2077696465737072656164": 6241,
    "2063656e74657273": 6242,
    "204d656d7068": 6243,
    "204d656d70686973": 6244,
    "204d7574": 6245,
    "207472696164": 6246,
    "206368616e676561626c65": 6247,
    "20706572737065637469766573": 6248,
    "2066657274696c697479": 6249,
    "2063697263756d": 6250,
    "2063697263756d7374": 6251,
    "2063697263756d7374616e636573": 6252,
    "20696e7465727265": 6253,
    "20696e74657272656c": 6254,
    "20696e74657272656c61746564": 6255,
    "20756e697479": 6256,
    "20706c7572616c": 6257,
    "20706c7572616c697479": 6258,
    "2048656c": 6259,
    "2048656c69": 6260,
    "2048656c696f706f6c": 6261,
    "2048656c696f706f6c6973": 6262,
    "20656d7068": 6263,
    "20656d70686173697a6564": 6264,
    "206d756c746974": 6265,
    "206d756c746974756465": 6266,
    "206f6c646572": 6267,
    "2073757072656d65": 6268,
    "2072697365": 6269,
    "20636f6d706f6e656e74": 6270,
    "206d616e69666573746174696f6e": 6271,
    "206b6173": 6272,
    "20636c6f74686573": 6273,
    "206d65737361676573": 6274,
    "206a756467": 6275,
    "2069636f6e6f677261706879": 6276,
    "20536f62": 6277,
    "20536f6265": 6278,
    "20536f62656b": 6279,
    "207365786573": 6280,
    "204d696e": 6281,
    "2061636b6e": 6282,
    "2061636b6e6f776c6564": 6283,
    "20416e7562": 6284,
    "20416e75626973": 6285,
    "206d6f6e6f74686569736d": 6286,
    "756d656e7473": 6287,
    "205768657265": 6288,
    "2057686572656173": 6289,
    "2070726976617465": 6290,
    "20776f727368697070": 6291,
    "20737563636573736f7273": 6292,
    "20646562": 6293,
    "2074656e64": 6294,
    "20637265646974": 6295,
    "2048656e7279": 6296,
    "2070616e7468656973746963": 6297,
    "2067656e65726963": 6298,
    "2072657374726963": 6299,
    "2072657374726963746564": 6300,
    "2066696e697465": 6301,
    "2067726561746c79": 6302,
    "20636f6578": 6303,
    "20666974": 6304,
    "696679696e67": 6305,
    "72697074696f6e73": 6306,
    "20646570696374696f6e73": 6307,
    "206d6174657269616c73": 6308,
    "20666c6573": 6309,
    "20666c657368": 6310,
    "2073796d626f6c697a65": 6311,
    "206d756d6d696573": 6312,
    "20616c6c75646573": 6313,
    "206865616473": 6314,
    "206865616464": 6315,
    "20686561646472657373": 6316,
    "20436572": 6317,
    "204365727461696e": 6318,
    "20776f726e": 6319,
    "20616e7468726f706f6d6f7270686963": 6320,
    "207469676874": 6321,
    "20636f6c6f7273": 6322,
    "206e6f7572": 6323,
    "206e6f7572697368": 6324,
    "20636c6f7468": 6325,
    "20696e746572616374696f6e": 6326,
    "2073616e637475": 6327,
    "2073616e6374756172696573": 6328,
    "207265736964": 6329,
    "20656e636c": 6330,
    "20656e636c6f736564": 6331,
    "2063686170": 6332,
    "2063686170656c73": 6333,
    "2066617465": 6334,
    "6f6c6c": 6335,
    "20646f6c6c": 6336,
    "20676f6c64": 6337,
    "20646f6c6c6172": 6338,
    "20636f696e": 6339,
    "20616572": 6340,
    "6f64726f6d": 6341,
    "20536c": 6342,
    "696174696f6e": 6343,
    "206165726f64726f6d": 6344,
    "204341": 6345,
    "20536c6179": 6346,
    "20536c61796572": 6347,
    "706f7274": 6348,
    "20676c6964": 6349,
    "20416972": 6350,
    "20636f696e73": 6351,
    "20666c79696e67": 6352,
    "72c3": 6353,
    "6e79": 6354,
    "206165726f64726f6d6573": 6355,
    "205a72c3": 6356,
    "205a72c3ad": 6357,
    "205a72c3ad6e79": 6358,
    "205a72c3ad6e7969": 6359,
    "2048656176": 6360,
    "2048656176656e": 6361,
    "696e657373": 6362,
    "206176696174696f6e": 6363,
    "207472616e73706f7274": 6364,
    "2070696c6f7473": 6365,
    "20434141": 6366,
    "2066756e67": 6367,
    "6967687473": 6368,
    "204d696e74": 6369,
    "204c6f6e67": 6370,
    "204c6f6e676163": 6371,
    "204c6f6e6761637265": 6372,
    "20313835": 6373,
    "2073696c766572": 6374,
    "2063617262": 6375,
    "20636172626f6e": 6376,
    "20636172626f6e6172": 6377,
    "726f6c": 6378,
    "206c6963": 6379,
    "5341": 6380,
    "7370616365": 6381,
    "20636172626f6e61726961": 6382,
    "206672756974": 6383,
    "204176696174696f6e": 6384,
    "626f64": 6385,
    "706f727473": 6386,
    "20726567756c": 6387,
    "2066756e677573": 6388,
    "20637570": 6389,
    "206169727370616365": 6390,
    "20646f6c6c617273": 6391,
    "204173736f6369": 6392,
    "204173736f63696174696f6e": 6393,
    "20736563746f72": 6394,
    "20627573": 6395,
    "206d6963": 6396,
    "20616972706f727473": 6397,
    "2070696c6f74": 6398,
    "206e6f697365": 6399,
    "206169726669656c64": 6400,
    "657479": 6401,
    "20666c69676874": 6402,
    "20434154": 6403,
    "204541": 6404,
    "2045415341": 6405,
    "206165726f64726f6d65": 6406,
    "6f7079": 6407,
    "2031383439": 6408,
    "20627573696e657373": 6409,
    "2050696c": 6410,
    "20666c6967687473": 6411,
    "20416572": 6412,
    "206169726669656c6473": 6413,
    "626f64696573": 6414,
    "2064656e6f6d": 6415,
    "20506174746572": 6416,
    "20506174746572736f6e": 6417,
    "2050726976": 6418,
    "2050726976617465": 6419,
    "20526563": 6420,
    "204765": 6421,
    "206f7065726174696f6e": 6422,
    "72616674": 6423,
    "206d6963726f6c": 6424,
    "207374616e6461726473": 6425,
    "206c6963656e73": 6426,
    "20706c616e6e696e67": 6427,
    "20547970": 6428,
    "2054797065": 6429,
    "20696e6372656173": 6430,
    "20526569676e": 6431,
    "20666c79": 6432,
    "6372616674": 6433,
    "20676c6964657273": 6434,
    "207265637265": 6435,
    "2067726f777468": 6436,
    "204c6963": 6437,
    "2073697a65": 6438,
    "7073": 6439,
    "207265737472": 6440,
    "207265737472696374": 6441,
    "657474": 6442,
    "2047656f7079": 6443,
    "2047656f707978": 6444,
    "2047656f7079786973": 6445,
    "2064656e6f6d696e6174696f6e": 6446,
    "20706572736f6e616c": 6447,
    "206d6574616c": 6448,
    "20426c6f6f64": 6449,
    "20636f766572": 6450,
    "207265676973746572": 6451,
    "20656e6761676564": 6452,
    "20686f757273": 6453,
    "20666c6f77": 6454,
    "2068656c6963": 6455,
    "2068656c69636f70": 6456,
    "2050696c6f74": 6457,
    "20676c69646572": 6458,
    "204575726f7065616e": 6459,
    "20676c6964696e67": 6460,
    "20666163": 6461,
    "204169726372616674": 6462,
    "2072656372656174696f6e616c": 6463,
    "206672756974626f64696573": 6464,
    "20472e": 6465,
    "20616e6e756c6172": 6466,
    "2077616e": 6467,
    "206c6567": 6468,
    "2065636f6e6f6d": 6469,
    "20616c62756d73": 6470,
    "2076657273696f6e": 6471,
    "20506f6c": 6472,
    "207365727669636573": 6473,
    "2072656769737465726564": 6474,
    "204c6963656e6365": 6475,
    "206163746976697479": 6476,
    "776f727468": 6477,
    "776f727468696e657373": 6478,
    "20697373756573": 6479,
    "20666163696c6974696573": 6480,
    "2067726f756e64": 6481,
    "20436f6e67": 6482,
    "20436f6e6772657373": 6483,
    "2063697263756c": 6484,
    "696265727479": 6485,
    "6974746565": 6486,
    "204d634b": 6487,
    "204d634b6179": 6488,
    "206d696e7473": 6489,
    "20656167": 6490,
    "2064696573": 6491,
    "20726573706f6e73": 6492,
    "20696e6372656173696e676c79": 6493,
    "20536572": 6494,
    "2063657274": 6495,
    "204d616e64": 6496,
    "204d616e6461746f7279": 6497,
    "2053756963": 6498,
    "2053756963696465": 6499,
    "2041647269": 6500,
    "6172646f": 6501,
    "2048616e6e": 6502,
    "2048616e6e656d616e": 6503,
    "20646f75626c65": 6504,
    "656e73697665": 6505,
    "207363686564": 6506,
    "2077696e67": 6507,
    "20746178": 6508,
    "2061657269616c": 6509,
    "206d6963726f6c6967687473": 6510,
    "207369746573": 6511,
    "2073747269": 6512,
    "6166657479": 6513,
    "20616363657373": 6514,
    "6964696e67": 6515,
    "20652e": 6516,
    "20652e67": 6517,
    "20652e672e": 6518,
    "206172656173": 6519,
    "204d6f6e74": 6520,
    "206275726e": 6521,
    "2031383533": 6522,
    "7261766572": 6523,
    "6173757279": 6524,
    "204c696265727479": 6525,
    "206272616e": 6526,
    "7265617468": 6527,
    "2050657474": 6528,
    "20506574746974": 6529,
    "20707261637469636573": 6530,
    "2062656e65": 6531,
    "20736177": 6532,
    "20657370": 6533,
    "206573706563": 6534,
    "20657370656369616c6c79": 6535,
    "206465636c": 6536,
    "20527562": 6537,
    "20527562696e": 6538,
    "20736c6f77": 6539,
    "207469746c65": 6540,
    "204c6f6d": 6541,
    "204c6f6d62": 6542,
    "204c6f6d626172646f": 6543,
    "6e61": 6544,
    "207468696e": 6545,
    "726962757465": 6546,
    "627265": 6547,
    "2072656d756e": 6548,
    "2072656d756e6572": 6549,
    "2073636f7065": 6550,
    "2070697374": 6551,
    "20706973746f6e": 6552,
    "20726567756c61746564": 6553,
    "20726567756c61746f7279": 6554,
    "20656e76": 6555,
    "20656e766972": 6556,
    "206169726c": 6557,
    "206772616e": 6558,
    "207363686f6f6c73": 6559,
    "207265737472696374696f6e73": 6560,
    "206c6576656c73": 6561,
    "204165726f64726f6d": 6562,
    "20506f6c61": 6563,
    "204d6f6e74656e65": 6564,
    "206275726e6564": 6565,
    "726f70686963": 6566,
    "2073706f72": 6567,
    "206d696e74": 6568,
    "205472656173757279": 6569,
    "2044697265": 6570,
    "20446972656374": 6571,
    "204469726563746f72": 6572,
    "206272616e6368": 6573,
    "20636f6d6d6974746565": 6574,
    "206561676c65": 6575,
    "204461686c6f6e65": 6576,
    "204461686c6f6e656761": 6577,
    "2072656c61746564": 6578,
    "2070726f626c656d73": 6579,
    "2077616e746564": 6580,
    "6f6b6564": 6581,
    "6165": 6582,
    "204e7562": 6583,
    "20696e74657270": 6584,
    "206465636c696e6564": 6585,
    "205265636f726473": 6586,
    "2043616c6966": 6587,
    "2073656374": 6588,
    "2065766572": 6589,
    "6974696f6e73": 6590,
    "66697265": 6591,
    "20636f7665726564": 6592,
    "676572": 6593,
    "206a657473": 6594,
    "206c696768746572": 6595,
    "20507562": 6596,
    "205075626c6963": 6597,
    "2065636f6e6f6d6963": 6598,
    "203335": 6599,
    "20666c6f776e": 6600,
    "6f706c": 6601,
    "6f706c616e": 6602,
    "2068656c69636f7074657273": 6603,
    "20c2a3": 6604,
    "20616972776f727468696e657373": 6605,
    "206c6963656e73696e67": 6606,
    "207370656374": 6607,
    "20656e7669726f6e": 6608,
    "20656e7669726f6e6d656e74": 6609,
    "207363686564756c": 6610,
    "207363686564756c6564": 6611,
    "2043657373": 6612,
    "20436573736e61": 6613,
    "2068616e67": 6614,
    "2061697273686970": 6615,
    "61746567": 6616,
    "20436f6d6d6572": 6617,
    "20436f6d6d657263": 6618,
    "20436f6d6d65726369616c": 6619,
    "696d61746573": 6620,
    "72756974": 6621,
    "20696e637265617365": 6622,
    "61706572": 6623,
    "206368616d70": 6624,
    "206368616d70696f6e73": 6625,
    "206368616d70696f6e73686970": 6626,
    "20706f7765726564": 6627,
    "20666f726d6174696f6e": 6628,
    "2047415341": 6629,
    "204741534152": 6630,
    "206261736963": 6631,
    "72697073": 6632,
    "206c6963656e736564": 6633,
    "20466c69676874": 6634,
    "204a41": 6635,
    "206c65676973": 6636,
    "206c656769736c": 6637,
    "504c": 6638,
    "20696e697469616c": 6639,
    "6964656e7473": 6640,
    "20536561": 6641,
    "61746f": 6642,
    "2073706f726573": 6643,
    "20636f6d6d6572": 6644,
    "20636f6d6d65726365": 6645,
    "204361726f6c696e61": 6646,
    "20737472696b": 6647,
    "20476f627265": 6648,
    "20476f6272656368": 6649,
    "20476f627265636874": 6650,
    "2072657665727365": 6651,
    "2031383534": 6652,
    "207072696e63657373": 6653,
    "2072756c6573": 6654,
    "2062656e6566": 6655,
    "2062656e65666974": 6656,
    "2076617269657479": 6657,
    "2066657374": 6658,
    "6f696e746564": 6659,
    "62616e": 6660,
    "756c65": 6661,
    "20746872656174656e6564": 6662,
    "20556e64": 6663,
    "20556e646572": 6664,
    "20477265656b": 6665,
    "6c696d": 6666,
    "20416d6572696361": 6667,
    "2043616c69666f726e": 6668,
    "2043616c69666f726e6961": 6669,
    "20506f70": 6670,
    "204b6572": 6671,
    "204b65727279": 6672,
    "2077686f6c65": 6673,
    "20726563656e746c79": 6674,
    "20796f75": 6675,
    "206661766f72697465": 6676,
    "2041726179": 6677,
    "204172617961": 6678,
    "20726567756c6172": 6679,
    "72756d": 6680,
    "2068656176": 6681,
    "7472": 6682,
    "2041706f63616c": 6683,
    "20536368": 6684,
    "20416c65": 6685,
    "6f696e74": 6686,
    "626f6479": 6687,
    "20426574": 6688,
    "204265747765": 6689,
    "204265747765656e": 6690,
    "2056656e": 6691,
    "696473": 6692,
    "206e6f746573": 6693,
    "2032303034": 6694,
    "20636f6e7369646572": 6695,
    "204943": 6696,
    "20494341": 6697,
    "204943414f": 6698,
    "20636f72706f72": 6699,
    "20636f72706f72617465": 6700,
    "207375727665": 6701,
    "2076696e74": 6702,
    "2076696e74616765": 6703,
    "206165726f62": 6704,
    "20616e6e75616c6c79": 6705,
    "206173736f636961746564": 6706,
    "206165726f706c616e": 6707,
    "206c6963656e636573": 6708,
    "206c616e64696e67": 6709,
    "2041757468": 6710,
    "20417574686f72": 6711,
    "20736166657479": 6712,
    "766f6c766564": 6713,
    "20636c6f73757265": 6714,
    "2075736573": 6715,
    "20656e7669726f6e6d656e74616c": 6716,
    "76657274": 6717,
    "2068656c69636f70746572": 6718,
    "20726573706f6e736962696c697479": 6719,
    "20696e74726f64756374696f6e": 6720,
    "203630": 6721,
    "20726573756c74696e67": 6722,
    "206d6963726f6c69676874": 6723,
    "61676c": 6724,
    "636f70": 6725,
    "206361746567": 6726,
    "206169726c696e65": 6727,
    "6172696c79": 6728,
    "20466c79696e67": 6729,
    "20657374696d61746573": 6730,
    "20636c61": 6731,
    "20636c61696d": 6732,
    "6974697665": 6733,
    "6f726d616c6c79": 6734,
    "207065726d6974746564": 6735,
    "69646572": 6736,
    "616368757465": 6737,
    "204165726f64726f6d65": 6738,
    "20736d616c6c657374": 6739,
    "206f706572617465": 6740,
    "756666": 6741,
    "206169727374": 6742,
    "20616972737472697073": 6743,
    "206e6176": 6744,
    "207361746973": 6745,
    "20636f6e646974696f6e73": 6746,
    "2032303035": 6747,
    "2072657175697265": 6748,
    "20736563746f7273": 6749,
    "206465636c696e65": 6750,
    "204a4152": 6751,
    "204d6963": 6752,
    "4141": 6753,
    "20476c6964696e67": 6754,
    "206c656769736c6174696f6e": 6755,
    "2077696465": 6756,
    "206163636964656e7473": 6757,
    "20436c617373": 6758,
    "206e6574": 6759,
    "2072656c6174696e67": 6760,
    "2064726f70": 6761,
    "20526164": 6762,
    "205261646574": 6763,
    "2052616465747a": 6764,
    "2052616465747a6b": 6765,
    "2052616465747a6b79": 6766,
    "6d6172": 6767,
    "2064726561646e6f756768": 6768,
    "2064726561646e6f7567687473": 6769,
    "204164726961746963": 6770,
    "204974616c79": 6771,
    "2041757374726961": 6772,
    "617574": 6773,
    "204d6f6e74656e6567": 6774,
    "204d6f6e74656e6567726f": 6775,
    "20547572": 6776,
    "207765656b73": 6777,
    "20686f": 6778,
    "205370616c": 6779,
    "205370616c61746f": 6780,
    "2031383839": 6781,
    "2063686172636f": 6782,
    "2063686172636f616c": 6783,
    "207374616c6b": 6784,
    "2062726f776e": 6785,
    "2077686974": 6786,
    "2077686974697368": 6787,
    "204672756974": 6788,
    "2073707275": 6789,
    "20737072756365": 6790,
    "697a61": 6791,
    "2066756e6769": 6792,
    "2062656172": 6793,
    "69756d": 6794,
    "20c2b5": 6795,
    "20c2b56d": 6796,
    "20476f6c64": 6797,
    "206469616d65746572": 6798,
    "20313833": 6799,
    "20617574686f72697a6564": 6800,
    "2063697263756c61746564": 6801,
    "2063697263756c6174696f6e": 6802,
    "2063697263756c617465": 6803,
    "20536563726574": 6804,
    "20536563726574617279": 6805,
    "2042656368": 6806,
    "204265636874": 6807,
    "2073746174696e67": 6808,
    "20656e677261766572": 6809,
    "2057686967": 6810,
    "20777265617468": 6811,
    "20436861726c": 6812,
    "20436861726c6f7474": 6813,
    "20436861726c6f747465": 6814,
    "204672616e636973636f": 6815,
    "20477574": 6816,
    "2047757468": 6817,
    "2047757468726965": 6818,
    "206272696e67": 6819,
    "20726573706f6e7369626c65": 6820,
    "2063617573696e67": 6821,
    "206d6973": 6822,
    "20426567": 6823,
    "20426567696e": 6824,
    "207175657374": 6825,
    "20686f706564": 6826,
    "206f7261636c6573": 6827,
    "6976616c73": 6828,
    "2068796d": 6829,
    "2070726f63657373696f6e73": 6830,
    "6f6b65": 6831,
    "63657373": 6832,
    "2072656e6577": 6833,
    "20696e666f726d": 6834,
    "20696e766f6b6564": 6835,
    "207265666c656374": 6836,
    "204576": 6837,
    "207065616b": 6838,
    "20747261646974696f6e73": 6839,
    "2043616e61": 6840,
    "2043616e61616e": 6841,
    "204e75626961": 6842,
    "757368": 6843,
    "75736564": 6844,
    "206d6978": 6845,
    "2065636f6e6f6d79": 6846,
    "2068756e64": 6847,
    "2068756e64726564": 6848,
    "20736576": 6849,
    "20736f756e64": 6850,
    "204a616d": 6851,
    "205265636f7264": 6852,
    "205265636f7264696e6773": 6853,
    "206469737472696275746564": 6854,
    "2063657274696669636174696f6e": 6855,
    "20736c6f776564": 6856,
    "207574": 6857,
    "7573746f6d": 6858,
    "20506f704d": 6859,
    "20506f704d6174746572": 6860,
    "20506f704d617474657273": 6861,
    "2041647269656e": 6862,
    "2042656772": 6863,
    "2042656772616e64": 6864,
    "2044617665": 6865,
    "206472756d": 6866,
    "2047756974": 6867,
    "20477569746172": 6868,
    "20636f6d7061726564": 6869,
    "2062696f6772617068": 6870,
    "2062696f677261706879": 6871,
    "20766f63616c": 6872,
    "206f64": 6873,
    "206469646e": 6874,
    "205765": 6875,
    "656c6c73": 6876,
    "207468696e6b": 6877,
    "61756768": 6878,
    "20536f756e647472": 6879,
    "20536f756e64747261636b": 6880,
    "2041706f63616c7970": 6881,
    "2041706f63616c79707365": 6882,
    "20452e": 6883,
    "207265616c6c79": 6884,
    "20636f6f6c": 6885,
    "20736c69676874": 6886,
    "20646570617274": 6887,
    "2032303033": 6888,
    "2073656c656374696f6e": 6889,
    "2070726573656e6365": 6890,
    "2068656172": 6891,
    "2053696c": 6892,
    "2053696c656e74": 6893,
    "2053637265": 6894,
    "2053637265616d": 6895,
    "2066617374": 6896,
    "2062617373": 6897,
    "616e6963": 6898,
    "2076657273696f6e73": 6899,
    "2074726962757465": 6900,
    "20696e746572707265": 6901,
    "2053747261": 6902,
    "6368696e67": 6903,
    "20e28098": 6904,
    "204c697374": 6905,
    "2069646561": 6906,
    "207265706c696564": 6907,
    "206f7065726174696e67": 6908,
    "204f7267616e": 6909,
    "2072656d756e657261746564": 6910,
    "206f70657261746573": 6911,
    "206a6574": 6912,
    "2074617869": 6913,
    "20636f6e747269627574": 6914,
    "20737572766579696e67": 6915,
    "20726163696e67": 6916,
    "206165726f626174": 6917,
    "206165726f626174696373": 6918,
    "6f756e7473": 6919,
    "20536166657479": 6920,
    "206f626a656374": 6921,
    "206f626a656374697665": 6922,
    "20737065637472756d": 6923,
    "206465766f6c766564": 6924,
    "204169727370616365": 6925,
    "20696e6372656173696e67": 6926,
    "2076756c": 6927,
    "2070726f66697461626c65": 6928,
    "2072656d756e65726174696f6e": 6929,
    "206167726963": 6930,
    "206167726963756c74": 6931,
    "207265737472696374697665": 6932,
    "204165726f": 6933,
    "77656c6c": 6934,
    "206772616e746564": 6935,
    "20636c75": 6936,
    "20636c756273": 6937,
    "206578697374696e67": 6938,
    "206361736573": 6939,
    "2065737461626c697368": 6940,
    "6f7269736564": 6941,
    "2062616c6c6f": 6942,
    "2062616c6c6f6f6e73": 6943,
    "206169727368697073": 6944,
    "2053696c766572": 6945,
    "73746f6e65": 6946,
    "203539": 6947,
    "2032303032": 6948,
    "207265706f72746564": 6949,
    "2063686561706572": 6950,
    "20686973746f726963": 6951,
    "205757": 6952,
    "2057574949": 6953,
    "2053706f727473": 6954,
    "65746974697665": 6955,
    "20636f6d7065746974696f6e73": 6956,
    "69636170": 6957,
    "69636170706564": 6958,
    "206e6f726d616c6c79": 6959,
    "206368616d70696f6e7368697073": 6960,
    "2063617061626c65": 6961,
    "206d696e696d": 6962,
    "205374616e64": 6963,
    "205374616e64617264": 6964,
    "20416476": 6965,
    "20416476616e636564": 6966,
    "20556e6c696d": 6967,
    "20556e6c696d69746564": 6968,
    "207769646572": 6969,
    "206c6f636174696f6e73": 6970,
    "207363616c65": 6971,
    "20657870657269": 6972,
    "20657870657269656e636564": 6973,
    "2072756e77617973": 6974,
    "69676174696f6e": 6975,
    "206672696e67": 6976,
    "20737570706f7274696e67": 6977,
    "20636f6d6d6f6e6c79": 6978,
    "206c6963656e6365": 6979,
    "20736174697366": 6980,
    "2073617469736679": 6981,
    "20656666656374": 6982,
    "204f6e6c79": 6983,
    "20756e6c6963": 6984,
    "20756e6c6963656e73": 6985,
    "20756e6c6963656e736564": 6986,
    "20726571756972656d656e7473": 6987,
    "207265636f6d6d": 6988,
    "203437": 6989,
    "204775696465": 6990,
    "206c69737473": 6991,
    "207365766572656c79": 6992,
    "61696c6564": 6993,
    "207072696d6172696c79": 6994,
    "696c6973": 6995,
    "204a6f696e74": 6996,
    "206672": 6997,
    "206672616d65": 6998,
    "206672616d65776f726b": 6999,
    "6c656d656e74": 7000,
    "204555": 7001,
    "69666963616c6c79": 7002,
    "206578636c75646564": 7003,
    "20676f7665726e6564": 7004,
    "61696e73": 7005,
    "204d6963726f6c": 7006,
    "204d6963726f6c69676874": 7007,
    "204c4141": 7008,
    "204e50": 7009,
    "204e50504c": 7010,
    "2050696c6f7473": 7011,
    "20416972776f727468696e657373": 7012,
    "20736166": 7013,
    "205065726d": 7014,
    "207065726d": 7015,
    "2070657263657074696f6e": 7016,
    "20657870656e73697665": 7017,
    "726f6c6c6564": 7018,
    "20657874656e73697665": 7019,
    "6974696e67": 7020,
    "20626f7264": 7021,
    "20416972706f7274": 7022,
    "206e6574776f726b": 7023,
    "20506c616e": 7024,
    "20506c616e6e696e67": 7025,
    "206465636973696f6e": 7026,
    "206465636973696f6e73": 7027,
    "7669": 7028,
    "20636f6d706c": 7029,
    "20636f6d706c61696e": 7030,
    "20636f6d706c61696e7473": 7031,
    "20616c6c65": 7032,
    "6d6172696e65": 7033,
    "20417573747269616e73": 7034,
    "20555353": 7035,
    "2048756e67617279": 7036,
    "20626174746572": 7037,
    "2073686f7265": 7038,
    "20317374": 7039,
    "2063727569736572": 7040,
    "2042616c6b": 7041,
    "2053657262": 7042,
    "205465676574": 7043,
    "2054656765747468": 7044,
    "20546567657474686f6666": 7045,
    "205475726b": 7046,
    "205475726b6579": 7047,
    "20416464": 7048,
    "204164646974696f6e": 7049,
    "616e6b73": 7050,
    "20546172": 7051,
    "616c6d": 7052,
    "756365": 7053,
    "206e756d": 7054,
    "20656c66": 7055,
    "20706978": 7056,
    "207069786965": 7057,
    "204672756974626f64696573": 7058,
    "20736f696c": 7059,
    "20736170": 7060,
    "20736170726f": 7061,
    "20736170726f74": 7062,
    "20736170726f74726f70686963": 7063,
    "206269": 7064,
    "2062696f74": 7065,
    "2062696f74726f70686963": 7066,
    "20726f6f7473": 7067,
    "204e6f72776179": 7068,
    "2050657a": 7069,
    "2050657a697a61": 7070,
    "20617363": 7071,
    "2031383739": 7072,
    "204a6f7365": 7073,
    "204a6f73657068": 7074,
    "656c6c6f77": 7075,
    "756c6573": 7076,
    "726f73636f70": 7077,
    "67756c6172": 7078,
    "206f72616e6765": 7079,
    "206368617261637465726973746963": 7080,
    "2064756666": 7081,
    "206672756974696e67": 7082,
    "2074726565": 7083,
    "204368696566": 7084,
    "20456e677261766572": 7085,
    "20686f617264": 7086,
    "2076616e": 7087,
    "2076616e6973686564": 7088,
    "2042656368746c6572": 7089,
    "2070696563": 7090,
    "20706965636573": 7091,
    "20737472696b65": 7092,
    "2064617465": 7093,
    "204e6576657274": 7094,
    "204e65766572746865": 7095,
    "204e657665727468656c657373": 7096,
    "20526570726573": 7097,
    "20526570726573656e74": 7098,
    "20526570726573656e746174697665": 7099,
    "20737563636573736f72": 7100,
    "2053656e617465": 7101,
    "20636f756e74657266": 7102,
    "20636f756e7465726665": 7103,
    "206d697374": 7104,
    "206d697374616b656e": 7105,
    "2062616e6b": 7106,
    "206f6276": 7107,
    "206265617574": 7108,
    "20577265617468": 7109,
    "2073757276": 7110,
    "2031383530": 7111,
    "203138353073": 7112,
    "20757068": 7113,
    "207570686f6c64": 7114,
    "206c616964": 7115,
    "2067756964": 7116,
    "2067756964616e6365": 7117,
    "2070756e": 7118,
    "2070756e697368": 7119,
    "2070756e6973686d656e74": 7120,
    "20696e74657276": 7121,
    "2072657363": 7122,
    "20726573637565": 7123,
    "20686172": 7124,
    "6265": 7125,
    "2065726173": 7126,
    "207669657773": 7127,
    "666f7274756e65": 7128,
    "20697366": 7129,
    "206973666574": 7130,
    "206576696c": 7131,
    "20426567696e6e696e67": 7132,
    "204d6964646c65": 7133,
    "207175657374696f6e": 7134,
    "20676f6f64": 7135,
    "204576656e": 7136,
    "20646570656e64": 7137,
    "20646570656e64656e74": 7138,
    "204f6666696369616c": 7139,
    "20666573746976616c73": 7140,
    "2070726573656e746564": 7141,
    "6f73697479": 7142,
    "6f757261": 7143,
    "20636f6d6d756e6974696573": 7144,
    "2054656d706c65": 7145,
    "20666573746976616c": 7146,
    "2063726f70": 7147,
    "2073796d626f6c697a6564": 7148,
    "20636f6e73756c746564": 7149,
    "766579": 7150,
    "20616e73": 7151,
    "20616e7377": 7152,
    "206163636f6d": 7153,
    "206163636f6d706c": 7154,
    "206163636f6d706c697368": 7155,
    "73696e67": 7156,
    "2070726179657273": 7157,
    "207069657479": 7158,
    "2061637473": 7159,
    "206465766f74696f6e": 7160,
    "206469736167": 7161,
    "206469736167726565": 7162,
    "2072656c696566": 7163,
    "6174657374": 7164,
    "207068617261": 7165,
    "2070686172616f6e": 7166,
    "2070686172616f6e6963": 7167,
    "206578706f72746564": 7168,
    "2073796e63726574697a6564": 7169,
    "204e756269616e": 7170,
    "206964656f6c6f6779": 7171,
    "20437265": 7172,
    "2050746f6c65": 7173,
    "2050746f6c656d61": 7174,
    "2050746f6c656d616963": 7175,
    "6f6d616e73": 7176,
    "20477265636f": 7177,
    "20696e74657270726574": 7178,
    "204d65616e": 7179,
    "204d65616e77": 7180,
    "204d65616e7768": 7181,
    "204d65616e7768696c65": 7182,
    "6f6372": 7183,
    "205365726170": 7184,
    "2053657261706973": 7185,
    "206573": 7186,
    "2065736f74": 7187,
    "2065736f746572": 7188,
    "2065736f7465726963": 7189,
    "204865726d": 7190,
    "204865726d6573": 7191,
    "20547269736d": 7192,
    "20547269736d65": 7193,
    "20547269736d6567": 7194,
    "20547269736d6567697374": 7195,
    "20547269736d65676973747573": 7196,
    "207375707072657373": 7197,
    "2073757070726573736564": 7198,
    "20436f70": 7199,
    "20436f7074": 7200,
    "20436f70746963": 7201,
    "20746872": 7202,
    "20746872617368": 7203,
    "2070726f6475636572": 7204,
    "2042696c6c626f617264": 7205,
    "2052757373": 7206,
    "2052757373656c6c": 7207,
    "2053696d6d": 7208,
    "2053696d6d6f6e73": 7209,
    "20436f6c756d626961": 7210,
    "207065616b6564": 7211,
    "203537": 7212,
    "736574": 7213,
    "2070616365": 7214,
    "2064656c69626572": 7215,
    "2074656d706f": 7216,
    "20756e646973746f72": 7217,
    "20756e646973746f72746564": 7218,
    "2067756974617273": 7219,
    "20746f6e6564": 7220,
    "206d75736963616c": 7221,
    "206163637573746f6d": 7222,
    "206163637573746f6d6564": 7223,
    "2072656c6561736573": 7224,
    "206469736170706f696e746564": 7225,
    "207365746c": 7226,
    "207365746c697374": 7227,
    "207265766965776572": 7228,
    "206f62736572766564": 7229,
    "6d696e67": 7230,
    "207269676874": 7231,
    "20477569746172697374": 7232,
    "20646973637573": 7233,
    "736564": 7234,
    "206775657373": 7235,
    "206865617264": 7236,
    "2061747472696275746573": 7237,
    "206f6464": 7238,
    "20647279": 7239,
    "207468696e67": 7240,
    "207772697465": 7241,
    "20546f6d": 7242,
    "2064696d": 7243,
    "20416767": 7244,
    "2068656176696c79": 7245,
    "206861746573": 7246,
    "2072696666": 7247,
    "206d65646c6579": 7248,
    "2050686f74": 7249,
    "204c6172": 7250,
    "726f6c6c": 7251,
    "20496c": 7252,
    "20617274776f726b": 7253,
    "204672696564": 7254,
    "2046726965646d616e": 7255,
    "2070726f6d6f74696f6e616c": 7256,
    "207375726661636564": 7257,
    "206465656d": 7258,
    "206465656d6564": 7259,
    "20636c6173736963": 7260,
    "20636572746966696564": 7261,
    "20646573697265": 7262,
    "6f6964": 7263,
    "2072657065": 7264,
    "20416c6578": 7265,
    "20416c6c4d": 7266,
    "20416c6c4d7573": 7267,
    "20416c6c4d75736963": 7268,
    "20646973747572": 7269,
    "2064697374757262696e67": 7270,
    "7261746564": 7271,
    "2073656c656374696f6e73": 7272,
    "20736179696e67": 7273,
    "20696d706f73": 7274,
    "20616d6f6e677374": 7275,
    "2072656d656d62": 7276,
    "2072656d656d62657273": 7277,
    "204d6574": 7278,
    "204d6574616c": 7279,
    "206578706572696d656e74": 7280,
    "2063727563": 7281,
    "206372756369616c": 7282,
    "2050617274": 7283,
    "75696e": 7284,
    "20647269": 7285,
    "206576657279626f6479": 7286,
    "20737472696e67": 7287,
    "6172746574": 7288,
    "2054726962757465": 7289,
    "2031393935": 7290,
    "20536c6174": 7291,
    "20536c6174616e6963": 7292,
    "20536c61756768": 7293,
    "20536c61756768746572": 7294,
    "20696e746572707265746564": 7295,
    "20617272616e": 7296,
    "20617272616e676564": 7297,
    "2048656c6c": 7298,
    "20426568": 7299,
    "20426568696e64": 7300,
    "2043726f6f6b6564": 7301,
    "2043726f7373": 7302,
    "20417267": 7303,
    "20417267656e74": 7304,
    "2048617465": 7305,
    "2047686f737473": 7306,
    "207477696365": 7307,
    "204d6f64": 7308,
    "61706974": 7309,
    "2043726577": 7310,
    "204c697665": 7311,
    "204456": 7312,
    "20445644": 7313,
    "205374696c6c": 7314,
    "20526569676e696e67": 7315,
    "20626f6e7573": 7316,
    "72657373696f6e": 7317,
    "6c616e6473": 7318,
    "20726973": 7319,
    "2072656e646974696f6e": 7320,
    "204c697374656e": 7321,
    "204ac3": 7322,
    "656573": 7323,
    "6c7573696f6e": 7324,
    "69616e6365": 7325,
    "20746f7572": 7326,
    "20676f74": 7327,
    "2066696e65": 7328,
    "2077616e7473": 7329,
    "20626967": 7330,
    "207472656e64": 7331,
    "207268": 7332,
    "20726879": 7333,
    "207268797468": 7334,
    "2072687974686d": 7335,
    "696669636174696f6e73": 7336,
    "20646566696e6564": 7337,
    "207363686564756c65": 7338,
    "204f7267616e697a6174696f6e": 7339,
    "20656e67696e6564": 7340,
    "20636f6e747269627574696f6e": 7341,
    "20616d62756c": 7342,
    "20696e636c75646573": 7343,
    "6163687574": 7344,
    "6163687574696e67": 7345,
    "20696e646976696475616c73": 7346,
    "20737563": 7347,
    "207375636365": 7348,
    "2073756363656564": 7349,
    "20737563636565646564": 7350,
    "206163636f756e7473": 7351,
    "206165726f706c616e6573": 7352,
    "20313334": 7353,
    "20417574686f72697479": 7354,
    "204167656e6379": 7355,
    "2072656d6974": 7356,
    "207369676e69666963616e6365": 7357,
    "206d61726b6574": 7358,
    "20646566696e6573": 7359,
    "2068697265": 7360,
    "69736174696f6e73": 7361,
    "20427573": 7362,
    "20427573696e657373": 7363,
    "206165726f706c616e65": 7364,
    "205365727669636573": 7365,
    "2041776172": 7366,
    "2041776172656e657373": 7367,
    "20436f756e63": 7368,
    "20436f756e63696c": 7369,
    "206170706c696573": 7370,
    "20737472617465": 7371,
    "20737472617465676963": 7372,
    "2031393039": 7373,
    "2031393130": 7374,
    "2070726566": 7375,
    "2069737375": 7376,
    "20486176": 7377,
    "20486176696c6c": 7378,
    "20486176696c6c616e64": 7379,
    "20747261696e6564": 7380,
    "20726567756c617465": 7381,
    "2031393732": 7382,
    "20696e6672617374": 7383,
    "20696e66726173747275": 7384,
    "20696e667261737472756374": 7385,
    "20696e667261737472756374757265": 7386,
    "20506970": 7387,
    "205069706572": 7388,
    "20313732": 7389,
    "203139353073": 7390,
    "203139363073": 7391,
    "203139373073": 7392,
    "206578706572696d": 7393,
    "206578706572696d656e7473": 7394,
    "2070617261676c": 7395,
    "206779": 7396,
    "206779726f": 7397,
    "2062726f61646c79": 7398,
    "2063617465676f7269736564": 7399,
    "2066616c6c": 7400,
    "20666c6578": 7401,
    "20666c657869626c65": 7402,
    "2063686172746572": 7403,
    "756c61": 7404,
    "2053696c76657273746f6e65": 7405,
    "2072616365": 7406,
    "20616972706f7274": 7407,
    "2072656e74": 7408,
    "2072656e746564": 7409,
    "20616d6f756e74": 7410,
    "206d6f76656d656e7473": 7411,
    "20636f6d6d756e697479": 7412,
    "20636c61696d6564": 7413,
    "203730": 7414,
    "206f70657261746f72": 7415,
    "203438": 7416,
    "20617267756d": 7417,
    "20617267756d656e74": 7418,
    "20636f6e636c75646573": 7419,
    "20736576657265": 7420,
    "20726564756374696f6e": 7421,
    "20636f756e7472696573": 7422,
    "20636f6c6c656374": 7423,
    "2048616c66": 7424,
    "206465706172": 7425,
    "206465706172746564": 7426,
    "727573": 7427,
    "20726563656e74": 7428,
    "20746869726473": 7429,
    "206578616d706c6573": 7430,
    "205261636573": 7431,
    "2068616e6469636170706564": 7432,
    "20537563": 7433,
    "2053756363657373": 7434,
    "20616c6c6f7773": 7435,
    "203439": 7436,
    "2077696e6773": 7437,
    "2077696e677370": 7438,
    "2077696e677370616e": 7439,
    "20666c617073": 7440,
    "206d696e696d756d": 7441,
    "2063617365": 7442,
    "206369726375": 7443,
    "2063697263756974": 7444,
    "204672": 7445,
    "204672616e6365": 7446,
    "207072697a": 7447,
    "20526163696e67": 7448,
    "20496e7465726d656469": 7449,
    "20496e7465726d656469617465": 7450,
    "2066696775726573": 7451,
    "20506172616368757465": 7452,
    "206672656566": 7453,
    "20736b7964": 7454,
    "20736b79646976696e67": 7455,
    "2063616e6f7079": 7456,
    "204165726f64726f6d6573": 7457,
    "20707265646f6d696e616e746c79": 7458,
    "20526573": 7459,
    "205374756479": 7460,
    "203834": 7461,
    "7866": 7462,
    "78666f7264": 7463,
    "2048616d70": 7464,
    "2048616d707368": 7465,
    "2048616d707368697265": 7466,
    "20416972706f727473": 7467,
    "206e617669676174696f6e": 7468,
    "2061696473": 7469,
    "207572": 7470,
    "20757262616e": 7471,
    "206578636c7564": 7472,
    "206578636c756465": 7473,
    "206772617373": 7474,
    "20696e666f726d616c": 7475,
    "20726164": 7476,
    "20726164696f": 7477,
    "2066656174757265": 7478,
    "204f53": 7479,
    "206675656c": 7480,
    "2061636365707461626c65": 7481,
    "2047726f7570": 7482,
    "206a6f696e74": 7483,
    "20636f72726573706f6e64696e67": 7484,
    "207265636f6d6d656e646564": 7485,
    "7269736564": 7486,
    "205472616e73": 7487,
    "205472616e73706f7274": 7488,
    "206173736f63696174696f6e73": 7489,
    "203336": 7490,
    "20333535": 7491,
    "706c616e": 7492,
    "205646": 7493,
    "20564652": 7494,
    "6f636b79": 7495,
    "20466172": 7496,
    "20666967757265": 7497,
    "206f757462": 7498,
    "206f7574627265616b": 7499,
    "2067726f77696e67": 7500,
    "207574696c6973": 7501,
    "207574696c69736174696f6e": 7502,
    "2073706563756c6174696f6e": 7503,
    "726f707269": 7504,
    "726f707269617465": 7505,
    "207175616c696669636174696f6e": 7506,
    "20417574686f726974696573": 7507,
    "20696d706c656d656e74": 7508,
    "20726567756c61746f72": 7509,
    "706f736564": 7510,
    "207370656369666963616c6c79": 7511,
    "2072657461696e73": 7512,
    "2042616c6c": 7513,
    "2042616c6c6f6f6e": 7514,
    "2061646d696e": 7515,
    "204c6963656e73": 7516,
    "204c6963656e73696e67": 7517,
    "2048616e67": 7518,
    "20736166656c79": 7519,
    "2043657274": 7520,
    "204365727469666963": 7521,
    "204365727469666963617465": 7522,
    "205065726d6974": 7523,
    "20466c79": 7524,
    "206c696d6974": 7525,
    "207374616e64696e67": 7526,
    "207065726d697373696f6e": 7527,
    "2050504c": 7528,
    "204643": 7529,
    "2046434c": 7530,
    "20616273656e6365": 7531,
    "2062616c6c6f6f6e": 7532,
    "7261746963": 7533,
    "204672656e": 7534,
    "204672656e6368": 7535,
    "20313339": 7536,
    "20666174": 7537,
    "20666174616c": 7538,
    "2068616e646c696e67": 7539,
    "20636c61696d696e67": 7540,
    "20686967686572": 7541,
    "206f7065726174696f6e616c": 7542,
    "20696d70616374": 7543,
    "206e65676f74": 7544,
    "206e65676f7469": 7545,
    "207573657273": 7546,
    "20756e636f6e74": 7547,
    "20756e636f6e74726f6c6c6564": 7548,
    "20436f6e74": 7549,
    "2070726f766973696f6e": 7550,
    "206f70657261746f7273": 7551,
    "6869626974696e67": 7552,
    "697074": 7553,
    "20657874656e6473": 7554,
    "20636f6e63656e74": 7555,
    "2073706f7473": 7556,
    "6d696e6174696f6e": 7557,
    "20696e63726561736573": 7558,
    "20726566757365": 7559,
    "20766961626c65": 7560,
    "206f70": 7561,
    "206f70696e": 7562,
    "206f70696e696f6e": 7563,
    "656e696e67": 7564,
    "20726573706f6e64": 7565,
    "20636f6e73756c74": 7566,
    "20656e7175": 7567,
    "2072656c617465": 7568,
    "20706172616368757465": 7569,
    "20616c6c65676564": 7570,
    "69736573": 7571,
    "2072657065746974697665": 7572,
    "20616c74": 7573,
    "2061756469626c65": 7574,
    "204672616e7a": 7575,
    "2053656e6967": 7576,
    "2053656e6967616c6c": 7577,
    "2053656e6967616c6c6961": 7578,
    "20537472616974": 7579,
    "207375627374616e74": 7580,
    "207072657061726564": 7581,
    "20536c6f76": 7582,
    "20536c6f76656e": 7583,
    "20536c6f76656e6573": 7584,
    "2043726f617473": 7585,
    "205365726273": 7586,
    "206e617679": 7587,
    "207361696c6564": 7588,
    "207375626d6172696e65": 7589,
    "2063686173": 7590,
    "2063686173657273": 7591,
    "205361696e": 7592,
    "205361696e74": 7593,
    "204765726d": 7594,
    "204765726d61696e": 7595,
    "207363726170": 7596,
    "2044657369676e": 7597,
    "20547269657374": 7598,
    "3930": 7599,
    "706c65": 7600,
    "2062617474657279": 7601,
    "203835": 7602,
    "6970706564": 7603,
    "20636f6d6d697373696f6e696e67": 7604,
    "206d6f62696c697a6564": 7605,
    "73696f6e73": 7606,
    "2064656d6f6e7374726174696f6e": 7607,
    "2042616c6b616e": 7608,
    "206e6176696573": 7609,
    "204d6f6e74656e656772": 7610,
    "204d6f6e74656e656772696e": 7611,
    "2070726576656e74": 7612,
    "2053637574": 7613,
    "2053637574617269": 7614,
    "20536572626961": 7615,
    "2031393134": 7616,
    "61737465726e": 7617,
    "204164646974696f6e616c": 7618,
    "204974616c69616e73": 7619,
    "2064656c6179": 7620,
    "20626f72646572": 7621,
    "2048617573": 7622,
    "2044616c6d": 7623,
    "2044616c6d6174": 7624,
    "20597567": 7625,
    "205975676f73": 7626,
    "205975676f736c": 7627,
    "205975676f736c6176": 7628,
    "20536c6176": 7629,
    "2053706c": 7630,
    "2053706c6974": 7631,
    "2055534e": 7632,
    "206170706172656e746c79": 7633,
    "20756c74696d617465": 7634,
    "2031383035": 7635,
    "2063757272656e74": 7636,
    "206c6f76": 7637,
    "206c6f76696e67": 7638,
    "2064776172": 7639,
    "206477617266": 7640,
    "2061636f726e": 7641,
    "207374616c6b6564": 7642,
    "20626f6e66697265": 7643,
    "206272": 7644,
    "206f7267616e6963": 7645,
    "206d6174746572": 7646,
    "2061736369": 7647,
    "204d7963": 7648,
    "2050696572": 7649,
    "2073796e6f6e": 7650,
    "2073796e6f6e796d": 7651,
    "207461786f6e": 7652,
    "207461786f6e6f6d": 7653,
    "207461786f6e6f6d6963": 7654,
    "65726b": 7655,
    "2031383536": 7656,
    "2062656172696e67": 7657,
    "2068796d656e": 7658,
    "2068796d656e69756d": 7659,
    "2079656c6c6f77": 7660,
    "2064697374696e6374697665": 7661,
    "2063727573": 7662,
    "2063727573686564": 7663,
    "206879": 7664,
    "2064726f706c65": 7665,
    "2064726f706c657473": 7666,
    "20676572": 7667,
    "20706172617068": 7668,
    "2070617261706879": 7669,
    "2070617261706879736573": 7670,
    "2069727265": 7671,
    "206972726567756c6172": 7672,
    "206772616e756c6573": 7673,
    "2063656c6c73": 7674,
    "2062656c6f77": 7675,
    "2064656e73": 7676,
    "2076756c63": 7677,
    "2076756c63616e": 7678,
    "206672756974626f6479": 7679,
    "206d6963726f73636f70": 7680,
    "206d6963726f73636f706963616c6c79": 7681,
    "2067726f7773": 7682,
    "205461727a": 7683,
    "205461727a657474": 7684,
    "205461727a65747461": 7685,
    "2067656e657261": 7686,
    "20416c657572": 7687,
    "20416c6575726961": 7688,
    "69746174": 7689,
    "20666f72657374": 7690,
    "20636f6e6966": 7691,
    "20636f6e696665726f7573": 7692,
    "207472656573": 7693,
    "207472756e": 7694,
    "206d6f72656c73": 7695,
    "20666f726d696e67": 7696,
    "636f72": 7697,
    "636f7272": 7698,
    "636f727268": 7699,
    "636f727268697a": 7700,
    "2070696e65": 7701,
    "2073656564": 7702,
    "206d6f646572617465": 7703,
    "206162696c697479": 7704,
    "2064616d616765": 7705,
    "20627572": 7706,
    "206275726e696e67": 7707,
    "20666f7265737473": 7708,
    "20737175": 7709,
    "20737175617265": 7710,
    "206d696e746564": 7711,
    "2062756c6c": 7712,
    "2062756c6c696f6e": 7713,
    "20636175736564": 7714,
    "207265616479": 7715,
    "20726172697479": 7716,
    "2048616d696c": 7717,
    "2048616d696c746f6e": 7718,
    "20617574686f72697a": 7719,
    "20617574686f72697a696e67": 7720,
    "204368726973746f70": 7721,
    "204368726973746f70686572": 7722,
    "20576f6f64": 7723,
    "20576f6f6462": 7724,
    "20576f6f6462757279": 7725,
    "206f70706f736564": 7726,
    "204d2e": 7727,
    "206e65777370": 7728,
    "206e6577737061706572": 7729,
    "204c6564": 7730,
    "204c6564676572": 7731,
    "2031383434": 7732,
    "206368616972": 7733,
    "2063686169726d616e": 7734,
    "20436f6d6d6974746565": 7735,
    "207175616e74": 7736,
    "207175616e746974696573": 7737,
    "2070726f706f73616c": 7738,
    "20686f6c65": 7739,
    "206368696566": 7740,
    "207061747465726e73": 7741,
    "2053656e61746f72": 7742,
    "204174686572": 7743,
    "204174686572746f6e": 7744,
    "2064656e6f6d696e": 7745,
    "2064656e6f6d696e6174696f6e73": 7746,
    "616e6961": 7747,
    "20436f6e67726573736d616e": 7748,
    "2062616e6b6e": 7749,
    "20436f696e": 7750,
    "205065616c65": 7751,
    "20756e646f75": 7752,
    "20756e646f7562": 7753,
    "20756e646f7562746564": 7754,
    "20756e646f75627465646c79": 7755,
    "207072656d": 7756,
    "204163636f7264696e676c79": 7757,
    "206f627665727365": 7758,
    "726176696e67": 7759,
    "206164617074": 7760,
[...]
