{
    "[PAD]": 0,
    "[BOS]": 1,
    "[EOS]": 2,
    "00": 3,
    "01": 4,
    "02": 5,
    "03": 6,
    "04": 7,
    "05": 8,
    "06": 9,
    "07": 10,
    "08": 11,
    "09": 12,
    "0a": 13,
    "0b": 14,
    "0c": 15,
    "0d": 16,
    "0e": 17,
    "0f": 18,
    "10": 19,
    "11": 20,
    "12": 21,
    "13": 22,
    "14": 23,
    "15": 24,
    "16": 25,
    "17": 26,
    "18": 27,
    "19": 28,
    "1a": 29,
    "1b": 30,
    "1c": 31,
    "1d": 32,
    "1e": 33,
    "1f": 34,
    "20": 35,
    "21": 36,
    "22": 37,
    "23": 38,
    "24": 39,
    "25": 40,
    "26": 41,
    "27": 42,
    "28": 43,
    "29": 44,
    "2a": 45,
    "2b": 46,
    "2c": 47,
    "2d": 48,
    "2e": 49,
    "2f": 50,
    "30": 51,
    "31": 52,
    "32": 53,
    "33": 54,
    "34": 55,
    "35": 56,
    "36": 57,
    "37": 58,
    "38": 59,
    "39": 60,
    "3a": 61,
    "3b": 62,
    "3c": 63,
    "3d": 64,
    "3e": 65,
    "3f": 66,
    "40": 67,
    "41": 68,
    "42": 69,
    "43": 70,
    "44": 71,
    "45": 72,
    "46": 73,
    "47": 74,
    "48": 75,
    "49": 76,
    "4a": 77,
    "4b": 78,
    "4c": 79,
    "4d": 80,
    "4e": 81,
    "4f": 82,
    "50": 83,
    "51": 84,
    "52": 85,
    "53": 86,
    "54": 87,
    "55": 88,
    "56": 89,
    "57": 90,
    "58": 91,
    "59": 92,
    "5a": 93,
    "5b": 94,
    "5c": 95,
    "5d": 96,
    "5e": 97,
    "5f": 98,
    "60": 99,
    "61": 100,
    "62": 101,
    "63": 102,
    "64": 103,
    "65": 104,
    "66": 105,
    "67": 106,
    "68": 107,
    "69": 108,
    "6a": 109,
    "6b": 110,
    "6c": 111,
    "6d": 112,
    "6e": 113,
    "6f": 114,
    "70": 115,
    "71": 116,
    "72": 117,
    "73": 118,
    "74": 119,
    "75": 120,
    "76": 121,
    "77": 122,
    "78": 123,
    "79": 124,
    "7a": 125,
    "7b": 126,
    "7c": 127,
    "7d": 128,
    "7e": 129,
    "7f": 130,
    "80": 131,
    "81": 132,
    "82": 133,
    "83": 134,
    "84": 135,
    "85": 136,
    "86": 137,
    "87": 138,
    "88": 139,
    "89": 140,
    "8a": 141,
    "8b": 142,
    "8c": 143,
    "8d": 144,
    "8e": 145,
    "8f": 146,
    "90": 147,
    "91": 148,
    "92": 149,
    "93": 150,
    "94": 151,
    "95": 152,
    "96": 153,
    "97": 154,
    "98": 155,
    "99": 156,
    "9a": 157,
    "9b": 158,
    "9c": 159,
    "9d": 160,
    "9e": 161,
    "9f": 162,
    "a0": 163,
    "a1": 164,
    "a2": 165,
    "a3": 166,
    "a4": 167,
    "a5": 168,
    "a6": 169,
    "a7": 170,
    "a8": 171,
    "a9": 172,
    "aa": 173,
    "ab": 174,
    "ac": 175,
    "ad": 176,
    "ae": 177,
    "af": 178,
    "b0": 179,
    "b1": 180,
    "b2": 181,
    "b3": 182,
    "b4": 183,
    "b5": 184,
    "b6": 185,
    "b7": 186,
    "b8": 187,
    "b9": 188,
    "ba": 189,
    "bb": 190,
    "bc": 191,
    "bd": 192,
    "be": 193,
    "bf": 194,
    "c0": 195,
    "c1": 196,
    "c2": 197,
    "c3": 198,
    "c4": 199,
    "c5": 200,
    "c6": 201,
    "c7": 202,
    "c8": 203,
    "c9": 204,
    "ca": 205,
    "cb": 206,
    "cc": 207,
    "cd": 208,
    "ce": 209,
    "cf": 210,
    "d0": 211,
    "d1": 212,
    "d2": 213,
    "d3": 214,
    "d4": 215,
    "d5": 216,
    "d6": 217,
    "d7": 218,
    "d8": 219,
    "d9": 220,
    "da": 221,
    "db": 222,
    "dc": 223,
    "dd": 224,
    "de": 225,
    "df": 226,
    "e0": 227,
    "e1": 228,
    "e2": 229,
    "e3": 230,
    "e4": 231,
    "e5": 232,
    "e6": 233,
    "e7": 234,
    "e8": 235,
    "e9": 236,
    "ea": 237,
    "eb": 238,
    "ec": 239,
    "ed": 240,
    "ee": 241,
    "ef": 242,
    "f0": 243,
    "f1": 244,
    "f2": 245,
    "f3": 246,
    "f4": 247,
    "f5": 248,
    "f6": 249,
    "f7": 250,
    "f8": 251,
    "f9": 252,
    "fa": 253,
    "fb": 254,
    "fc": 255,
    "fd": 256,
    "fe": 257,
    "ff": 258,
    "2074": 259,
    "6865": 260,
    "2061": 261,
    "696e": 262,
    "20746865": 263,
    "6572": 264,
    "6f6e": 265,
    "6564": 266,
    "202c": 267,
    "6f72": 268,
    "2077": 269,
    "6974": 270,
    "2073": 271,
    "656e": 272,
    "6573": 273,
    "206f": 274,
    "616c": 275,
    "202e": 276,
    "6172": 277,
    "6e64": 278,
    "6174": 279,
    "206f66": 280,
    "2066": 281,
    "2062": 282,
    "2070": 283,
    "2063": 284,
    "696e67": 285,
    "7265": 286,
    "6973": 287,
    "616e": 288,
    "20616e64": 289,
    "6173": 290,
    "20696e": 291,
    "206d": 292,
    "6c65": 293,
    "20746f": 294,
    "2064": 295,
    "726f": 296,
    "6963": 297,
    "696f6e": 298,
    "200a": 299,
    "2054": 300,
    "696c": 301,
    "616d": 302,
    "6f75": 303,
    "2041": 304,
    "2043": 305,
    "656e74": 306,
    "6374": 307,
    "2067": 308,
    "207265": 309,
    "2068": 310,
    "7269": 311,
    "656c": 312,
    "7374": 313,
    "20776173": 314,
    "2053": 315,
    "207468": 316,
    "20666f72": 317,
    "2052": 318,
    "2031": 319,
    "203d": 320,
    "206e": 321,
    "7572": 322,
    "2049": 323,
    "206265": 324,
    "204d": 325,
    "6164": 326,
    "2065": 327,
    "20546865": 328,
    "6f6d": 329,
    "2022": 330,
    "2042": 331,
    "206c": 332,
    "636b": 333,
    "2075": 334,
    "6f74": 335,
    "206173": 336,
    "6972": 337,
    "6f77": 338,
    "6c79": 339,
    "204172": 340,
    "6179": 341,
    "616d65": 342,
    "204c": 343,
    "2027": 344,
    "6365": 345,
    "6368": 346,
    "657273": 347,
    "697468": 348,
    "696d": 349,
    "6170": 350,
    "207374": 351,
    "2056": 352,
    "2040": 353,
    "2077697468": 354,
    "206174": 355,
    "6976": 356,
    "7468": 357,
    "746c65": 358,
    "6f6c": 359,
    "656d": 360,
    "6f636b": 361,
    "202773": 362,
    "2044": 363,
    "697374": 364,
    "206172": 365,
    "206865": 366,
    "2046": 367,
    "616c6b": 368,
    "206279": 369,
    "2056616c6b": 370,
    "2056616c6b79": 371,
    "206f72": 372,
    "7365": 373,
    "2056616c6b797269": 374,
    "61696e": 375,
    "206f6e": 376,
    "204368": 377,
    "6174696f6e": 378,
    "206974": 379,
    "2056616c6b79726961": 380,
    "2067616d65": 381,
    "2050": 382,
    "20616c": 383,
    "657265": 384,
    "2077657265": 385,
    "6964": 386,
    "6f70": 387,
    "2074686174": 388,
    "726f6e": 389,
    "6c6573": 390,
    "2047": 391,
    "207375": 392,
    "73656e": 393,
    "617279": 394,
    "2048": 395,
    "6f76": 396,
    "206465": 397,
    "2032": 398,
    "204e": 399,
    "20636f6e": 400,
    "206275": 401,
    "61726b": 402,
    "696c64": 403,
    "6974746c65": 404,
    "20526f636b": 405,
    "200a200a": 406,
    "207768": 407,
    "204c6974746c65": 408,
    "20616e": 409,
    "20402d": 410,
    "20402d40": 411,
    "2057": 412,
    "617465": 413,
    "756d": 414,
    "616374": 415,
    "6c6179": 416,
    "206368": 417,
    "73656e616c": 418,
    "6162": 419,
    "657373": 420,
    "616e73": 421,
    "616c6c": 422,
    "6967": 423,
    "746572": 424,
    "696573": 425,
    "756e": 426,
    "6c64": 427,
    "69636c6573": 428,
    "204368726f6e": 429,
    "204368726f6e69636c6573": 430,
    "20756e": 431,
    "6d656e74": 432,
    "616e64": 433,
    "6f73": 434,
    "726f6d": 435,
    "6974696f6e": 436,
    "203139": 437,
    "20636f6d": 438,
    "617274": 439,
    "6966": 440,
    "7175": 441,
    "203a": 442,
    "206e65": 443,
    "696c64696e67": 444,
    "2045": 445,
    "6f726b": 446,
    "203138": 447,
    "69616c": 448,
    "616b": 449,
    "2066726f6d": 450,
    "20686164": 451,
    "2041726b": 452,
    "7573": 453,
    "2070726f": 454,
    "697479": 455,
    "207365": 456,
    "207468656d": 457,
    "20496e": 458,
    "61726b6572": 459,
    "7574": 460,
    "6f7279": 461,
    "204f": 462,
    "697373": 463,
    "7567": 464,
    "657374": 465,
    "3030": 466,
    "204a": 467,
    "2072": 468,
    "2063686172": 469,
    "656e64": 470,
    "6f7374": 471,
    "20686572": 472,
    "204261726b6572": 473,
    "20736572": 474,
    "6574": 475,
    "206578": 476,
    "7070": 477,
    "2041726b616e73": 478,
    "204949": 479,
    "756c": 480,
    "656374": 481,
    "2041726b616e736173": 482,
    "757374": 483,
    "6f7573": 484,
    "6f756c64": 485,
    "205374": 486,
    "61746564": 487,
    "2063686172616374": 488,
    "686572": 489,
    "6f776572": 490,
    "7261": 491,
    "7562": 492,
    "2028": 493,
    "2029": 494,
    "2076": 495,
    "20697473": 496,
    "666f72": 497,
    "20776f726b": 498,
    "6869": 499,
    "696c6c": 500,
    "206f7264": 501,
    "6163": 502,
    "7565": 503,
    "616e74": 504,
    "206973": 505,
    "7572696e67": 506,
    "207370": 507,
    "207468656972": 508,
    "e381": 509,
    "20617265": 510,
    "766572": 511,
    "626572": 512,
    "7275": 513,
    "20417273656e616c": 514,
    "61736564": 515,
    "203230": 516,
    "736f": 517,
    "7669": 518,
    "7074": 519,
    "656172": 520,
    "6f6d65": 521,
    "6f7574": 522,
    "69616e": 523,
    "2074686973": 524,
    "20313836": 525,
    "696c6974": 526,
    "6176": 527,
    "20707265": 528,
    "2079": 529,
    "6f6b": 530,
    "206b": 531,
    "2061726d": 532,
    "6167": 533,
    "20402c": 534,
    "20402c40": 535,
    "20617273656e616c": 536,
    "2033": 537,
    "6f7274": 538,
    "6563": 539,
    "20616c736f": 540,
    "6f7468": 541,
    "697a": 542,
    "756768": 543,
    "207368": 544,
    "6572616c": 545,
    "65726e": 546,
    "616972": 547,
    "2055": 548,
    "76656c": 549,
    "20323031": 550,
    "20706572": 551,
    "617264": 552,
    "20646573": 553,
    "6e6564": 554,
    "20696e74": 555,
    "206e6f74": 556,
    "6f63": 557,
    "656c79": 558,
    "616368": 559,
    "666963": 560,
    "696e74": 561,
    "204b": 562,
    "204275": 563,
    "206275696c64696e67": 564,
    "20706c6179": 565,
    "61626c65": 566,
    "205265": 567,
    "696d65": 568,
    "6c6f77": 569,
    "706572": 570,
    "20636f6d70": 571,
    "6f6e67": 572,
    "697665": 573,
    "616e6365": 574,
    "696368": 575,
    "207765": 576,
    "726f6f70": 577,
    "206265656e": 578,
    "204275696c64696e67": 579,
    "e382": 580,
    "666572": 581,
    "76656c6f70": 582,
    "2077686f": 583,
    "206164": 584,
    "2073756368": 585,
    "207465": 586,
    "2072656c65": 587,
    "20696e746f": 588,
    "696e616c": 589,
    "697373696f6e": 590,
    "726f756768": 591,
    "207768696368": 592,
    "20706c": 593,
    "686564": 594,
    "74656e": 595,
    "61746572": 596,
    "20617274": 597,
    "6f7665726e": 598,
    "206e6f": 599,
    "e383": 600,
    "726564": 601,
    "20736572696573": 602,
    "20647572696e67": 603,
    "207072657669": 604,
    "20636f6e74": 605,
    "20776f756c64": 606,
    "757265": 607,
    "20636861726163746572": 608,
    "6f64": 609,
    "756e64": 610,
    "6374696f6e": 611,
    "2072656d": 612,
    "20686973": 613,
    "726f6f7073": 614,
    "20636c": 615,
    "6f6c64": 616,
    "6c6973": 617,
    "206162": 618,
    "656e7473": 619,
    "6e696e67": 620,
    "20546f776572": 621,
    "20494949": 622,
    "6174746c65": 623,
    "20636f6d6d": 624,
    "696465": 625,
    "20646576656c6f70": 626,
    "69727374": 627,
    "206d696c6974": 628,
    "20626567": 629,
    "7461696e": 630,
    "206e6577": 631,
    "2070726576696f7573": 632,
    "697265": 633,
    "726974": 634,
    "6e67": 635,
    "204974": 636,
    "616d6573": 637,
    "20666f75": 638,
    "207573": 639,
    "6f6e73": 640,
    "757365": 641,
    "7072": 642,
    "2074726f6f7073": 643,
    "6961": 644,
    "206669727374": 645,
    "20756e6974": 646,
    "61636b": 647,
    "746564": 648,
    "6f6e65": 649,
    "20706f73": 650,
    "66746572": 651,
    "2079656172": 652,
    "206d697373696f6e": 653,
    "2063616e": 654,
    "2077656170": 655,
    "617373": 656,
    "61726c79": 657,
    "726f79": 658,
    "20696e63": 659,
    "20707562": 660,
    "696e64": 661,
    "746f6e": 662,
    "20536865": 663,
    "20556e": 664,
    "6c6f": 665,
    "706c6179": 666,
    "2073746f7279": 667,
    "204e616d": 668,
    "2047616c6c": 669,
    "7279": 670,
    "6e646572": 671,
    "207468656d65": 672,
    "6f776e": 673,
    "206d616e": 674,
    "206f726967": 675,
    "206f726967696e616c": 676,
    "2070617274": 677,
    "207468726f756768": 678,
    "206d6f76": 679,
    "20617474": 680,
    "206c65": 681,
    "617374": 682,
    "696c65": 683,
    "205468": 684,
    "757365756d": 685,
    "69656c": 686,
    "746174696f6e": 687,
    "204e616d656c": 688,
    "204e616d656c657373": 689,
    "206d696c6974617279": 690,
    "2073657276": 691,
    "6f6e64": 692,
    "206167": 693,
    "6765": 694,
    "6d656e7473": 695,
    "747572": 696,
    "617365": 697,
    "69766564": 698,
    "656d626572": 699,
    "20627574": 700,
    "616b65": 701,
    "20656e": 702,
    "6f6f6b": 703,
    "2063686172616374657273": 704,
    "207477": 705,
    "6f7567": 706,
    "726f756e64": 707,
    "69746564": 708,
    "74696e67": 709,
    "206d65": 710,
    "20726563": 711,
    "20616c6c": 712,
    "726573": 713,
    "206576": 714,
    "20436f6e": 715,
    "20616d": 716,
    "616465": 717,
    "697465": 718,
    "636564": 719,
    "2061626f7574": 720,
    "726963": 721,
    "203030": 722,
    "20303030": 723,
    "756e6974696f6e": 724,
    "6e616e6365": 725,
    "6973746572": 726,
    "205365": 727,
    "2074696d65": 728,
    "6f6c6c6f77": 729,
    "666f726d": 730,
    "20646576656c6f706d656e74": 731,
    "20636172": 732,
    "20756e646572": 733,
    "7469": 734,
    "6c6564": 735,
    "207363": 736,
    "70656e": 737,
    "2034": 738,
    "2067616d6573": 739,
    "696b": 740,
    "6772": 741,
    "206f6e65": 742,
    "74686572": 743,
    "6363": 744,
    "206d61696e": 745,
    "6174696e67": 746,
    "646974696f6e": 747,
    "20656c65": 748,
    "206f66666963": 749,
    "20736f6c64": 750,
    "206f72646572": 751,
    "7765": 752,
    "206166746572": 753,
    "6c6963": 754,
    "74687572": 755,
    "20476f7665726e": 756,
    "2061726d73": 757,
    "3138": 758,
    "20506c6179": 759,
    "2067616d65706c6179": 760,
    "20666f6c6c6f77": 761,
    "20736563": 762,
    "6174696f6e73": 763,
    "206465736967": 764,
    "20626f7468": 765,
    "72696573": 766,
    "207472": 767,
    "6962": 768,
    "2072656c6561736564": 769,
    "20776865": 770,
    "6c6f636b": 771,
    "2074686579": 772,
    "20617070": 773,
    "206f74686572": 774,
    "656d62": 775,
    "20736f6d65": 776,
    "2074776f": 777,
    "657279": 778,
    "696e65": 779,
    "20706f": 780,
    "696d70": 781,
    "2075736564": 782,
    "20626563": 783,
    "207768696c65": 784,
    "206d6f7374": 785,
    "756c6172": 786,
    "207570": 787,
    "20776172": 788,
    "20636f6d6d616e64": 789,
    "656e6572616c": 790,
    "20647565": 791,
    "6965": 792,
    "206d7573": 793,
    "20666c": 794,
    "204578": 795,
    "2035": 796,
    "202d": 797,
    "756564": 798,
    "20726570": 799,
    "6169": 800,
    "207374617465": 801,
    "65646572616c": 802,
    "204d3138": 803,
    "20736d": 804,
    "20313932": 805,
    "20736973746572": 806,
    "6f7264": 807,
    "204a6170": 808,
    "204a6170616e": 809,
    "e381ae": 810,
    "69656c64": 811,
    "20506c617953": 812,
    "20506c617953746174696f6e": 813,
    "2032303131": 814,
    "2043616c": 815,
    "20626567616e": 816,
    "206d6f72": 817,
    "20616c6f6e67": 818,
    "2072656365": 819,
    "65646974696f6e": 820,
    "697a6564": 821,
    "206d697373696f6e73": 822,
    "636573": 823,
    "75616c": 824,
    "617073": 825,
    "20646570": 826,
    "63746564": 827,
    "20646966": 828,
    "7479": 829,
    "207468616e": 830,
    "6f7365": 831,
    "20626174746c65": 832,
    "20617373": 833,
    "206265696e67": 834,
    "2072656d61696e": 835,
    "2041726d": 836,
    "6666": 837,
    "656e6365": 838,
    "206561726c79": 839,
    "616365": 840,
    "6861": 841,
    "203b": 842,
    "20776561706f6e73": 843,
    "6874": 844,
    "20636f6e73": 845,
    "20636f6e74696e": 846,
    "20666f6c6c6f77696e67": 847,
    "6577": 848,
    "206e656564": 849,
    "20636f756c64": 850,
    "6475": 851,
    "61696c": 852,
    "20466c": 853,
    "20626574": 854,
    "206265747765": 855,
    "206265747765656e": 856,
    "204665": 857,
    "20466562": 858,
    "204665627275": 859,
    "204665627275617279": 860,
    "7564": 861,
    "20707572": 862,
    "207269": 863,
    "204d757365756d": 864,
    "20696c6c": 865,
    "75737472": 866,
    "204d6163": 867,
    "204d616341": 868,
    "204d61634172": 869,
    "204d6163417274687572": 870,
    "696c74": 871,
    "6c6973686564": 872,
    "61746573": 873,
    "20546f74": 874,
    "656c6c": 875,
    "20737572": 876,
    "206f72646e616e6365": 877,
    "20446f72": 878,
    "61626f72": 879,
    "20736865": 880,
    "616972696573": 881,
    "646f6e": 882,
    "6669656c64": 883,
    "206f7574": 884,
    "6761": 885,
    "2073616d65": 886,
    "756e73": 887,
    "20616761696e": 888,
    "20496d": 889,
    "206f766572": 890,
    "207265747572": 891,
    "6177": 892,
    "2077726974": 893,
    "2068616e64": 894,
    "206f70656e": 895,
    "204d6179": 896,
    "20657870": 897,
    "206c6f63": 898,
    "6565": 899,
    "2073706563": 900,
    "71756164": 901,
    "20666f756e64": 902,
    "20656c656d656e7473": 903,
    "20686173": 904,
    "69646564": 905,
    "20636c617373": 906,
    "2047616c6c69616e": 907,
    "2041726d79": 908,
    "3232": 909,
    "207468657265": 910,
    "65726564": 911,
    "696564": 912,
    "617263": 913,
    "206a": 914,
    "20736f6c6469": 915,
    "20736f6c6469657273": 916,
    "20776f726b73": 917,
    "20756e74": 918,
    "20756e74696c": 919,
    "6f757365": 920,
    "616a": 921,
    "2073757070": 922,
    "7473": 923,
    "6f756e": 924,
    "206d616465": 925,
    "6a656374": 926,
    "20696e7374": 927,
    "207075626c6963": 928,
    "6d616e": 929,
    "656e646564": 930,
    "6974696573": 931,
    "20466c6f776572": 932,
    "20696c6c75737472": 933,
    "20c3": 934,
    "20c386": 935,
    "20c3867374": 936,
    "20c38673746865": 937,
    "20c3867374686574": 938,
    "20c38673746865746963": 939,
    "20436c": 940,
    "20436c7562": 941,
    "206275696c74": 942,
    "20616d6d": 943,
    "20616d6d756e6974696f6e": 944,
    "20556e69746564": 945,
    "20436170": 946,
    "20546f7474656e": 947,
    "657373696f6e": 948,
    "205374617465": 949,
    "757468": 950,
    "657267": 951,
    "20726570616972": 952,
    "20436f6e66": 953,
    "20436f6e666564": 954,
    "20436f6e6665646572": 955,
    "2063616c": 956,
    "20666c696e74": 957,
    "2031383632": 958,
    "20736d616c6c": 959,
    "2044756e": 960,
    "2044756e6e696e67": 961,
    "2044756e6e696e67746f6e": 962,
    "207061696e": 963,
    "616d696c": 964,
    "20e2": 965,
    "20e280": 966,
    "2043726f79": 967,
    "2043726f79646f6e": 968,
    "c58d": 969,
    "73696465": 970,
    "20726f": 971,
    "6973696f6e": 972,
    "204a616e": 973,
    "204a616e75": 974,
    "204a616e75617279": 975,
    "6d70": 976,
    "6f7273": 977,
    "726f70": 978,
    "20576172": 979,
    "20616761696e7374": 980,
    "206c6172": 981,
    "206d6f7265": 982,
    "20656e74": 983,
    "207465616d": 984,
    "69736564": 985,
    "207265636569766564": 986,
    "20646f776e": 987,
    "697365": 988,
    "20626f6f6b": 989,
    "69616c6c79": 990,
    "2065616368": 991,
    "20756e697473": 992,
    "20416c": 993,
    "206164646974696f6e": 994,
    "70656374": 995,
    "20616374": 996,
    "2064697374": 997,
    "20706f696e74": 998,
    "206b6e": 999,
    "20696d70": 1000,
    "726964": 1001,
    "6f736564": 1002,
    "73656c": 1003,
    "20686f6d65": 1004,
    "696f7573": 1005,
    "63657074": 1006,
    "616765": 1007,
    "73696f6e": 1008,
    "204f6e": 1009,
    "20696e746572": 1010,
    "2054686973": 1011,
    "20686f757365": 1012,
    "2047656e6572616c": 1013,
    "2070726f76": 1014,
    "20637265": 1015,
    "20646563": 1016,
    "20636f6c": 1017,
    "20616e696d65": 1018,
    "2070726f6475": 1019,
    "204865": 1020,
    "206c61746572": 1021,
    "20697373": 1022,
    "2064656d": 1023,
    "203130": 1024,
    "6f79": 1025,
    "207175": 1026,
    "20417567": 1027,
    "20417567757374": 1028,
    "2048697374": 1029,
    "20313934": 1030,
    "20476f7665726e6f72": 1031,
    "20576f726b": 1032,
    "207965617273": 1033,
    "20537461746573": 1034,
    "204361707461696e": 1035,
    "76656e74": 1036,
    "2073656e74": 1037,
    "2036": 1038,
    "6b6574": 1039,
    "20666c696e746c6f636b": 1040,
    "20726966": 1041,
    "2073686f74": 1042,
    "20436f6e6665646572617465": 1043,
    "2066616d696c": 1044,
    "20313931": 1045,
    "2046616972696573": 1046,
    "20426174746c65": 1047,
    "207265666572": 1048,
    "6963616c": 1049,
    "206665": 1050,
    "756c7469": 1051,
    "706c65": 1052,
    "616b696e67": 1053,
    "2053616b": 1054,
    "2064697265": 1055,
    "617761": 1056,
    "20706f736974": 1057,
    "2072656c65617365": 1058,
    "204e6f76": 1059,
    "204e6f76656d626572": 1060,
    "207472616e73": 1061,
    "766f6c": 1062,
    "697473": 1063,
    "20706c61796572": 1064,
    "206772": 1065,
    "207371756164": 1066,
    "6f756768": 1067,
    "207379": 1068,
    "20447572696e67": 1069,
    "2070657273": 1070,
    "2061726f756e64": 1071,
    "206f6e6c79": 1072,
    "656e7469616c": 1073,
    "617665": 1074,
    "206163746976": 1075,
    "6f6d6d": 1076,
    "206d6f7665": 1077,
    "20456e67": 1078,
    "20646f": 1079,
    "61736f6e": 1080,
    "6b73": 1081,
    "2064657374": 1082,
    "20796f75": 1083,
    "20706f7374": 1084,
    "2070726573": 1085,
    "6174656c79": 1086,
    "2063697479": 1087,
    "616a6f72": 1088,
    "6174686572": 1089,
    "66616374": 1090,
    "207468656e": 1091,
    "20626567696e": 1092,
    "6f70756c6172": 1093,
    "20726573": 1094,
    "20696d70726f": 1095,
    "20696d70726f76": 1096,
    "696f": 1097,
    "207772697474656e": 1098,
    "756b": 1099,
    "20497473": 1100,
    "6174657269616c": 1101,
    "617068": 1102,
    "206d6f64": 1103,
    "206e6565646564": 1104,
    "206775": 1105,
    "666f7265": 1106,
    "756e65": 1107,
    "73747275": 1108,
    "69737473": 1109,
    "61746368": 1110,
    "204279": 1111,
    "2037": 1112,
    "6976656c79": 1113,
    "20636f6e74696e756564": 1114,
    "20696e636c": 1115,
    "20696e636c7564": 1116,
    "20636974": 1117,
    "6d6572": 1118,
    "6f68": 1119,
    "2e53": 1120,
    "2068656164": 1121,
    "20313839": 1122,
    "20457870": 1123,
    "696665": 1124,
    "2073746f72": 1125,
    "2039": 1126,
    "206665646572616c": 1127,
    "20676f7665726e": 1128,
    "20417274": 1129,
    "2061757468": 1130,
    "20617574686f72": 1131,
    "656e73": 1132,
    "2063617274": 1133,
    "2063617274726964": 1134,
    "2070657263": 1135,
    "20706572637573": 1136,
    "2070657263757373696f6e": 1137,
    "20666f7572": 1138,
    "20736572766963": 1139,
    "206c61626f72": 1140,
    "2026": 1141,
    "3073": 1142,
    "204d617279": 1143,
    "63686f": 1144,
    "63686f6f6c": 1145,
    "20446f726f7468": 1146,
    "20446f726f746879": 1147,
    "616c64": 1148,
    "2066616d696c79": 1149,
    "206b696e64": 1150,
    "206b696e64657267": 1151,
    "206b696e64657267617274": 1152,
    "206b696e64657267617274656e": 1153,
    "2053656e": 1154,
    "2053656e6a": 1155,
    "2053656e6ac58d": 1156,
    "204a6170616e6573": 1157,
    "204a6170616e657365": 1158,
    "e688": 1159,
    "e688a6": 1160,
    "aae382": 1161,
    "206c6974": 1162,
    "20726f6c65": 1163,
    "2053656761": 1164,
    "6c6f79": 1165,
    "207265616c": 1166,
    "2070726564": 1167,
    "2047616c6c6961": 1168,
    "2043616c616d": 1169,
    "20526176": 1170,
    "20526176656e": 1171,
    "2032303130": 1172,
    "61747572": 1173,
    "206d756c7469": 1174,
    "2064657369676e": 1175,
    "2053616b696d": 1176,
    "2053616b696d6f74": 1177,
    "2053616b696d6f746f": 1178,
    "206f70656e696e67": 1179,
    "20707261": 1180,
    "2063726974": 1181,
    "20637269746963": 1182,
    "69626c65": 1183,
    "204173": 1184,
    "207768657265": 1185,
    "20706c6179657273": 1186,
    "2074616b65": 1187,
    "20696e64": 1188,
    "207768656e": 1189,
    "69666963": 1190,
    "20737562": 1191,
    "2072656c": 1192,
    "20646966666572": 1193,
    "206d656d62": 1194,
    "206d656d62657273": 1195,
    "20636f6d706c65": 1196,
    "206570": 1197,
    "696e6573": 1198,
    "206f6e6365": 1199,
    "20747572": 1200,
    "656d656e74": 1201,
    "2073696e67": 1202,
    "6f74656e7469616c": 1203,
    "717565": 1204,
    "776179": 1205,
    "706f72": 1206,
    "204b7572": 1207,
    "204b757274": 1208,
    "20776561706f6e": 1209,
    "205368": 1210,
    "616e67": 1211,
    "726962": 1212,
    "206b6e6f776e": 1213,
    "69676e": 1214,
    "206e756d": 1215,
    "7264": 1216,
    "20526567": 1217,
    "206d6f74": 1218,
    "616861": 1219,
    "2074687265": 1220,
    "207468726565": 1221,
    "204e6f": 1222,
    "20616363": 1223,
    "686573": 1224,
    "76656e": 1225,
    "207468657365": 1226,
    "69676874": 1227,
    "20636f6e73697374": 1228,
    "206f7264657273": 1229,
    "20736f": 1230,
    "2077697468696e": 1231,
    "206f77": 1232,
    "206566": 1233,
    "206566666f72": 1234,
    "20746f77": 1235,
    "20656e64": 1236,
    "20666f726d": 1237,
    "20666f726365": 1238,
    "20686f77": 1239,
    "65766572": 1240,
    "78696d": 1241,
    "6369": 1242,
    "207375706572": 1243,
    "2061726d6564": 1244,
    "20676f": 1245,
    "204465": 1246,
    "20746f6f6b": 1247,
    "20737461": 1248,
    "207374616666": 1249,
    "20706f70756c6172": 1250,
    "6f756e74": 1251,
    "617a": 1252,
    "756b69": 1253,
    "206d6174657269616c": 1254,
    "207365636f6e64": 1255,
    "2072656d6f76": 1256,
    "2070726f6475636564": 1257,
    "207468656d6573": 1258,
    "20416e": 1259,
    "2064657369676e6564": 1260,
    "206265666f7265": 1261,
    "20636f6e73747275": 1262,
    "20647574": 1263,
    "206176": 1264,
    "20617661696c": 1265,
    "616964": 1266,
    "20417072": 1267,
    "20417072696c": 1268,
    "203233": 1269,
    "72696e67": 1270,
    "617468": 1271,
    "2048696e64": 1272,
    "2048696e646d616e": 1273,
    "204c65": 1274,
    "204a756e65": 1275,
    "20526f": 1276,
    "2074656c65": 1277,
    "2e532e": 1278,
    "20486973746f7279": 1279,
    "20626563616d65": 1280,
    "2043616d": 1281,
    "2043616d64": 1282,
    "2043616d64656e": 1283,
    "2045787065646974696f6e": 1284,
    "616d6564": 1285,
    "20657374": 1286,
    "206573746162": 1287,
    "207369": 1288,
    "20736978": 1289,
    "6f686e": 1290,
    "69636b": 1291,
    "6976696c": 1292,
    "206d656e": 1293,
    "2031383631": 1294,
    "2052656374": 1295,
    "20526563746f72": 1296,
    "726973": 1297,
    "20617373656d62": 1298,
    "20616e79": 1299,
    "20636974697a": 1300,
    "20757365": 1301,
    "206d616e75": 1302,
    "206d616e7566616374": 1303,
    "206361727472696467": 1304,
    "2063617274726964676573": 1305,
    "206d75736b6574": 1306,
    "2077656c6c": 1307,
    "202e36": 1308,
    "202e3639": 1309,
    "207269666c6573": 1310,
    "20526976": 1311,
    "205269766572": 1312,
    "2041726b6164": 1313,
    "2041726b6164656c": 1314,
    "2041726b6164656c70": 1315,
    "2041726b6164656c706869": 1316,
    "2041726b6164656c70686961": 1317,
    "206d6f6e": 1318,
    "206d6f6e7468": 1319,
    "2062616c6c": 1320,
    "2053756d": 1321,
    "6f727468": 1322,
    "207061726b": 1323,
    "20e28093": 1324,
    "646d": 1325,
    "696c6472": 1326,
    "696c6472656e": 1327,
    "207075626c6973686564": 1328,
    "20626f6f6b73": 1329,
    "2053742e": 1330,
    "61697279": 1331,
    "20e688a6": 1332,
    "20e688a6e5": 1333,
    "20e688a6e5a0": 1334,
    "20e688a6e5a0b4": 1335,
    "20e688a6e5a0b4e381ae": 1336,
    "20e688a6e5a0b4e381aee383": 1337,
    "20e688a6e5a0b4e381aee383b4": 1338,
    "20e688a6e5a0b4e381aee383b4e382": 1339,
    "20e688a6e5a0b4e381aee383b4e382a1": 1340,
    "20e688a6e5a0b4e381aee383b4e382a1e383": 1341,
    "20e688a6e5a0b4e381aee383b4e382a1e383ab": 1342,
    "20e688a6e5a0b4e381aee383b4e382a1e383abe382": 1343,
    "20e688a6e5a0b4e381aee383b4e382a1e383abe382ad": 1344,
    "20e688a6e5a0b4e381aee383b4e382a1e383abe382ade383": 1345,
    "20e688a6e5a0b4e381aee383b4e382a1e383abe382ade383a5": 1346,
    "20e688a6e5a0b4e381aee383b4e382a1e383abe382ade383a5e383": 1347,
    "20e688a6e5a0b4e381aee383b4e382a1e383abe382ade383a5e383aae382": 1348,
    "20e688a6e5a0b4e381aee383b4e382a1e383abe382ade383a5e383aae382a2": 1349,
    "20426174746c656669656c64": 1350,
    "207265666572726564": 1351,
    "2076696465": 1352,
    "20766964656f": 1353,
    "204d6564": 1354,
    "204d65646961": 1355,
    "204d656469612e": 1356,
    "204d656469612e56": 1357,
    "204d656469612e566973696f6e": 1358,
    "20456d70": 1359,
    "20707265646563": 1360,
    "20707265646563657373": 1361,
    "20706572666f726d": 1362,
    "6c61636b": 1363,
    "206f706572": 1364,
    "20496d706572": 1365,
    "20496d70657269616c": 1366,
    "206c61726765": 1367,
    "20706f7274": 1368,
    "20576869": 1369,
    "205768696c65": 1370,
    "206d756c7469706c65": 1371,
    "20646972656374": 1372,
    "2054616b": 1373,
    "2073756e67": 1374,
    "2073616c": 1375,
    "2073616c6573": 1376,
    "2070726169736564": 1377,
    "20636f6e74656e74": 1378,
    "20657870616e64": 1379,
    "20657870616e646564": 1380,
    "2065646974696f6e": 1381,
    "2061646170": 1382,
    "20447565": 1383,
    "766f6c7574": 1384,
    "766f6c7574696f6e": 1385,
    "20656e656d": 1386,
    "696b65": 1387,
    "656c73": 1388,
    "7874": 1389,
    "75616c6c79": 1390,
    "20766172": 1391,
    "20617070726f": 1392,
    "2073656c65": 1393,
    "206f6666": 1394,
    "2063616d": 1395,
    "2063616d70": 1396,
    "726f77": 1397,
    "20646966666572656e74": 1398,
    "2065706973": 1399,
    "20657069736f64": 1400,
    "20646966666963": 1401,
    "20646966666963756c": 1402,
    "20646966666963756c7479": 1403,
    "20616c7468": 1404,
    "20616c74686f756768": 1405,
    "2073797374": 1406,
    "2073797374656d": 1407,
    "207573696e67": 1408,
    "20626174746c656669656c64": 1409,
    "20706572736f6e": 1410,
    "6e73": 1411,
    "2045616368": 1412,
    "2063616c6c": 1413,
    "206966": 1414,
    "20706f696e7473": 1415,
    "20506f74656e7469616c": 1416,
    "20736b": 1417,
    "20736b696c6c": 1418,
    "20756e69": 1419,
    "20756e69717565": 1420,
    "207468726f7567686f7574": 1421,
    "20626f": 1422,
    "206163": 1423,
    "2068617665": 1424,
    "617679": 1425,
    "2066697665": 1426,
    "61696e6564": 1427,
    "20343232": 1428,
    "207265636f7264": 1429,
    "204f7264": 1430,
    "204d696c6974": 1431,
    "616479": 1432,
    "76696e67": 1433,
    "616c73": 1434,
    "2068696d": 1435,
    "73656c66": 1436,
    "2044617263": 1437,
    "204461726373656e": 1438,
    "2064657374726f79": 1439,
    "20796f756e67": 1440,
    "2066656c": 1441,
    "206d79": 1442,
    "2043616c616d697479": 1443,
    "206d6f73746c79": 1444,
    "696c697479": 1445,
    "206d616b65": 1446,
    "2074696d": 1447,
    "66756c": 1448,
    "2072616e": 1449,
    "206c656164": 1450,
    "2044616861": 1451,
    "204461686175": 1452,
    "6f756e64": 1453,
    "766573": 1454,
    "206b65": 1455,
    "206b657074": 1456,
    "20636170": 1457,
    "61726473": 1458,
    "20686f7765766572": 1459,
    "20737570706f7274": 1460,
    "206c617374": 1461,
    "69646573": 1462,
    "206c697374": 1463,
    "706172": 1464,
    "20626567696e6e696e67": 1465,
    "2072657370": 1466,
    "696373": 1467,
    "76696577": 1468,
    "69726564": 1469,
    "20706c6174": 1470,
    "20706c6174666f726d": 1471,
    "2075706f6e": 1472,
    "204675": 1473,
    "2046756a": 1474,
    "20696d70726f76656d": 1475,
    "20696d70726f76656d656e7473": 1476,
    "2073747275": 1477,
    "20737472756374": 1478,
    "20737472756374757265": 1479,
    "7665": 1480,
    "20696e636f72": 1481,
    "20696e636f72706f72": 1482,
    "2072656d6f766564": 1483,
    "20776f726b6564": 1484,
    "61636564": 1485,
    "2070726f62": 1486,
    "6d73": 1487,
    "2064657370": 1488,
    "2064657370697465": 1489,
    "2073656e": 1490,
    "2073656e7365": 1491,
    "6f726c64": 1492,
    "2050726f": 1493,
    "206d75736963": 1494,
    "206d75": 1495,
    "206d756368": 1496,
    "2067756974": 1497,
    "20677569746172": 1498,
    "7261636b": 1499,
    "697368": 1500,
    "2064656d6f": 1501,
    "20617661696c61626c65": 1502,
    "6f7572": 1503,
    "20646574": 1504,
    "207374696c6c": 1505,
    "2070726f6d": 1506,
    "20766973": 1507,
    "6c697368": 1508,
    "20657863": 1509,
    "203135": 1510,
    "7072657373": 1511,
    "207075726368": 1512,
    "2070757270": 1513,
    "20706f7373": 1514,
    "616e636573": 1515,
    "6f6c756d": 1516,
    "206c6f6361746564": 1517,
    "205061726b": 1518,
    "206d757365756d": 1519,
    "617274657273": 1520,
    "696e6374": 1521,
    "20746f776572": 1522,
    "206f6c64": 1523,
    "2063656e74": 1524,
    "20446f7567": 1525,
    "20446f75676c": 1526,
    "20446f75676c6173": 1527,
    "2066726f6e": 1528,
    "206c696665": 1529,
    "206d616e79": 1530,
    "2065737461626c6973686564": 1531,
    "204a6f686e": 1532,
    "204665646572616c": 1533,
    "20476f7665726e6d656e74": 1534,
    "7465": 1535,
    "20736572766564": 1536,
    "2074656c656772": 1537,
    "7068": 1538,
    "6f726e": 1539,
    "6d697468": 1540,
    "2073746f726573": 1541,
    "20636974697a656e73": 1542,
    "2073757272": 1543,
    "2073757272656e64": 1544,
    "70746564": 1545,
    "206d756e6974696f6e": 1546,
    "206d756e6974696f6e73": 1547,
    "726177": 1548,
    "2038": 1549,
    "6162726963": 1550,
    "206d616e7566616374757265": 1551,
    "204d31383232": 1552,
    "204d697373": 1553,
    "204d697373697373": 1554,
    "204d69737369737369": 1555,
    "204d697373697373697070": 1556,
    "204d69737369737369707069": 1557,
    "2048616c6c": 1558,
    "2073657276696365": 1559,
    "20657175": 1560,
    "616368696e": 1561,
    "616368696e657279": 1562,
    "61726c": 1563,
    "2031383633": 1564,
    "203735": 1565,
    "6f6c73": 1566,
    "20656c": 1567,
    "2062726f756768": 1568,
    "2062726f75676874": 1569,
    "206f62": 1570,
    "2073686f7467": 1571,
    "2073686f7467756e73": 1572,
    "204c74": 1573,
    "204c742e": 1574,
    "20696e636c75646564": 1575,
    "20477265": 1576,
    "207061636b": 1577,
    "206275636b": 1578,
    "207265706169726564": 1579,
    "2053756d6d": 1580,
    "2072656e": 1581,
    "20737572726f756e64": 1582,
    "20737572726f756e64696e67": 1583,
    "696e6773": 1584,
    "206576656e": 1585,
    "7468726f70": 1586,
    "2031393233": 1587,
    "20436872": 1588,
    "20436872697374": 1589,
    "207061696e74696e67": 1590,
    "206d6f74686572": 1591,
    "2057616c64": 1592,
    "2057616c64726f6e": 1593,
    "2057616c64726f6e73": 1594,
    "6f7374756d": 1595,
    "20e688a6e5a0b4e381aee383b4e382a1e383abe382ade383a5e383aae382a233": 1596,
    "2074616374": 1597,
    "20746163746963616c": 1598,
    "20706c6179696e67": 1599,
    "20646576656c6f706564": 1600,
    "20506f7274": 1601,
    "20506f727461626c65": 1602,
    "6c6561736564": 1603,
    "2074686972": 1604,
    "207468697264": 1605,
    "20706172": 1606,
    "2070656e": 1607,
    "206e6174696f6e": 1608,
    "20536563": 1609,
    "205365636f6e64": 1610,
    "726574": 1611,
    "206f7065726174696f6e73": 1612,
    "6974746564": 1613,
    "20646f6e65": 1614,
    "207374616e64": 1615,
    "2061646a": 1616,
    "2061646a757374": 1617,
    "206d616b696e67": 1618,
    "6976696e67": 1619,
    "616974": 1620,
    "20486f6e": 1621,
    "20486f6e6a": 1622,
    "20486f6e6a6f75": 1623,
    "6f736869": 1624,
    "2072657475726e6564": 1625,
    "206469726563746f72": 1626,
    "204f7a": 1627,
    "204f7a617761": 1628,
    "20276e": 1629,
    "20706f736974697665": 1630,
    "204166746572": 1631,
    "20646f776e6c6f": 1632,
    "20646f776e6c6f6164": 1633,
    "20616e696d": 1634,
    "206c6f77": 1635,
    "206c6f63616c": 1636,
    "207472616e736c": 1637,
    "2072657475726e": 1638,
    "206672": 1639,
    "20417a": 1640,
    "20417a757265": 1641,
    "205265766f6c7574696f6e": 1642,
    "2047616d65": 1643,
    "20636f6e74726f": 1644,
    "20636f6e74726f6c": 1645,
    "20656e656d79": 1646,
    "2053746f72": 1647,
    "6f6963": 1648,
    "6772657373": 1649,
    "206c696e": 1650,
    "20756e6c6f636b": 1651,
    "20756e6c6f636b6564": 1652,
    "206d617073": 1653,
    "616e6e6564": 1654,
    "206d6170": 1655,
    "2073656c6563746564": 1656,
    "2072657374": 1657,
    "206164646974696f6e616c": 1658,
    "2073696d": 1659,
    "206361727269": 1660,
    "206772616e74": 1661,
    "206d6f76656d656e74": 1662,
    "617567": 1663,
    "69676e6564": 1664,
    "20506f74656e7469616c73": 1665,
    "20736b696c6c73": 1666,
    "2054686579": 1667,
    "20646976": 1668,
    "6f6e616c": 1669,
    "7465726564": 1670,
    "696374": 1671,
    "2068656c": 1672,
    "2068656c70": 1673,
    "20546f": 1674,
    "206261736564": 1675,
    "204162": 1676,
    "6f737473": 1677,
    "20466f72": 1678,
    "20696e76": 1679,
    "20496d63": 1680,
    "20496d6361": 1681,
    "676574": 1682,
    "20636c6173736573": 1683,
    "616e63": 1684,
    "20677265": 1685,
    "6666656374": 1686,
    "77617264": 1687,
    "7269627574": 1688,
    "6174757265": 1689,
    "20636f6d706f736564": 1690,
    "206572": 1691,
    "706c": 1692,
    "204e6f2e": 1693,
    "75736564": 1694,
    "20726564": 1695,
    "2068696d73656c66": 1696,
    "616c65": 1697,
    "207370656369616c": 1698,
    "2064657374726f796564": 1699,
    "205269656c": 1700,
    "205269656c61": 1701,
    "20776f6d": 1702,
    "20636f6e73697374696e67": 1703,
    "20757070": 1704,
    "207570706572": 1705,
    "636865": 1706,
    "6162696c697479": 1707,
    "2074696d6573": 1708,
    "65727461696e": 1709,
    "203432326e64": 1710,
    "206d656d626572": 1711,
    "6163686564": 1712,
    "2070726f74": 1713,
    "69746f72": 1714,
    "207468656d73656c": 1715,
    "207468656d73656c766573": 1716,
    "206361706974": 1717,
    "206361706974616c": 1718,
    "2070726573656e74": 1719,
    "206576656e7473": 1720,
    "206d616a6f72": 1721,
    "736573": 1722,
    "20456d70697265": 1723,
    "20706f736974696f6e": 1724,
    "2073686f7274": 1725,
    "204d61": 1726,
    "206372656174696e67": 1727,
    "206a757374": 1728,
    "207065": 1729,
    "2061736b": 1730,
    "6c6567": 1731,
    "69766573": 1732,
    "20617070726f78696d": 1733,
    "20617070726f78696d6174656c79": 1734,
    "2077686174": 1735,
    "20696e74657276696577": 1736,
    "20636f6e736964": 1737,
    "2062657374": 1738,
    "207363656e": 1739,
    "2059": 1740,
    "6969": 1741,
    "206e756d626572": 1742,
    "2064656369646564": 1743,
    "20576865": 1744,
    "205768656e": 1745,
    "6964656e74": 1746,
    "206f726967696e616c6c79": 1747,
    "2070726f6a656374": 1748,
    "20746f6e65": 1749,
    "696c6172": 1750,
    "2072656a656374": 1751,
    "2072656a6563746564": 1752,
    "20706965": 1753,
    "207069656365": 1754,
    "756d656e7473": 1755,
    "20636f6e7374727563746564": 1756,
    "69747375": 1757,
    "207365766572": 1758,
    "7261636b73": 1759,
    "e38282": 1760,
    "20706172746963": 1761,
    "2053657074": 1762,
    "2053657074656d626572": 1763,
    "206973737565": 1764,
    "20617070656172": 1765,
    "2064657461696c": 1766,
    "20444c": 1767,
    "20444c43": 1768,
    "20457874": 1769,
    "204578747261": 1770,
    "2045646974696f6e": 1771,
    "61676564": 1772,
    "6f706c65": 1773,
    "207472616e73666572": 1774,
    "2077657374": 1775,
    "2067656e6572616c": 1776,
    "205053": 1777,
    "66666963": 1778,
    "207061746368": 1779,
    "2032303132": 1780,
    "20456e676c697368": 1781,
    "20646179": 1782,
    "6c7573": 1783,
    "20353030": 1784,
    "2073697465": 1785,
    "6163696e67": 1786,
    "2072656379": 1787,
    "207265637963": 1788,
    "2072656379636c6564": 1789,
    "696b6573": 1790,
    "2070726f7669646564": 1791,
    "2070726f66": 1792,
    "656c696e67": 1793,
    "20616e6e": 1794,
    "20617370656374": 1795,
    "20706f7369746976656c79": 1796,
    "6167617a": 1797,
    "6167617a696e65": 1798,
    "796c65": 1799,
    "6174746572": 1800,
    "206c6566": 1801,
    "206c656674": 1802,
    "2051": 1803,
    "2073756d": 1804,
    "2073756d6d6572": 1805,
    "20696e73": 1806,
    "656e636564": 1807,
    "656e636573": 1808,
    "20646964": 1809,
    "207665": 1810,
    "6c6f77657273": 1811,
    "20696c6c7573747261746564": 1812,
    "206576656e74": 1813,
    "206576656e7475616c6c79": 1814,
    "6d65": 1815,
    "200a200a200a": 1816,
    "696e6365": 1817,
    "6f6d6d697373696f6e": 1818,
    "204e61747572": 1819,
    "204e61747572616c": 1820,
    "2031393432": 1821,
    "20313939": 1822,
    "204d696c6974617279": 1823,
    "20686561647175": 1824,
    "206e616d65": 1825,
    "657369646573": 1826,
    "206275696c64696e6773": 1827,
    "20636f6d6d616e646572": 1828,
    "6f757468": 1829,
    "20576f726c64": 1830,
    "206e616d6564": 1831,
    "2066726f6e7469": 1832,
    "2066726f6e74696572": 1833,
    "206163726573": 1834,
    "204d616a6f72": 1835,
    "20737570657276": 1836,
    "203134": 1837,
    "20696e637265": 1838,
    "20696e63726561736564": 1839,
    "696f72": 1840,
    "2073706563696d": 1841,
    "20436976696c": 1842,
    "2073696d70": 1843,
    "20636f6d70616e": 1844,
    "206465746572": 1845,
    "20636f6e76656e74": 1846,
    "20636f6e76656e74696f6e": 1847,
    "2068656c64": 1848,
    "203238": 1849,
    "20706f7373657373696f6e": 1850,
    "206f66666963657273": 1851,
    "20646973": 1852,
    "207265696e": 1853,
    "207265696e666f72": 1854,
    "207265696e666f726365": 1855,
    "2072756d": 1856,
    "2074656c656772617068": 1857,
    "20486172": 1858,
    "204861727265": 1859,
    "2048617272656c": 1860,
    "20676172": 1861,
    "20676172726973": 1862,
    "206761727269736f6e": 1863,
    "20466f7274": 1864,
    "2070726f63": 1865,
    "20676f7665726e6f72": 1866,
    "206d696c69746961": 1867,
    "20617373656d626c6564": 1868,
    "2073757272656e646572": 1869,
    "20636861726765": 1870,
    "20506572": 1871,
    "2061677265": 1872,
    "20416c6c": 1873,
    "204d6f7374": 1874,
    "206566666f727473": 1875,
    "203234": 1876,
    "2063617073": 1877,
    "7a65": 1878,
    "204d313834": 1879,
    "203132": 1880,
    "20526966": 1881,
    "20766172696f7573": 1882,
    "66616e74": 1883,
    "66616e747279": 1884,
    "20526567696d": 1885,
    "206d757374": 1886,
    "20697373756564": 1887,
    "2063616c69": 1888,
    "2063616c69626572": 1889,
    "2056616e": 1890,
    "20446f726e": 1891,
    "203131": 1892,
    "20737570706c79": 1893,
    "206d616368696e657279": 1894,
    "61626c79": 1895,
    "20432e": 1896,
    "72696374": 1897,
    "206e6561726c79": 1898,
    "206c61626f726174": 1899,
    "204f72646e616e6365": 1900,
    "2073706972": 1901,
    "20746f6f6c73": 1902,
    "696272": 1903,
    "696272617279": 1904,
    "20656d70": 1905,
    "20656d706c6f79": 1906,
    "20572e": 1907,
    "2064726177": 1908,
    "2061637469766974696573": 1909,
    "20477265656e": 1910,
    "20647574696573": 1911,
    "2053756d6d617279": 1912,
    "207061696e746564": 1913,
    "2072656d61696e6564": 1914,
    "2046726564": 1915,
    "3733": 1916,
    "20666c6f": 1917,
    "20c2": 1918,
    "204e6f727468": 1919,
    "67616e": 1920,
    "20482e": 1921,
    "6f6369": 1922,
    "6f63696574": 1923,
    "206d6f766564": 1924,
    "206c617267": 1925,
    "2031393131": 1926,
    "2068697374": 1927,
    "20617474656e646564": 1928,
    "204c61746572": 1929,
    "204e6174696f6e": 1930,
    "204e6174696f6e616c": 1931,
    "6f726963": 1932,
    "206564": 1933,
    "20656475": 1934,
    "2065647563": 1935,
    "205363686f6f6c": 1936,
    "20486572": 1937,
    "20537072": 1938,
    "20537072696e67": 1939,
    "2043687269737469616e": 1940,
    "207468656d6564": 1941,
    "20e28099": 1942,
    "2045646d": 1943,
    "2045646d756e64": 1944,
    "20526170": 1945,
    "205261706861": 1946,
    "205261706861656c": 1947,
    "20617274697374": 1948,
    "2064696564": 1949,
    "204661697279": 1950,
    "2063617265": 1951,
    "207363686f6f6c": 1952,
    "20706f737463": 1953,
    "20707269": 1954,
    "206465617468": 1955,
    "20667269": 1956,
    "20667269656e64": 1957,
    "20667269656e6473": 1958,
    "203139323073": 1959,
    "20436c6179": 1960,
    "20436c6179746f6e": 1961,
    "2043616c7468726f70": 1962,
    "2073747564": 1963,
    "206368696c6472656e": 1964,
    "20636f7374756d": 1965,
    "20636f7374756d6573": 1966,
    "20636f6d6d6f6e": 1967,
    "206f757473696465": 1968,
    "207072656465636573736f7273": 1969,
    "2070656e616c": 1970,
    "204575": 1971,
    "204575726f70": 1972,
    "204575726f70616e": 1973,
    "20736563726574": 1974,
    "20626c61636b": 1975,
    "206361727279": 1976,
    "206361727279696e67": 1977,
    "20706f7274696f6e": 1978,
    "2072657461696e": 1979,
    "207374616e64617264": 1980,
    "20666561747572": 1981,
    "20666f7267": 1982,
    "636f6d": 1983,
    "2043686172": 1984,
    "2043686172616374": 1985,
    "2052616974": 1986,
    "205261697461": 1987,
    "20636f6d706f73": 1988,
    "20636f6d706f736572": 1989,
    "20486974": 1990,
    "204869746f736869": 1991,
    "2054616b6573": 1992,
    "2054616b65736869": 1993,
    "2068616e646c6564": 1994,
    "2073637269": 1995,
    "20736372697074": 1996,
    "20776573": 1997,
    "20776573746572": 1998,
    "207765737465726e": 1999,
    "20646f776e6c6f616461626c65": 2000,
    "2061646170746564": 2001,
    "206d616e6761": 2002,
    "20616e696d6174696f6e": 2003,
    "206c6f63616c697a6564": 2004,
    "2066616e": 2005,
    "207472616e736c6174696f6e": 2006,
    "617469626c65": 2007,
    "2032303134": 2008,
    "206672616e": 2009,
    "206672616e6368": 2010,
    "206672616e6368697365": 2011,
    "2056616c6b796972": 2012,
    "2056616c6b79697261": 2013,
    "20666f72636573": 2014,
    "20746f6c64": 2015,
    "206c696b65": 2016,
    "20706f72747261": 2017,
    "20706f72747261697473": 2018,
    "65616b696e67": 2019,
    "207061727469616c6c79": 2020,
    "6f69636564": 2021,
    "2073706565": 2022,
    "20737065656368": 2023,
    "2074657874": 2024,
    "206c696e656172": 2025,
    "20667265": 2026,
    "706c61796564": 2027,
    "757465": 2028,
    "656e64696e67": 2029,
    "20696e646976": 2030,
    "20696e6469766964": 2031,
    "20696e646976696475616c": 2032,
    "616c6564": 2033,
    "2067726f77": 2034,
    "206f6363": 2035,
    "757273": 2036,
    "20416c6f6e67": 2037,
    "20416c6f6e6773696465": 2038,
    "207370656369666963": 2039,
    "20636f6d706c6574": 2040,
    "20657069736f646573": 2041,
    "6176696e67": 2042,
    "20686967": 2043,
    "2074686f7365": 2044,
    "205468657265": 2045,
    "6f7665": 2046,
    "20426c": 2047,
    "6954": 2048,
    "69545a": 2049,
    "2063617272696564": 2050,
    "20746f70": 2051,
    "70656374697665": 2052,
    "207475726e73": 2053,
    "206c696d": 2054,
    "20416374696f6e": 2055,
    "61756765": 2056,
    "2061737369676e6564": 2057,
    "2073696e676c65": 2058,
    "2077696c6c": 2059,
    "20736f6d657468": 2060,
    "20736f6d657468696e67": 2061,
    "20686170": 2062,
    "2068617070656e": 2063,
    "2061747461636b": 2064,
    "2064697669646564": 2065,
    "6c657373": 2066,
    "206f7468657277": 2067,
    "206f7468657277697365": 2068,
    "6974686572": 2069,
    "77617973": 2070,
    "61726e": 2071,
    "205370": 2072,
    "696c6974696573": 2073,
    "206163746976617465": 2074,
    "20436f6d6d": 2075,
    "20436f6d6d616e64": 2076,
    "20506f": 2077,
    "20506f696e74": 2078,
    "2073686966": 2079,
    "207368696674": 2080,
    "206265636f6d65": 2081,
    "696e63": 2082,
    "206865617679": 2083,
    "6f757473": 2084,
    "726f6f70657273": 2085,
    "6f726564": 2086,
    "69746368": 2087,
    "616e67696e67": 2088,
    "206772656174": 2089,
    "20616666656374": 2090,
    "2057697468": 2091,
    "69656e6365": 2092,
    "20646973747269627574": 2093,
    "20506c": 2094,
    "2074616b": 2095,
    "20706c616365": 2096,
    "205371756164": 2097,
    "72696d": 2098,
    "74657273": 2099,
    "206e616d6573": 2100,
    "207265636f726473": 2101,
    "206f6666696369616c6c79": 2102,
    "206e756d62": 2103,
    "206e756d62657273": 2104,
    "2064616e67": 2105,
    "206e65766572": 2106,
    "20746173": 2107,
    "207461736b": 2108,
    "6966696564": 2109,
    "206d65616e": 2110,
    "206d65616e696e67": 2111,
    "2061726d79": 2112,
    "206f666669636572": 2113,
    "2061636375736564": 2114,
    "726561736f6e": 2115,
    "204e6f2e31": 2116,
    "2066656d": 2117,
    "2066656d616c65": 2118,
    "207365656d": 2119,
    "696e676c79": 2120,
    "6b6e": 2121,
    "2064657363": 2122,
    "2066656c6c6f77": 2123,
    "206669676874": 2124,
    "20636f6e63657074": 2125,
    "2064656e": 2126,
    "20616476": 2127,
    "2073756363": 2128,
    "2073756363657373": 2129,
    "207375636365737366756c": 2130,
    "6572726974": 2131,
    "65727269746f7279": 2132,
    "61757365": 2133,
    "206365727461696e": 2134,
    "757267": 2135,
    "206265636f6d": 2136,
    "206265636f6d6573": 2137,
    "206162616e64": 2138,
    "20646566": 2139,
    "2072616e6b73": 2140,
    "206174746163686564": 2141,
    "20696465": 2142,
    "204174": 2143,
    "2070726f74656374": 2144,
    "206f776e": 2145,
    "696e6564": 2146,
    "20747261": 2147,
    "2074726169746f72": 2148,
    "20646573706572": 2149,
    "206566666f7274": 2150,
    "756573": 2151,
    "736579": 2152,
    "2043726f": 2153,
    "2043726f7765": 2154,
    "20617272": 2155,
    "6f72746564": 2156,
    "2052616e64": 2157,
    "6665726564": 2158,
    "20666f726d616c": 2159,
    "20726174686572": 2160,
    "796d": 2161,
    "206c69766564": 2162,
    "204d6178696d": 2163,
    "204d6178696d696c": 2164,
    "204d6178696d696c69616e": 2165,
    "2056616c6b797269616e": 2166,
    "206368616e6365": 2167,
    "6164696e67": 2168,
    "2066697265": 2169,
    "2061736b696e67": 2170,
    "20616374696f6e": 2171,
    "20636f6e66": 2172,
    "207365706172": 2173,
    "207365706172617465": 2174,
    "20776179": 2175,
    "20446576656c6f70": 2176,
    "20446576656c6f706d656e74": 2177,
    "2066696e": 2178,
    "6973686564": 2179,
    "2073686f72746c79": 2180,
    "20726573706f6e": 2181,
    "20726573706f6e7365": 2182,
    "2077616e74": 2183,
    "206e657874": 2184,
    "207072656465636573736f72": 2185,
    "206d656368": 2186,
    "206d656368616e": 2187,
    "206d656368616e696373": 2188,
    "2063726561746564": 2189,
    "72616e74": 2190,
    "20737461746564": 2191,
    "20636f6e73696465726564": 2192,
    "2072657175": 2193,
    "20747269": 2194,
    "207061727473": 2195,
    "207363656e6172": 2196,
    "207363656e6172696f": 2197,
    "6265": 2198,
    "204869": 2199,
    "2046756a6969": 2200,
    "204d616a": 2201,
    "68696b": 2202,
    "68696b6f": 2203,
    "205365696b": 2204,
    "6a69": 2205,
    "206461726b6572": 2206,
    "20736f6d": 2207,
    "206772617068": 2208,
    "206772617068696373": 2209,
    "766f6c76": 2210,
    "766f6c766564": 2211,
    "206d6f64656c73": 2212,
    "20636f": 2213,
    "6174697665": 2214,
    "20696e636f72706f7261746564": 2215,
    "206d656d": 2216,
    "206d656d6f7279": 2217,
    "2061646a7573746564": 2218,
    "20736574": 2219,
    "20657373": 2220,
    "2070726f626c65": 2221,
    "20637265617465": 2222,
    "206964656e74": 2223,
    "20656e67": 2224,
    "6f75676874": 2225,
    "2073696d696c6172": 2226,
    "20736576656e": 2227,
    "2070726f64756374696f6e": 2228,
    "20696e6974": 2229,
    "20696e697469616c6c79": 2230,
    "207265636f72646564": 2231,
    "206f72636865": 2232,
    "206f726368657374": 2233,
    "206f7263686573747261": 2234,
    "2073796e": 2235,
    "2073796e74": 2236,
    "2073796e74686573": 2237,
    "20686f70": 2238,
    "20706c61796564": 2239,
    "20656e64696e67": 2240,
    "206d6f6465726e": 2241,
    "2066616e74": 2242,
    "2066616e746173": 2243,
    "2066616e74617379": 2244,
    "20696e737472": 2245,
    "20696e737472756d656e7473": 2246,
    "20776f726b696e67": 2247,
    "2066656c74": 2248,
    "206c697665": 2249,
    "6869726f": 2250,
    "207365766572616c": 2251,
    "20736f6e67": 2252,
    "e38282e381": 2253,
    "e590": 2254,
    "e3818c": 2255,
    "204d6f73": 2256,
    "206761": 2257,
    "2073696e676572": 2258,
    "20726561736f6e": 2259,
    "20706172746963756c6172": 2260,
    "2064757479": 2261,
    "206c79": 2262,
    "206c79726963": 2263,
    "206c7972696373": 2264,
    "61796173": 2265,
    "617961736869": 2266,
    "20776562": 2267,
    "2077656273": 2268,
    "2077656273697465": 2269,
    "2072657665": 2270,
    "2046616d": 2271,
    "2046616d69747375": 2272,
    "206c6973746564": 2273,
    "205447": 2274,
    "20544753": 2275,
    "616c69737473": 2276,
    "20617474656e64": 2277,
    "6f7465": 2278,
    "617368": 2279,
    "2076697375616c": 2280,
    "203237": 2281,
    "2073616964": 2282,
    "20706c616e73": 2283,
    "2066696e616c": 2284,
    "697461626c65": 2285,
    "206c6f776572": 2286,
    "205065": 2287,
    "206f776e6564": 2288,
    "2076657273": 2289,
    "696f6e73": 2290,
    "20416363": 2291,
    "204163636f7264": 2292,
    "204163636f7264696e67": 2293,
    "6666696369616c": 2294,
    "20436f6d": 2295,
    "70706564": 2296,
    "206578636c7573": 2297,
    "20636f6d696e67": 2298,
    "20656e6a": 2299,
    "20656e6a6f79": 2300,
    "20706c6561736564": 2301,
    "2067616d": 2302,
    "2067616d696e67": 2303,
    "206e6f74696e67": 2304,
    "20706163696e67": 2305,
    "207370696b6573": 2306,
    "204e61": 2307,
    "2050534e": 2308,
    "206665656c696e67": 2309,
    "20636c6f73": 2310,
    "2061737065637473": 2311,
    "206e6f746564": 2312,
    "204d6167617a696e65": 2313,
    "207374796c65": 2314,
    "206c6174746572": 2315,
    "207175616c": 2316,
    "207175616c697479": 2317,
    "206372697469636973": 2318,
    "6973696e67": 2319,
    "2072657475726e696e67": 2320,
    "65746974696f6e": 2321,
    "20726567": 2322,
    "726f73": 2323,
    "204164": 2324,
    "746174696f6e73": 2325,
    "e8aa": 2326,
    "776f726b": 2327,
    "20706c616e6e6564": 2328,
    "2070657269": 2329,
    "20706572696f64": 2330,
    "20657874": 2331,
    "203331": 2332,
    "20426c61636b": 2333,
    "2068616c": 2334,
    "2068616c66": 2335,
    "6e6f": 2336,
    "69746c65": 2337,
    "207072": 2338,
    "207072696e": 2339,
    "207072696e6369": 2340,
    "20707572706f7365": 2341,
    "20737566": 2342,
    "20526f6164": 2343,
    "204b7562": 2344,
    "204b7562696e": 2345,
    "204b7562696e6b": 2346,
    "204b7562696e6b61": 2347,
    "20666f63": 2348,
    "20636f6e7365": 2349,
    "20636f6e73657175": 2350,
    "2064616d": 2351,
    "2064616d61676564": 2352,
    "2063617374": 2353,
    "20617070656172616e636573": 2354,
    "617269": 2355,
    "204c69676874": 2356,
    "202d54": 2357,
    "e38184": 2358,
    "a4e381": 2359,
    "8be5": 2360,
    "e381aee8": 2361,
    "e381aee88a": 2362,
    "e381aee88ab1": 2363,
    "2048616e": 2364,
    "2048616e61": 2365,
    "2061727469737473": 2366,
    "205477": 2367,
    "2054776f": 2368,
    "616b69": 2369,
    "20766f6c756d": 2370,
    "20552e532e": 2371,
    "20313834": 2372,
    "2031383430": 2373,
    "206465636f6d6d697373696f6e": 2374,
    "20686f7573": 2375,
    "20686f75736564": 2376,
    "20416e7469": 2377,
    "20416e74697175": 2378,
    "20416e746971756974696573": 2379,
    "2031393937": 2380,
    "2073696e6365": 2381,
    "20323030": 2382,
    "2032303031": 2383,
    "20686561647175617274657273": 2384,
    "2031383934": 2385,
    "2064697374696e6374": 2386,
    "2072656d61696e696e67": 2387,
    "206f6c64657374": 2388,
    "2063656e7472": 2389,
    "2063656e7472616c": 2390,
    "20626972": 2391,
    "206269727468": 2392,
    "206269727468706c": 2393,
    "206269727468706c616365": 2394,
    "707265": 2395,
    "207374617274": 2396,
    "204a616d6573": 2397,
    "636569766564": 2398,
    "20416d6572": 2399,
    "20416d65726963": 2400,
    "2070617373": 2401,
    "20422e": 2402,
    "206c616e64": 2403,
    "2070726576696f75736c79": 2404,
    "6579": 2405,
    "20636c7562": 2406,
    "6c6579": 2407,
    "206275696c64": 2408,
    "20636f6e737472756374696f6e": 2409,
    "2024": 2410,
    "6f6361746564": 2411,
    "207065726d616e": 2412,
    "207065726d616e656e74": 2413,
    "2077616c6c": 2414,
    "2077616c6c73": 2415,
    "2063616c6c6564": 2416,
    "206d61736f6e": 2417,
    "206d61736f6e7279": 2418,
    "20696e737465": 2419,
    "20696e7374656164": 2420,
    "65747465": 2421,
    "2073706563696d656e": 2422,
    "20676f7665726e6d656e74": 2423,
    "206465706f74": 2424,
    "20427574": 2425,
    "2031383630": 2426,
    "20636f6d70616e79": 2427,
    "696c6c657279": 2428,
    "207472616e73666572726564": 2429,
    "20686f6c64": 2430,
    "2064657465726d": 2431,
    "2073686f756c64": 2432,
    "20656c656374": 2433,
    "20696e666f726d": 2434,
    "6d6974746564": 2435,
    "20617574686f72697479": 2436,
    "2070656f706c65": 2437,
    "20636f6e6e": 2438,
    "20636f6e6e656374": 2439,
    "20636f6e6e656374696f6e": 2440,
    "20756c": 2441,
    "20756c74": 2442,
    "20756c74696d": 2443,
    "2064697370": 2444,
    "2072756d6f7273": 2445,
    "2073707265": 2446,
    "20737072656164": 2447,
    "20636f6d706c65746564": 2448,
    "2077696e": 2449,
    "2077696e746572": 2450,
    "207175617274657273": 2451,
    "20536d697468": 2452,
    "206465706f73": 2453,
    "6772616d": 2454,
    "20696e74656e646564": 2455,
    "2073696d706c79": 2456,
    "206e657773": 2457,
    "20717569636b": 2458,
    "206675": 2459,
    "20617373656d626c65": 2460,
    "20736974": 2461,
    "2073697475": 2462,
    "206e6563": 2463,
    "206e6563657373": 2464,
    "206e6563657373617279": 2465,
    "2066616374": 2466,
    "2062656c": 2467,
    "20636976696c": 2468,
    "20636976696c69616e": 2469,
    "20666f72636564": 2470,
    "2064656d616e64": 2471,
    "2070726f6d70746564": 2472,
    "61646573": 2473,
    "20617574686f726974696573": 2474,
    "20617373756d": 2475,
    "20617373756d6564": 2476,
    "206f6666696369616c": 2477,
    "20796f7572": 2478,
    "204d6172": 2479,
    "2050657268": 2480,
    "2050657268617073": 2481,
    "20696e73747275": 2482,
    "20696e737472756374696f6e": 2483,
    "20616772656564": 2484,
    "206c6f6e67": 2485,
    "20616c6c6f77": 2486,
    "20616c6c6f776564": 2487,
    "2062657369646573": 2488,
    "206d6172": 2489,
    "2061776179": 2490,
    "2068616e6473": 2491,
    "2054686174": 2492,
    "206d617263": 2493,
    "206d617263686564": 2494,
    "20657863657074": 2495,
    "2073746179": 2496,
    "20737461796564": 2497,
    "20666162726963": 2498,
    "206e6f72": 2499,
    "2066656c6c": 2500,
    "20696e76656e74": 2501,
    "20323437": 2502,
    "203235": 2503,
    "20636f6e736973746564": 2504,
    "20636f6e766572": 2505,
    "20736d6f": 2506,
    "20736d6f6f7468": 2507,
    "20736d6f6f746862": 2508,
    "20736d6f6f7468626f72": 2509,
    "3538": 2510,
    "207269666c65": 2511,
    "206d75736b657473": 2512,
    "204d313831": 2513,
    "203236": 2514,
    "3634": 2515,
    "203936": 2516,
    "20446973": 2517,
    "6f736974696f6e": 2518,
    "20736b6574": 2519,
    "20736b65746368": 2520,
    "20496e66616e747279": 2521,
    "20526567696d656e7473": 2522,
    "206d75737465726564": 2523,
    "20666c696e746c6f636b73": 2524,
    "20397468": 2525,
    "6176616c": 2526,
    "205269666c6573": 2527,
    "20326e64": 2528,
    "204d6f756e": 2529,
    "20616c6d": 2530,
    "20616c6d6f7374": 2531,
    "756e6b": 2532,
    "2065717569": 2533,
    "206571756970": 2534,
    "2065717569706d656e74": 2535,
    "2047656e": 2536,
    "206163636f756e74": 2537,
    "2070726f6261626c79": 2538,
    "2061726d6f7279": 2539,
    "20636f6c6c65": 2540,
    "20636f6c6c656374696f6e": 2541,
    "207475726e6564": 2542,
    "206f70656e6564": 2543,
    "206c61626f7261746f7279": 2544,
    "20446570": 2545,
    "20446570617274": 2546,
    "204465706172746d656e74": 2547,
    "206f696c": 2548,
    "206972": 2549,
    "2069726f6e": 2550,
    "206e656172": 2551,
    "20736f757468": 2552,
    "20676174686572": 2553,
    "69656e74": 2554,
    "20667572": 2555,
    "2070726f637572": 2556,
    "2070726f6375726564": 2557,
    "20766963": 2558,
    "20766963696e": 2559,
    "20766963696e697479": 2560,
    "20646f6e": 2561,
    "61736573": 2562,
    "20696d": 2563,
    "20696d7072657373": 2564,
    "20707265706172": 2565,
    "20636f756e74": 2566,
    "20636f756e747279": 2567,
    "206d6179": 2568,
    "20706170": 2569,
    "207061706572": 2570,
    "756e736d697468": 2571,
    "756e736d69746873": 2572,
    "20656d706c6f796564": 2573,
    "20707572636861736564": 2574,
    "20657175616c": 2575,
    "20636f6d6d656e636564": 2576,
    "20696e7370656374": 2577,
    "20737069726974": 2578,
    "207374726f6e": 2579,
    "207374726f6e67": 2580,
    "646572": 2581,
    "204e617679": 2582,
    "20626f72": 2583,
    "20626f72726f77": 2584,
    "69657574": 2585,
    "69657574656e": 2586,
    "69657574656e616e74": 2587,
    "2067756e": 2588,
    "20506f6e": 2589,
    "20506f6e6368": 2590,
    "20506f6e6368617274": 2591,
    "20506f6e636861727472": 2592,
    "20506f6e63686172747261696e": 2593,
    "20706c61636564": 2594,
    "20436f6c": 2595,
    "20436f6c2e": 2596,
    "20432e532e": 2597,
    "20432e532e41": 2598,
    "20432e532e412e": 2599,
    "7475726564": 2600,
    "20656e6c": 2601,
    "206c61626f72657273": 2602,
    "6f7269616e": 2603,
    "656e746572": 2604,
    "207061636b696e67": 2605,
    "20626f78": 2606,
    "20626f786573": 2607,
    "20706572666f726d6564": 2608,
    "20466162726963": 2609,
    "6c6574": 2610,
    "206f6666696365": 2611,
    "20706f6c": 2612,
    "20706f6c6963": 2613,
    "20706f6c696365": 2614,
    "2073686f77": 2615,
    "20726f756e64": 2616,
    "20726f756e6473": 2617,
    "20706f75": 2618,
    "20706f756e646572": 2619,
    "203133": 2620,
    "20526570": 2621,
    "20526570616972": 2622,
    "205265706169726564": 2623,
    "61676573": 2624,
    "204775": 2625,
    "204775617264": 2626,
    "20696e646963": 2627,
    "20696e6469636174696e67": 2628,
    "207369787468": 2629,
    "206c657373": 2630,
    "20636f6e74696e7565": 2631,
    "2044697374": 2632,
    "204469737472696374": 2633,
    "20467265646572": 2634,
    "2046726564657269636b": 2635,
    "2053746565": 2636,
    "20537465656c65": 2637,
    "2031383634": 2638,
    "20556e696f6e": 2639,
    "726965": 2640,
    "2042726f": 2641,
    "2042726f6f6b": 2642,
    "2042726f6f6b73": 2643,
    "2072656e616d6564": 2644,
    "20426172": 2645,
    "2072656e6f76": 2646,
    "2072656172": 2647,
    "63686573": 2648,
    "207374616972": 2649,
    "20313838": 2650,
    "20626f726e": 2651,
    "206e6f727468": 2652,
    "20666c6f6f72": 2653,
    "20666174686572": 2654,
    "20417274687572": 2655,
    "2073746174696f6e": 2656,
    "204f6374": 2657,
    "204f63746f": 2658,
    "204f63746f626572": 2659,
    "206b6d": 2660,
    "20c2b2": 2661,
    "20646576": 2662,
    "20707572706f73": 2663,
    "20707572706f736573": 2664,
    "20776f6d656e": 2665,
    "686970": 2666,
    "206f7267616e": 2667,
    "206f7267616e697a": 2668,
    "206f7267616e697a6174696f6e73": 2669,
    "206d6f6e65": 2670,
    "206d6f6e6579": 2671,
    "20436f6c756d": 2672,
    "20436f6c756d62": 2673,
    "20436f6c756d6269616e": 2674,
    "206d656574": 2675,
    "20666966": 2676,
    "206669667479": 2677,
    "207369676e": 2678,
    "207369676e69666963": 2679,
    "207369676e69666963616e74": 2680,
    "2070616964": 2681,
    "2032307468": 2682,
    "2063656e747572": 2683,
    "2063656e74757279": 2684,
    "746572616e73": 2685,
    "20686973746f7279": 2686,
    "2061726561": 2687,
    "2031393132": 2688,
    "206c696272617279": 2689,
    "206e6f77": 2690,
    "20576f726b73": 2691,
    "2050726f6772657373": 2692,
    "2041646d": 2693,
    "2041646d696e": 2694,
    "2041646d696e697374": 2695,
    "2041646d696e69737472": 2696,
    "2041646d696e697374726174696f6e": 2697,
    "2041727473": 2698,
    "20486973746f726963": 2699,
    "69746573": 2700,
    "2043697479": 2701,
    "20686f6e": 2702,
    "20686f6e6f72": 2703,
    "204368696c6472656e": 2704,
    "20436963": 2705,
    "20436963656c79": 2706,
    "2031383935": 2707,
    "2031393733": 2708,
    "20696c6c757374726174696f6e73": 2709,
    "206465706963": 2710,
    "20646570696374696e67": 2711,
    "2066616972696573": 2712,
    "20666c6f77657273": 2713,
    "20656475636174696f6e": 2714,
    "20636f72": 2715,
    "20636f72726573": 2716,
    "20636f7272657370": 2717,
    "20636f72726573706f6e64": 2718,
    "20636f72726573706f6e64656e6365": 2719,
    "20636f7572": 2720,
    "20636f7572736573": 2721,
    "2070726f66657373696f6e": 2722,
    "2070726f66657373696f6e616c": 2723,
    "20426f6f6b": 2724,
    "20636f6c6c": 2725,
    "20636f6c6c61626f72": 2726,
    "204c65616465": 2727,
    "204c656164657468": 2728,
    "204d65": 2729,
    "20737461696e6564": 2730,
    "20676c": 2731,
    "20676c617373": 2732,
    "2077696e64": 2733,
    "2077696e646f77": 2734,
    "75726368": 2735,
    "20506974": 2736,
    "205069746c": 2737,
    "205069746c616b65": 2738,
    "204368696c64": 2739,
    "204461726c": 2740,
    "204461726c696e67": 2741,
    "20517565": 2742,
    "20517565656e": 2743,
    "204b617465": 2744,
    "20477265656e6177": 2745,
    "20477265656e61776179": 2746,
    "20696e66": 2747,
    "20696e666c": 2748,
    "20696e666c75": 2749,
    "20696e666c75656e636573": 2750,
    "207761736e": 2751,
    "202774": 2752,
    "61756768": 2753,
    "20796f756e67657374": 2754,
    "206368696c64": 2755,
    "2077696665": 2756,
    "204f73": 2757,
    "204f7377": 2758,
    "204f7377616c64": 2759,
    "20537572": 2760,
    "205375727265": 2761,
    "20537572726579": 2762,
    "20456e676c": 2763,
    "20456e676c616e64": 2764,
    "696464": 2765,
    "6964646c65": 2766,
    "7573696e67": 2767,
    "206576656e696e67": 2768,
    "203139343073": 2769,
    "207465616368": 2770,
    "207465616368696e67": 2771,
    "205475": 2772,
    "205475636b": 2773,
    "2064726177696e6773": 2774,
    "20706f73746361726473": 2775,
    "20536f63696574": 2776,
    "20536f6369657479": 2777,
    "2072656d61726b": 2778,
    "204d79": 2779,
    "20686f75736568": 2780,
    "20686f757365686f6c64": 2781,
    "206661697279": 2782,
    "204f757468": 2783,
    "204f75746877": 2784,
    "204f7574687761": 2785,
    "204f7574687761697465": 2786,
    "207061696e74696e6773": 2787,
    "2031393235": 2788,
    "2044696f6e": 2789,
    "2073747564696f": 2790,
    "206261636b": 2791,
    "20416e64": 2792,
    "20416e647265": 2793,
    "20416e64726577": 2794,
    "20636c6f736564": 2795,
    "2031393430": 2796,
    "20706c616e74": 2797,
    "20736163": 2798,
    "20736163726564": 2799,
    "2053746f7272696e67": 2800,
    "2053746f7272696e67746f6e": 2801,
    "20537573": 2802,
    "205375737365": 2803,
    "20537573736578": 2804,
    "6279": 2805,
    "20313936": 2806,
    "657473": 2807,
    "61636b657473": 2808,
    "20426c7565": 2809,
    "204a61636b657473": 2810,
    "20736561736f6e": 2811,
    "20436f6c756d627573": 2812,
    "20426c61636b6965": 2813,
    "7276": 2814,
    "73657276": 2815,
    "2074726164": 2816,
    "20402e": 2817,
    "20402e40": 2818,
    "484c": 2819,
    "736f6e": 2820,
    "726179": 2821,
    "6f6f74": 2822,
    "204e484c": 2823,
    "206f6273657276": 2824,
    "616d62": 2825,
    "206d6173": 2826,
    "206d61736b": 2827,
    "2047616d62": 2828,
    "2047616d626961": 2829,
    "20676f616c": 2830,
    "206d61736b726179": 2831,
    "6f6f7462": 2832,
    "6f6f7462616c6c": 2833,
    "6e74": 2834,
    "207472616465": 2835,
    "20313933": 2836,
    "6674": 2837,
    "206c6f73": 2838,
    "7265616b": 2839,
    "61746f7279": 2840,
    "20666f6f7462616c6c": 2841,
    "2073706563696573": 2842,
    "72616674": 2843,
    "204e6173": 2844,
    "204e617368": 2845,
    "4949": 2846,
    "6f67": 2847,
    "207069636b": 2848,
    "61746963": 2849,
    "206f627365727661746f7279": 2850,
    "6e65": 2851,
    "6c6c": 2852,
    "20486f77": 2853,
    "666f7264": 2854,
    "206e6174696f6e616c": 2855,
    "7273": 2856,
    "6970": 2857,
    "20706c61696e": 2858,
    "7065": 2859,
    "20636c6f636b": 2860,
    "2073747265616b": 2861,
    "206d696e": 2862,
    "2030": 2863,
    "204649": 2864,
    "20464946": 2865,
    "2046494641": 2866,
    "203137": 2867,
    "2043617274": 2868,
    "20436172746572": 2869,
    "206472616674": 2870,
    "74656e646572": 2871,
    "204d61736f6e": 2872,
    "2053616e": 2873,
    "2053616e666f7264": 2874,
    "20696e6a": 2875,
    "2047726567": 2876,
    "205661746963": 2877,
    "205661746963616e": 2878,
    "20506f7065": 2879,
    "616c6c79": 2880,
    "2064697363": 2881,
    "6f6c6f67": 2882,
    "206368616e67": 2883,
    "20596f726b": 2884,
    "20676f616c74656e646572": 2885,
    "20636f6e747261": 2886,
    "2058": 2887,
    "6e6365": 2888,
    "20313938": 2889,
    "20313935": 2890,
    "207068": 2891,
    "6772617068": 2892,
    "746973": 2893,
    "756c6174696f6e": 2894,
    "757279": 2895,
    "79696e67": 2896,
    "7474": 2897,
    "6f7265": 2898,
    "6c696e65": 2899,
    "204b696e6773": 2900,
    "20486f77736f6e": 2901,
    "207369676e6564": 2902,
    "206c6f73696e67": 2903,
    "20636f6e7472616374": 2904,
    "20477265676f7269616e": 2905,
    "206f62736572766174696f6e73": 2906,
    "205761726e65": 2907,
    "2061637175": 2908,
    "69726c": 2909,
    "2062656869": 2910,
    "20626568696e64": 2911,
    "206674": 2912,
    "204265": 2913,
    "206d61746368": 2914,
    "7570": 2915,
    "204166": 2916,
    "204166726963": 2917,
    "20696e636c7564696e67": 2918,
    "20676f616c73": 2919,
    "20636d": 2920,
    "72616c": 2921,
    "20436172": 2922,
    "20776f7273": 2923,
    "20776f727374": 2924,
    "2052696368": 2925,
    "206465616c": 2926,
    "206d696e757465": 2927,
    "494949": 2928,
    "207374616765": 2929,
    "207768697465": 2930,
    "686f": 2931,
    "696365": 2932,
    "2050696374": 2933,
    "2050696374757265": 2934,
    "7370": 2935,
    "6967696f7573": 2936,
    "2031393239": 2937,
    "796368": 2938,
    "6170656c": 2939,
    "6c616e64": 2940,
    "6d616c": 2941,
    "6f7269616c": 2942,
    "20576179": 2943,
    "6174696f6e616c": 2944,
    "20437570": 2945,
    "207175616c6966": 2946,
    "206163726f73": 2947,
    "206163726f7373": 2948,
    "6b6564": 2949,
    "2073636f726564": 2950,
    "6f74686572": 2951,
    "204175737472": 2952,
    "204175737472616c": 2953,
    "204175737472616c6961": 2954,
    "616368696e67": 2955,
    "7773": 2956,
    "7363": 2957,
    "61677565": 2958,
    "20706c61796f": 2959,
    "20706c61796f6666": 2960,
    "20436f": 2961,
    "207265706c": 2962,
    "205269636861726473": 2963,
    "766564": 2964,
    "206c6f7373": 2965,
    "2066726565": 2966,
    "2077696e6e696e67": 2967,
    "2063616d65": 2968,
    "20636172656572": 2969,
    "2068696768": 2970,
    "20646566656e73": 2971,
    "20646566656e73656d": 2972,
    "207072696f72": 2973,
    "206d696e75746573": 2974,
    "636b73": 2975,
    "2064656164": 2976,
    "20646561646c696e65": 2977,
    "6978": 2978,
    "646564": 2979,
    "76616c": 2980,
    "2048756e": 2981,
    "2048756e77": 2982,
    "2048756e7769636b": 2983,
    "74726f6e": 2984,
    "74726f6e6f6d": 2985,
    "656e646172": 2986,
    "2058494949": 2987,
    "20696e737472756d656e74": 2988,
    "20696e6368": 2989,
    "204361726579": 2990,
    "20636f6d706574": 2991,
    "617973": 2992,
    "204f6c64": 2993,
    "205268": 2994,
    "205268796d": 2995,
    "205268796d6573": 2996,
    "61636573": 2997,
    "6e79": 2998,
    "6379": 2999,
    "6c65646765": 3000,
    "6f6772617068": 3001,
    "6f6e74": 3002,
    "2050726573": 3003,
    "204e6577": 3004,
    "2057696e64": 3005,
    "204c6f75": 3006,
    "204c6f756973": 3007,
    "205069": 3008,
    "74697374": 3009,
    "6e6174696f6e616c": 3010,
    "206173736f6369": 3011,
    "67726f756e64": 3012,
    "20616e6f74686572": 3013,
    "2073746172746564": 3014,
    "207374696e67": 3015,
    "204e65": 3016,
    "20626f7474": 3017,
    "207461696c": 3018,
    "2061626f7665": 3019,
    "2067656e": 3020,
    "6f6c6f676963616c": 3021,
    "206c696e65": 3022,
    "206368616e676573": 3023,
    "696e73": 3024,
    "6c66": 3025,
    "6f727473": 3026,
    "6f636b6579": 3027,
    "20436f616368": 3028,
    "20546f64": 3029,
    "205269636b": 3030,
    "20747261646564": 3031,
    "20696e766f6c": 3032,
    "204c6f73": 3033,
    "207365636f6e6473": 3034,
    "2066616e73": 3035,
    "20576973": 3036,
    "205769736e": 3037,
    "205769736e6965": 3038,
    "205769736e69657773": 3039,
    "205769736e696577736b": 3040,
    "205769736e696577736b69": 3041,
    "20646566656e73656d616e": 3042,
    "20696e6a757265": 3043,
    "20696e6a75726564": 3044,
    "20426c756573": 3045,
    "204869746368": 3046,
    "20486974636863": 3047,
    "204869746368636f636b": 3048,
    "20436f79": 3049,
    "20436f796f7465": 3050,
    "20436f796f746573": 3051,
    "20313538": 3052,
    "206d6574": 3053,
    "206d6574726573": 3054,
    "74656f72": 3055,
    "69736d": 3056,
    "6f7065": 3057,
    "207265636f7264696e67": 3058,
    "20476f74": 3059,
    "6964656e6365": 3060,
    "616c6573": 3061,
    "20636875726368": 3062,
    "206163717569726564": 3063,
    "207375626a656374": 3064,
    "2074686f756768": 3065,
    "6c6f67": 3066,
    "206579": 3067,
    "686965": 3068,
    "6f6e6573": 3069,
    "2067697665": 3070,
    "204769726c": 3071,
    "20527573": 3072,
    "2047726f756e64": 3073,
    "2047726f756e6473656c": 3074,
    "2031393433": 3075,
    "206167656e": 3076,
    "206167656e6379": 3077,
    "205363": 3078,
    "205065746572": 3079,
    "20736f6369": 3080,
    "2072656c6967696f7573": 3081,
    "2063617264": 3082,
    "206361726473": 3083,
    "204b6e6f": 3084,
    "204b6e6f77": 3085,
    "204b6e6f776c65646765": 3086,
    "2048796d": 3087,
    "2031393333": 3088,
    "20636f6c6c61626f726174696f6e": 3089,
    "2063686170656c": 3090,
    "2050656e": 3091,
    "204772656174": 3092,
    "2070686f74": 3093,
    "6170746973": 3094,
    "61707469736d616c": 3095,
    "20666f6e74": 3096,
    "2031393438": 3097,
    "2031393632": 3098,
    "20416e6765": 3099,
    "2057657374": 3100,
    "6f7474": 3101,
    "2047617264": 3102,
    "20537465": 3103,
    "202f": 3104,
    "20726570726573": 3105,
    "20636f6d7065746974696f6e": 3106,
    "207465616d73": 3107,
    "20576f6d65": 3108,
    "20576f6d656e": 3109,
    "726577": 3110,
    "616c6c656e": 3111,
    "616c6c656e6765": 3112,
    "20416672696361": 3113,
    "206173736f63696174696f6e": 3114,
    "204d61726368": 3115,
    "207061727469636970": 3116,
    "696572": 3117,
    "20776f6e": 3118,
    "207374696e67726179": 3119,
    "20616e6e6f74": 3120,
    "20616e6e6f746174": 3121,
    "6165": 3122,
    "2073686170": 3123,
    "20666f6c64": 3124,
    "6f726e73": 3125,
    "206d61736b72617973": 3126,
    "2066656d616c6573": 3127,
    "726f7068": 3128,
    "20626f74746f6d": 3129,
    "2074726177": 3130,
    "20706879": 3131,
    "72697074": 3132,
    "206f63637572": 3133,
    "203534": 3134,
    "206d656173": 3135,
    "20636f6e63": 3136,
    "20746f676574": 3137,
    "20746f676574686572": 3138,
    "626c65": 3139,
    "736c616e64": 3140,
    "20746572": 3141,
    "2031393930": 3142,
    "20726573756c": 3143,
    "206f766572616c6c": 3144,
    "204472616674": 3145,
    "206c6f74": 3146,
    "206c6f74746572": 3147,
    "206c6f7474657279": 3148,
    "2041726e": 3149,
    "2041726e69656c": 3150,
    "207265706c61636564": 3151,
    "20546f6464": 3152,
    "2053746172": 3153,
    "204a65": 3154,
    "204a656666": 3155,
    "2072657175657374": 3156,
    "2053746170": 3157,
    "20537461706c6573": 3158,
    "2043656e746572": 3159,
    "20746f74": 3160,
    "20746f74616c": 3161,
    "2043616e": 3162,
    "61746f7273": 3163,
    "20736561736f6e73": 3164,
    "207374727567": 3165,
    "20737472756767": 3166,
    "206578706572": 3167,
    "20437572": 3168,
    "20437572746973": 3169,
    "207375666665726564": 3170,
    "6563746564": 3171,
    "20696e6a757279": 3172,
    "2064617973": 3173,
    "74726f": 3174,
    "20526564": 3175,
    "20646562": 3176,
    "206465627574": 3177,
    "20636f616368696e67": 3178,
    "2073686f6f74": 3179,
    "2073686f6f746f7574": 3180,
    "757373696f6e": 3181,
    "2074726164696e67": 3182,
    "2076696374": 3183,
    "2050686f": 3184,
    "2050686f656e": 3185,
    "2050686f656e6978": 3186,
    "204d63": 3187,
    "20616e6e6f756e": 3188,
    "20616e6e6f756e636564": 3189,
    "2025": 3190,
    "6f7070": 3191,
    "20666f75727468": 3192,
    "2073746174697374": 3193,
    "20476f": 3194,
    "20617374726f6e6f6d": 3195,
    "2057696e6473": 3196,
    "2073756e64": 3197,
    "2073756e6469616c": 3198,
    "207265666f726d": 3199,
    "204c656f": 3200,
    "20696e737472756d656e746174696f6e": 3201,
    "72696469616e": 3202,
    "2050697573": 3203,
    "206d6574656f72": 3204,
    "20616c62": 3205,
    "20616c62756d": 3206,
    "203136": 3207,
    "2066756e": 3208,
    "20436875726368": 3209,
    "20636f6d6573": 3210,
    "20776974686f7574": 3211,
    "6f72696573": 3212,
    "20666c6174": 3213,
    "20617070656172616e6365": 3214,
    "6c6f6779": 3215,
    "2063686f6963": 3216,
    "2063686f696365": 3217,
    "6e657373": 3218,
    "20676976656e": 3219,
    "20636f766572": 3220,
    "205069637475726573": 3221,
    "2053656173": 3222,
    "2031393138": 3223,
    "205368616b65": 3224,
    "205368616b657370": 3225,
    "205368616b657370656172": 3226,
    "205368616b65737065617265": 3227,
    "2043686172616374657273": 3228,
    "2031393230": 3229,
    "2054696d65": 3230,
    "20527573686965": 3231,
    "206769726c": 3232,
    "204e6563": 3233,
    "204e65636b": 3234,
    "204e65636b6c": 3235,
    "204e65636b6c61636573": 3236,
    "6c6c73": 3237,
    "20706f766572": 3238,
    "20706f7665727479": 3239,
    "636f": 3240,
    "20737567": 3241,
    "207375676765": 3242,
    "2073756767657374": 3243,
    "2053696d": 3244,
    "2053696d6f6e": 3245,
    "77616e": 3246,
    "207365717565": 3247,
    "6f75736c79": 3248,
    "2031393838": 3249,
    "206569676874": 3250,
    "2031393136": 3251,
    "204368726973746d": 3252,
    "204368726973746d6173": 3253,
    "2064657369676e73": 3254,
    "20636f6d62": 3255,
    "2031393236": 3256,
    "2048796d6e73": 3257,
    "207472697074": 3258,
    "207472697074796368": 3259,
    "2046656564": 3260,
    "2046656564696e67": 3261,
    "6f7573616e64": 3262,
    "205375": 3263,
    "2070686f746f6772617068": 3264,
    "2070616e": 3265,
    "206261707469736d616c": 3266,
    "204d656d": 3267,
    "7262": 3268,
    "20466f6c6c6f77": 3269,
    "20466f6c6c6f77696e67": 3270,
    "20507265736572": 3271,
    "2050726573657276": 3272,
    "20507265736572766174696f6e": 3273,
    "61756c": 3274,
    "203139333073": 3275,
    "20536f6e67": 3276,
    "20536f6e6773": 3277,
    "204d7573": 3278,
    "204d75736963": 3279,
    "20547265": 3280,
    "2047617264656e": 3281,
    "204c6976656c79": 3282,
    "204d61636d": 3283,
    "204d61636d696c6c": 3284,
    "204d61636d696c6c616e": 3285,
    "2053756e": 3286,
    "2032303037": 3287,
    "2032303038": 3288,
    "6e6572": 3289,
    "20696e7465726e6174696f6e616c": 3290,
    "20636f6d7065746564": 3291,
    "207265636f67": 3292,
    "207265636f676e": 3293,
    "207265636f676e69736564": 3294,
    "2073706f7274": 3295,
    "20626f64": 3296,
    "207175616c69666965": 3297,
    "207175616c696669657273": 3298,
    "20726567696f6e": 3299,
    "206368616c6c656e6765": 3300,
    "75726e": 3301,
    "75726e616d65": 3302,
    "204166726963616e": 3303,
    "2047616d6573": 3304,
    "20466f6f7462616c6c": 3305,
    "2070616972": 3306,
    "2054756e": 3307,
    "2054756e6973": 3308,
    "2054756e69736961": 3309,
    "206c696d69746564": 3310,
    "6961746564": 3311,
    "63686564": 3312,
    "20726570726573656e74": 3313,
    "204e656f74": 3314,
    "204e656f747279": 3315,
    "204e656f74727967": 3316,
    "204e656f747279676f6e": 3317,
    "20616e6e6f74617461": 3318,
    "20446173": 3319,
    "2044617379": 3320,
    "20446173796174": 3321,
    "20686162": 3322,
    "206861626974": 3323,
    "2068616269746174": 3324,
    "206e6f72746865726e": 3325,
    "20776964": 3326,
    "207769647468": 3327,
    "20646961": 3328,
    "20736861706564": 3329,
    "2067726179": 3330,
    "2067726179697368": 3331,
    "63746f72": 3332,
    "20616c746572": 3333,
    "2074686f726e73": 3334,
    "206461726b": 3335,
    "2065796573": 3336,
    "2067656e7573": 3337,
    "20706f6c796368": 3338,
    "20706f6c79636861": 3339,
    "20706f6c796368616574": 3340,
    "20706f6c79636861657465": 3341,
    "20776f72": 3342,
    "20776f726d73": 3343,
    "2066697368": 3344,
    "2075746572": 3345,
    "206563": 3346,
    "206361756768": 3347,
    "20636175676874": 3348,
    "20747261776c": 3349,
    "2054687265": 3350,
    "207068796c6f": 3351,
    "207068796c6f6765": 3352,
    "72697074696f6e": 3353,
    "204c617374": 3354,
    "206d61726b6564": 3355,
    "20636f6c6f72": 3356,
    "203231": 3357,
    "205765737465726e": 3358,
    "686c": 3359,
    "2066756c6c": 3360,
    "20626173": 3361,
    "6e6574": 3362,
    "6e65746963": 3363,
    "204e2e": 3364,
    "20657374696d": 3365,
    "20657374696d61746564": 3366,
    "206f63637572726564": 3367,
    "206c656164696e67": 3368,
    "2062726f": 3369,
    "20737069726163": 3370,
    "207370697261636c6573": 3371,
    "2062656172": 3372,
    "20626172": 3373,
    "207374696e6773": 3374,
    "20746f7761726473": 3375,
    "2049736c616e64": 3376,
    "61676f": 3377,
    "207265706f727473": 3378,
    "2072616e6765": 3379,
    "2072617973": 3380,
    "206d656173757265": 3381,
    "6c696b65": 3382,
    "20486f636b6579": 3383,
    "204c6561677565": 3384,
    "205b": 3385,
    "205d": 3386,
    "2066696e6973686564": 3387,
    "2073747261": 3388,
    "7365717565": 3389,
    "73657175656e74": 3390,
    "2045646d6f6e": 3391,
    "2045646d6f6e746f6e": 3392,
    "204f696c65": 3393,
    "204f696c657273": 3394,
    "2048656164": 3395,
    "2053636f7474": 3396,
    "206669726564": 3397,
    "20417373": 3398,
    "20696e766f6c766564": 3399,
    "20416e67656c6573": 3400,
    "74696d65": 3401,
    "2066696e697368": 3402,
    "204d616e": 3403,
    "20616371756973": 3404,
    "206163717569736974696f6e": 3405,
    "206d616e616765": 3406,
    "206d616e6167656d656e74": 3407,
    "2063656e746572": 3408,
    "206669667468": 3409,
    "206c6561677565": 3410,
    "206d696c6c": 3411,
    "206d696c6c696f6e": 3412,
    "20666f726d6572": 3413,
    "204e696b": 3414,
    "204e696b6974": 3415,
    "2046696c": 3416,
    "204f7474": 3417,
    "2053656e61746f7273": 3418,
    "207665746572": 3419,
    "207665746572616e": 3420,
    "205374657665": 3421,
    "20636f6e736563": 3422,
    "20636f6e7365637574": 3423,
    "20636f6e7365637574697665": 3424,
    "6f696e": 3425,
    "7a61": 3426,
    "206c617465": 3427,
    "20706f7765": 3428,
    "20706f776572": 3429,
    "20446574726f": 3430,
    "20446574726f6974": 3431,
    "2057696e6773": 3432,
    "2072656163686564": 3433,
    "204a6f68": 3434,
    "204a6f68616e73": 3435,
    "204a6f68616e73656e": 3436,
    "2073617665": 3437,
    "2070657263656e74": 3438,
    "20636f6e63757373696f6e": 3439,
    "2043616e75": 3440,
    "2043616e75636b73": 3441,
    "20636f6e74696e75": 3442,
    "20627265616b": 3443,
    "206164646564": 3444,
    "20646972656374696f6e": 3445,
    "2073656c66": 3446,
    "2073746f7070": 3447,
    "20696365": 3448,
    "20726f6f6d": 3449,
    "746f": 3450,
    "2053706563": 3451,
    "207069636b73": 3452,
    "2073687574": 3453,
    "20736875746f7574": 3454,
    "20726567756c6174696f6e": 3455,
    "20656c696d": 3456,
    "20656c696d696e": 3457,
    "20656c696d696e61746564": 3458,
    "2067617665": 3459,
    "20446976": 3460,
    "204469766973696f6e": 3461,
    "206261636b67726f756e64": 3462,
    "20696e64696361746573": 3463,
    "2042656c": 3464,
    "206c697374696e67": 3465,
    "20476f616c73": 3466,
    "20416761": 3467,
    "20416761696e": 3468,
    "20416761696e7374": 3469,
    "6461": 3470,
    "20546f72": 3471,
    "20546f727265": 3472,
    "6f6c6963": 3473,
    "696361": 3474,
    "204a756c": 3475,
    "204a756c69616e": 3476,
    "2063616c656e646172": 3477,
    "20526f6d616e": 3478,
    "2047696c": 3479,
    "2047696c6969": 3480,
    "206d6574656f726f6c6f676963616c": 3481,
    "207472616e736974": 3482,
    "636f7065": 3483,
    "6e636573": 3484,
    "206e65776c79": 3485,
    "2062726964": 3486,
    "20627269646765": 3487,
    "20526f6f6d": 3488,
    "204d6572696469616e": 3489,
    "206365": 3490,
    "206365696c": 3491,
    "206365696c696e67": 3492,
    "2057616b65": 3493,
    "20747261636b": 3494,
    "204564": 3495,
    "2074616b696e67": 3496,
    "207265736964656e6365": 3497,
    "616c7468": 3498,
    "63656e74": 3499,
    "2074656e64": 3500,
    "2072656c6174697665": 3501,
    "6f7370": 3502,
    "206469766973696f6e": 3503,
    "2050656e67": 3504,
    "2050656e6775": 3505,
    "20426f6f6b73": 3506,
    "20636170747572": 3507,
    "20696e64696361746564": 3508,
    "2074686f75676874": 3509,
    "656e74696f6e": 3510,
    "20666176": 3511,
    "206661766f72": 3512,
    "20696e666c75656e6365": 3513,
    "207375626a65637473": 3514,
    "206e6f7374": 3515,
    "676963": 3516,
    "686f6c": 3517,
    "7073": 3518,
    "207072696e74696e67": 3519,
    "2074656368": 3520,
    "20616e616c": 3521,
    "20616e616c79": 3522,
    "746963": 3523,
    "20696c6c757374726174": 3524,
    "20696c6c7573747261746f72": 3525,
    "20696e666c75656e636564": 3526,
    "20507265": 3527,
    "20657874656e74": 3528,
    "207468696e6773": 3529,
    "2065786869": 3530,
    "206578686962": 3531,
    "20636f76657273": 3532,
    "205069637475726573717565": 3533,
    "20416c6c696573": 3534,
    "2053656173696465": 3535,
    "20486f6c": 3536,
    "20486f6c6964": 3537,
    "20426f79": 3538,
    "2031393137": 3539,
    "2054696d6573": 3540,
    "2031393238": 3541,
    "204c6f7264": 3542,
    "2031393338": 3543,
    "20616d6f6e67": 3544,
    "207377": 3545,
    "20637269746963616c6c79": 3546,
    "2031383030": 3547,
    "20736f6369616c": 3548,
    "20636f6e736369": 3549,
    "20636f6e7363696f7573": 3550,
    "205377616e": 3551,
    "68756d": 3552,
    "68756d6f75736c79": 3553,
    "646179": 3554,
    "2072657370656374": 3555,
    "20726573706563746976656c79": 3556,
    "204769726c73": 3557,
    "2046726965": 3558,
    "20467269656e64": 3559,
    "20467269656e646c79": 3560,
    "203436": 3561,
    "2068756e": 3562,
    "2031393139": 3563,
    "2052656c": 3564,
    "2052656c6967696f7573": 3565,
    "20696e636c756465": 3566,
    "2046697665": 3567,
    "2054686f7573616e64": 3568,
    "2050656e617274": 3569,
    "2050656e61727468": 3570,
    "2057616c6573": 3571,
    "20506172": 3572,
    "2050617261626c65": 3573,
    "2053757070": 3574,
    "20537570706572": 3575,
    "2031393334": 3576,
    "204765": 3577,
    "2047656f72": 3578,
    "2047656f726765": 3579,
    "2043686170656c": 3580,
    "20576164": 3581,
    "20576164646f6e": 3582,
    "206469736170": 3583,
    "20646973617070": 3584,
    "20726570726f": 3585,
    "20726570726f6475": 3586,
    "2070616e656c73": 3587,
    "72616d656e7473": 3588,
    "20536f757468": 3589,
    "20726f6c6c73": 3590,
    "2031393436": 3591,
    "204f7574": 3592,
    "2054726962": 3593,
    "2054726962756c6174696f6e": 3594,
    "204d656d6f7269616c": 3595,
    "204e6f7262": 3596,
    "204e6f7262757279": 3597,
    "74686f64": 3598,
    "74686f64697374": 3599,
    "2031393534": 3600,
    "206d656d6f7269616c": 3601,
    "2066656574": 3602,
    "20696e7374616c6c": 3603,
    "20696e7374616c6c6564": 3604,
    "204a2e": 3605,
    "2053616c": 3606,
    "2053616c6d": 3607,
    "2053616c6d6f6e": 3608,
    "204661756c": 3609,
    "204661756c6b6e": 3610,
    "204661756c6b6e6572": 3611,
    "20436f6c746f6e": 3612,
    "2053756d6d6572": 3613,
    "2056657273": 3614,
    "20417574": 3615,
    "20417574756d": 3616,
    "20417574756d6e": 3617,
    "2031393237": 3618,
    "204f7572": 3619,
    "2031393336": 3620,
    "205472656573": 3621,
    "2031393434": 3622,
    "2053616e64": 3623,
    "20506f7374": 3624,
    "2031393835": 3625,
    "2046616972796f70": 3626,
    "2046616972796f706f6c": 3627,
    "2046616972796f706f6c6973": 3628,
    "2057696c64": 3629,
    "204d616b": 3630,
    "2042616e": 3631,
    "74746572": 3632,
    "20416e6472657773": 3633,
    "20416d": 3634,
    "20626f6479": 3635,
    "2031393938": 3636,
    "20796f757468": 3637,
    "20736964": 3638,
    "2073696465": 3639,
    "207769746864": 3640,
    "207769746864726577": 3641,
    "20726567696f6e616c": 3642,
    "206661636573": 3643,
    "206368616c6c656e676573": 3644,
    "20776f726c64": 3645,
    "77696465": 3646,
    "20706172746963697061746564": 3647,
    "20746f75726e616d65": 3648,
    "204368616d": 3649,
    "204368616d70": 3650,
    "204368616d70696f6e73": 3651,
    "204368616d70696f6e73686970": 3652,
    "20417a6572": 3653,
    "20417a657262": 3654,
    "20417a6572626169": 3655,
    "20417a65726261696a": 3656,
    "20417a65726261696a616e": 3657,
    "206e6172": 3658,
    "206e6172726f77": 3659,
    "20534f": 3660,
    "2056696c6c": 3661,
    "2063686f7365": 3662,
    "2063686f73656e": 3663,
    "2053696572": 3664,
    "20536965727261": 3665,
    "204c656f6e65": 3666,
    "207175616c696679696e67": 3667,
    "2064656c6179": 3668,
    "20686f7572": 3669,
    "2062656174": 3670,
    "6d62": 3671,
    "207175616c6966696564": 3672,
    "204261636b": 3673,
    "204261636b67726f756e64": 3674,
    "756d616e": 3675,
    "20726967": 3676,
    "207269676874": 3677,
    "20726967687473": 3678,
    "20636f6e74696e656e74": 3679,
    "2067726561746572": 3680,
    "206f7070": 3681,
    "206f70706f7274": 3682,
    "206f70706f7274756e": 3683,
    "206f70706f7274756e697479": 3684,
    "20666f756e646564": 3685,
    "20616666": 3686,
    "20616666696c": 3687,
    "206c61": 3688,
    "206c61756e": 3689,
    "206c61756e63686564": 3690,
    "20436f6d70": 3691,
    "20436f6d7065746974696f6e": 3692,
    "20616374697665": 3693,
    "206c6576656c": 3694,
    "2032303039": 3695,
    "20646564": 3696,
    "206465646963": 3697,
    "207265717569726564": 3698,
    "206861626974617473": 3699,
    "206469616d": 3700,
    "206469616d6f6e64": 3701,
    "20677265656e": 3702,
    "20706563746f72": 3703,
    "20706563746f72616c": 3704,
    "20616c7465726e": 3705,
    "20616c7465726e6174696e67": 3706,
    "2062616e64": 3707,
    "2062616e6473": 3708,
    "2062617365": 3709,
    "20736b696e": 3710,
    "20706174746572": 3711,
    "206d61696e6c79": 3712,
    "20636172696465": 3713,
    "20636172696465616e": 3714,
    "20736872696d": 3715,
    "20736872696d70": 3716,
    "20626f6e79": 3717,
    "20666973686573": 3718,
    "20766976": 3719,
    "2076697669": 3720,
    "2076697669706172": 3721,
    "20766976697061726f7573": 3722,
    "20766961": 3723,
    "20686973746f74": 3724,
    "20686973746f74726f7068": 3725,
    "2075746572696e65": 3726,
    "206d696c": 3727,
    "206d696c6b": 3728,
    "206c61636b": 3729,
    "206c61636b73": 3730,
    "6f6e6f6d": 3731,
    "2076616c": 3732,
    "2076616c7565": 3733,
    "20696e636964656e74": 3734,
    "7374616e64": 3735,
    "20646973747269627574696f6e": 3736,
    "20496e746572": 3737,
    "20496e7465726e6174696f6e616c": 3738,
    "20436f6e73657276": 3739,
    "20436f6e736572766174696f6e": 3740,
    "204e6174757265": 3741,
    "204955": 3742,
    "20495543": 3743,
    "204955434e": 3744,
    "204e656172": 3745,
    "2054687265617465": 3746,
    "20546872656174656e6564": 3747,
    "20736369656e74": 3748,
    "20736369656e7469666963": 3749,
    "6369656e74": 3750,
    "7269616c": 3751,
    "204c6174": 3752,
    "204c6174696e": 3753,
    "20636f6c6f726174696f6e": 3754,
    "2064657369676e61746564": 3755,
    "204461737961746973": 3756,
    "2067726f75": 3757,
    "2067726f7570": 3758,
    "206b75": 3759,
    "206b75686c": 3760,
    "206b75686c6969": 3761,
    "206261736973": 3762,
    "207068796c6f67656e65746963": 3763,
    "696e67616c": 3764,
    "696e67616c6f": 3765,
    "696e67616c6f6f": 3766,
    "20646976657267": 3767,
    "207e": 3768,
    "207374756479": 3769,
    "20636f6d706c6578": 3770,
    "20707574": 3771,
    "2073706c": 3772,
    "2073706c6974": 3773,
    "2073706c697474696e67": 3774,
    "20706f70": 3775,
    "20636f726e": 3776,
    "20636f726e657273": 3777,
    "206d617267": 3778,
    "206d617267696e73": 3779,
    "656e746c79": 3780,
    "2062726f6164": 3781,
    "20706f696e746564": 3782,
    "20746970": 3783,
    "72696c": 3784,
    "206d6f757468": 3785,
    "206265617273": 3786,
    "20736c65": 3787,
    "20736c656e646572": 3788,
    "20706170696c6c": 3789,
    "20706170696c6c6165": 3790,
    "20536d": 3791,
    "20536d616c6c": 3792,
    "20626172656c79": 3793,
    "64696e67": 3794,
    "6e677468": 3795,
    "2076656e74": 3796,
    "2076656e7472616c": 3797,
    "20646f7273": 3798,
    "20646f7273616c": 3799,
    "206d6964": 3800,
    "20726f77": 3801,
    "6c6f74": 3802,
    "206c69676874": 3803,
    "203435": 3804,
    "20756e73": 3805,
    "206c65617374": 3806,
    "6c6c65": 3807,
    "6570": 3808,
    "696f6c6f6779": 3809,
    "6f6c6f6779": 3810,
    "2073757266": 3811,
    "2073757266616365": 3812,
    "20646967": 3813,
    "2070726579": 3814,
    "6f726d": 3815,
    "204163": 3816,
    "20646576656c6f70696e67": 3817,
    "2066756e6374696f6e": 3818,
    "616374696f6e73": 3819,
    "206361757365": 3820,
    "2064656c6963": 3821,
    "2064656c6963617465": 3822,
    "20756e6c696b65": 3823,
    "20656e63": 3824,
    "657365": 3825,
    "205468657365": 3826,
    "20726573756c746564": 3827,
    "20617373657373": 3828,
    "206173736573736564": 3829,
    "203239": 3830,
    "206e6f7465": 3831,
    "207374726169676874": 3832,
    "206d697373": 3833,
    "20706c61796f666673": 3834,
    "73657175656e746c79": 3835,
    "20456e74": 3836,
    "20456e747279": 3837,
    "20417373697374": 3838,
    "20417373697374616e74": 3839,
    "20706572736f6e6e": 3840,
    "20706572736f6e6e656c": 3841,
    "20666f7277617264": 3842,
    "2070726f73": 3843,
    "2070726f7370656374": 3844,
    "20726562": 3845,
    "2072656275": 3846,
    "206c6f": 3847,
    "20726571756573746564": 3848,
    "20616c6c6f77696e67": 3849,
    "2073636f7265": 3850,
    "207479696e67": 3851,
    "206f76657274696d65": 3852,
    "2068656c70696e67": 3853,
    "203635": 3854,
    "206368616e676564": 3855,
    "204d616e616765": 3856,
    "204d616e61676572": 3857,
    "20656967687468": 3858,
    "206578636861": 3859,
    "2065786368616e67": 3860,
    "2065786368616e6765": 3861,
    "204e657874": 3862,
    "20736f6f6e": 3863,
    "206167656e74": 3864,
    "2049736c616e64657273": 3865,
    "68657374": 3866,
    "2073636f72": 3867,
    "2073636f72696e67": 3868,
    "207465726d73": 3869,
    "207369676e696e67": 3870,
    "203333": 3871,
    "204e696b697461": 3872,
    "2046696c6174": 3873,
    "2046696c61746f76": 3874,
    "204f7474617761": 3875,
    "203434": 3876,
    "2054726f7068": 3877,
    "2054726f706879": 3878,
    "207374727567676c6564": 3879,
    "204d61726b": 3880,
    "2044656b": 3881,
    "2044656b616e": 3882,
    "2044656b616e696368": 3883,
    "20416d65726963616e": 3884,
    "2041484c": 3885,
    "69617465": 3886,
    "2067726f696e": 3887,
    "20416c6c656e": 3888,
    "20526567756c6172": 3889,
    "2074696564": 3890,
    "204d696368": 3891,
    "2068656c706564": 3892,
    "696c657374": 3893,
    "696c6573746f6e6573": 3894,
    "205279": 3895,
    "205279616e": 3896,
    "2061737369737473": 3897,
    "20756e61626c65": 3898,
    "20617474656d": 3899,
    "20617474656d70746564": 3900,
    "20726f7374": 3901,
    "20726f73746572": 3902,
    "206d6f766573": 3903,
    "20636f6163686564": 3904,
    "206e696e65": 3905,
    "2070657263656e74616765": 3906,
    "206d69676874": 3907,
    "65726f7573": 3908,
    "20686974": 3909,
    "207761726d": 3910,
    "20757073": 3911,
    "2056616e63": 3912,
    "2056616e636f75": 3913,
    "2056616e636f75766572": 3914,
    "20737566666572": 3915,
    "20737566666572696e67": 3916,
    "207365656e": 3917,
    "20486f7765766572": 3918,
    "20676f696e67": 3919,
    "20776169": 3920,
    "20766963746f7279": 3921,
    "206368616e6765": 3922,
    "203330": 3923,
    "204d6343": 3924,
    "204d63436f6e": 3925,
    "204d63436f6e6e": 3926,
    "204d63436f6e6e656c6c": 3927,
    "6f696e74": 3928,
    "20676976696e67": 3929,
    "2070726f74657374": 3930,
    "656e61": 3931,
    "2032303133": 3932,
    "20536b": 3933,
    "696c6c73": 3934,
    "676564": 3935,
    "20636f727265": 3936,
    "20636f7272656374": 3937,
    "20686f636b6579": 3938,
    "2073746f70706564": 3939,
    "20507265736964656e74": 3940,
    "20736974756174696f6e": 3941,
    "61726c696572": 3942,
    "2070726f70": 3943,
    "20696e766f6c76696e67": 3944,
    "20636f6d62696e": 3945,
    "20636f6d62696e6174696f6e": 3946,
    "747465": 3947,
    "204d6345": 3948,
    "204d63456c": 3949,
    "204d63456c6869": 3950,
    "204d63456c68696e": 3951,
    "204d63456c68696e6e": 3952,
    "204d63456c68696e6e6579": 3953,
    "2053616d": 3954,
    "2066757274686572": 3955,
    "206f7267616e697a6174696f6e": 3956,
    "20436f6c6f72": 3957,
    "20436f6c6f726164": 3958,
    "20436f6c6f7261646f": 3959,
    "204176616c": 3960,
    "204176616c616e63": 3961,
    "204176616c616e636865": 3962,
    "2070726f636565": 3963,
    "2070726f636565646564": 3964,
    "20706f73746564": 3965,
    "20766963746f72696573": 3966,
    "2064656665": 3967,
    "206465666561746564": 3968,
    "206561726e": 3969,
    "2074656e": 3970,
    "207361766573": 3971,
    "2073746172746572": 3972,
    "206c6564": 3973,
    "204d696b65": 3974,
    "206c6f77657374": 3975,
    "20736974756174696f6e73": 3976,
    "203634": 3977,
    "6572656e6365": 3978,
    "2043656e74": 3979,
    "2043656e7472616c": 3980,
    "2043686963": 3981,
    "204368696361676f": 3982,
    "20576f6e": 3983,
    "2073746174697374696373": 3984,
    "2050656e616c": 3985,
    "2050656e616c7479": 3986,
    "206d696e7573": 3987,
    "20737461746973746963": 3988,
    "20656666": 3989,
    "204e6f7465": 3990,
    "20506f73": 3991,
    "204750": 3992,
    "204c6f73736573": 3993,
    "204741": 3994,
    "2053617665": 3995,
    "20726566": 3996,
    "20547261": 3997,
    "2072656d6564": 3998,
    "20617374726f6e6f6d79": 3999,
    "2072656d61696e646572": 4000,
    "2048656a": 4001,
    "2048656a6461": 4002,
    "20537472616c": 4003,
    "20537472616c6d616e": 4004,
    "204c6570": 4005,
    "204c6570697374": 4006,
    "204c65706973746f": 4007,
    "20436f6d6d6f64": 4008,
    "20436f6d6d6f646f7265": 4009,
    "206f666665726564": 4010,
    "207265706c616365": 4011,
    "204d61727469": 4012,
    "204d617274696e65": 4013,
    "204d617274696e656b": 4014,
    "204974616c": 4015,
    "204974616c69616e": 4016,
    "2042656c7665": 4017,
    "2042656c7665646572": 4018,
    "2042656c766564657265": 4019,
    "204170": 4020,
    "2041706f7374": 4021,
    "2041706f73746f6c6963": 4022,
    "2050616c": 4023,
    "2050616c616365": 4024,
    "20313537": 4025,
    "2031353830": 4026,
    "2063726564": 4027,
    "206372656469746564": 4028,
    "2043616c656e646172": 4029,
    "205265666f726d": 4030,
    "20477265676f7279": 4031,
    "2070726f6d756c": 4032,
    "2070726f6d756c6761": 4033,
    "2031353832": 4034,
    "20417374726f6e6f6d": 4035,
    "205661746963616e61": 4036,
    "204f62": 4037,
    "204f6273657276": 4038,
    "204f627365727661746f7279": 4039,
    "20466f7572": 4040,
    "2070726f6772657373": 4041,
    "20617374726f6e6f6d6963616c": 4042,
    "20657373656e7469616c": 4043,
    "20636f6e666972": 4044,
    "20636f6e6669726d": 4045,
    "20636f6e6669726d6174696f6e": 4046,
    "206d6f7475": 4047,
    "2070726f7072": 4048,
    "2070726f7072696f": 4049,
    "205574": 4050,
    "206d797374": 4051,
    "206d7973746963": 4052,
    "206d7973746963616d": 4053,
    "2031383931": 4054,
    "207375697461626c65": 4055,
    "204a6573": 4056,
    "20436f6c6c6567": 4057,
    "20436f6c6c656765": 4058,
    "20657870657274": 4059,
    "206f62736572766174696f6e": 4060,
    "204967": 4061,
    "2049676e": 4062,
    "2049676e617a": 4063,
    "2049676e617a696f": 4064,
    "2044616e74": 4065,
    "2044616e7469": 4066,
    "697263": 4067,
    "697263756c6172": 4068,
    "206d6172626c65": 4069,
    "2063656e747572696573": 4070,
    "204d6772": 4071,
    "20426173": 4072,
    "20426173696c": 4073,
    "20426173696c696361": 4074,
    "205649": 4075,
    "20617070726f76616c": 4076,
    "69636573": 4077,
    "20736569736d": 4078,
    "2070656e6475": 4079,
    "2070656e64756c": 4080,
    "2070656e64756c756d": 4081,
    "6d6573": 4082,
    "20333030": 4083,
    "20343030": 4084,
    "20666f727469": 4085,
    "20313832": 4086,
    "2031383231": 4087,
    "204c696272617279": 4088,
    "2044656e": 4089,
    "2044656e7a61": 4090,
    "2050617269": 4091,
    "205061726973": 4092,
    "206571756174": 4093,
    "2065717561746f7269616c": 4094,
    "2074656c657363": 4095,
    "2074656c6573636f7065": 4096,
    "20466174686572": 4097,
    "20746f77657273": 4098,
    "696f6772617068": 4099,
    "2053756e64": 4100,
    "2053756e6469616c": 4101,
    "206465636f72": 4102,
    "206465636f7261746564": 4103,
    "206672657363": 4104,
    "2066726573636f": 4105,
    "2066726573636f6573": 4106,
    "20616e656d": 4107,
    "20616e656d6f73": 4108,
    "20616e656d6f73636f7065": 4109,
    "69786564": 4110,
    "706972": 4111,
    "204d61726961": 4112,
    "204d6172696168": 4113,
    "207469746c65": 4114,
    "207469746c6564": 4115,
    "20736f6e6773": 4116,
    "20526963": 4117,
    "20736573": 4118,
    "2073657373696f6e": 4119,
    "20706f6c6974": 4120,
    "20706f6c69746963616c": 4121,
    "2043756c": 4122,
    "2043756c6c65": 4123,
    "2043756c6c656e": 4124,
    "657a": 4125,
    "20466572": 4126,
    "204665726e": 4127,
    "204665726e616e64": 4128,
    "204665726e616e64657a": 4129,
    "2073686970": 4130,
    "2041746c": 4131,
    "2041746c616e74": 4132,
    "2041746c616e7461": 4133,
    "20496e64": 4134,
    "2066696c": 4135,
    "6168": 4136,
    "2066696c6d": 4137,
    "6b61": 4138,
    "203838": 4139,
    "20496e646961": 4140,
    "20696e63686573": 4141,
    "20706f756e64": 4142,
    "204c696768746e696e67": 4143,
    "6f6f64": 4144,
    "20536176": 4145,
    "20536176616e": 4146,
    "20536176616e6e": 4147,
    "20536176616e6e6168": 4148,
    "206d6d": 4149,
    "6562": 4150,
    "2046696e67616c": 4151,
    "20537269": 4152,
    "204c616e": 4153,
    "6976657273": 4154,
    "2050656e6775696e73": 4155,
    "636572": 4156,
    "626f": 4157,
    "736564": 4158,
    "636c": 4159,
    "20626c6f636b": 4160,
    "206d6f6e69746f72": 4161,
    "206d6f6e69746f7273": 4162,
    "2062726f74686572": 4163,
    "20556e6976657273": 4164,
    "20726f6164": 4165,
    "206170706561726564": 4166,
    "2069726f6e636c": 4167,
    "2069726f6e636c6164": 4168,
    "2042756c6c": 4169,
    "206b67": 4170,
    "68616e": 4171,
    "6d6564": 4172,
    "627261": 4173,
    "203731": 4174,
    "205553": 4175,
    "2042756c6c6f63": 4176,
    "2042756c6c6f6368": 4177,
    "2061726d6f72": 4178,
    "20546174": 4179,
    "6e616c6c": 4180,
    "20576565": 4181,
    "6b656e": 4182,
    "6c6572": 4183,
    "204177617264": 4184,
    "2063616e636572": 4185,
    "20726576696577": 4186,
    "2073747265": 4187,
    "204e65627261": 4188,
    "204e6562726173": 4189,
    "204e65627261736b61": 4190,
    "2042726964": 4191,
    "205379": 4192,
    "20626c6f636b616465": 4193,
    "206661696c": 4194,
    "73686970": 4195,
    "20616374696e67": 4196,
    "6b65": 4197,
    "696e6174696f6e": 4198,
    "2063726577": 4199,
    "204d616c6c": 4200,
    "204d616c6c6f7279": 4201,
    "207368697073": 4202,
    "2054617474": 4203,
    "20546174746e616c6c": 4204,
    "205765656861": 4205,
    "20576565686177": 4206,
    "205765656861776b656e": 4207,
    "204c616e6b61": 4208,
    "7368": 4209,
    "6d61": 4210,
    "20746872696c": 4211,
    "20746872696c6c6572": 4212,
    "20706572666f726d616e6365": 4213,
    "6c7977": 4214,
    "6c79776f6f64": 4215,
    "204b68616e": 4216,
    "2049484c": 4217,
    "657273686970": 4218,
    "204572": 4219,
    "2045727a": 4220,
    "2045727a686572": 4221,
    "2045727a6865727a": 4222,
    "2045727a6865727a6f67": 4223,
    "2046657264": 4224,
    "2046657264696e": 4225,
    "2046657264696e616e64": 4226,
    "204d6178": 4227,
    "20486967": 4228,
    "2074726176656c": 4229,
    "20427269646765": 4230,
    "20427269646765706f72": 4231,
    "20427269646765706f7274": 4232,
    "2031393836": 4233,
    "2047656f7267": 4234,
    "2047656f72676961": 4235,
    "20617474656d7074": 4236,
    "20737465": 4237,
    "2062726965": 4238,
    "206272696566": 4239,
    "2067756e73": 4240,
    "20726169": 4241,
    "20576861": 4242,
    "73696e67": 4243,
    "20526f79": 4244,
    "20576562": 4245,
    "2057656262": 4246,
    "75676874": 4247,
    "2059656172": 4248,
    "616d70": 4249,
    "2048617274": 4250,
    "2048617274666f7264": 4251,
    "206465616c657273686970": 4252,
    "20534d": 4253,
    "20534d53": 4254,
    "20467261": 4255,
    "6166": 4256,
    "2042696c6c": 4257,
    "206163636570": 4258,
    "2032303135": 4259,
    "2073746172": 4260,
    "206c6f7665": 4261,
    "20737472656574": 4262,
    "206576657279": 4263,
    "2048696768": 4264,
    "2048696768776179": 4265,
    "2065617374": 4266,
    "20696e7465727365": 4267,
    "203338": 4268,
    "203932": 4269,
    "20726f757465": 4270,
    "206d696c6573": 4271,
    "75727265": 4272,
    "2063617365": 4273,
    "20636173656d": 4274,
    "20636173656d617465": 4275,
    "206661696c6564": 4276,
    "2064656c": 4277,
    "2064657363726962": 4278,
    "20646573637269626564": 4279,
    "6e6579": 4280,
    "20766572": 4281,
    "20766572746963": 4282,
    "2062726965666c79": 4283,
    "206a6f696e": 4284,
    "2061626c65": 4285,
    "756c6c": 4286,
    "206c6179": 4287,
    "203530": 4288,
    "20626f77": 4289,
    "20706f756e6473": 4290,
    "2074696465": 4291,
    "204e616861": 4292,
    "204e6168616e74": 4293,
    "207368656c6c": 4294,
    "20507269": 4295,
    "204a6163": 4296,
    "204a6163717565": 4297,
    "204a61637175656c696e65": 4298,
    "6b616e": 4299,
    "20616374726573": 4300,
    "2032303036": 4301,
    "20556e697665727365": 4302,
    "2070616765": 4303,
    "2070616765616e74": 4304,
    "20556e6976657273697479": 4305,
    "2074656c657669": 4306,
    "20636f6d6d6572": 4307,
    "20636f6d6d65726369": 4308,
    "20636f6d6d65726369616c": 4309,
    "20486f757365": 4310,
    "20486f75736566756c": 4311,
    "20486f75736566756c6c": 4312,
    "646961": 4313,
    "204b69636b": 4314,
    "20426f6c": 4315,
    "20426f6c6c79776f6f64": 4316,
    "20426168": 4317,
    "204261687261": 4318,
    "204261687261696e": 4319,
    "2043616e6164": 4320,
    "20696e6475737472": 4321,
    "20696e647573747279": 4322,
    "7961": 4323,
    "2072657669657773": 4324,
    "2052616a": 4325,
    "206f70706f73": 4326,
    "206f70706f73697465": 4327,
    "2072656c6174696f6e73": 4328,
    "2072656c6174696f6e73686970": 4329,
    "6e6369": 4330,
    "2045617374": 4331,
    "205768616c65": 4332,
    "205768616c657273": 4333,
    "20536162": 4334,
    "20536162726573": 4335,
    "656261636b": 4336,
    "20656e67696e65": 4337,
    "20617373697374": 4338,
    "206d69786564": 4339,
    "68616d": 4340,
    "207075726368617365": 4341,
    "796c": 4342,
    "20776f6f64": 4343,
    "20776f6f64656e": 4344,
    "20656c646572": 4345,
    "206c6f6f6b": 4346,
    "204f6e65": 4347,
    "2068696768776179": 4348,
    "20313531": 4349,
    "20333835": 4350,
    "20636f6e6375727265": 4351,
    "6b696e": 4352,
    "204e44": 4353,
    "636c6573": 4354,
    "6374696f6e73": 4355,
    "2072756e": 4356,
    "206167726f756e64": 4357,
    "207370656e74": 4358,
    "2031383635": 4359,
    "2044656365": 4360,
    "20446563656d62": 4361,
    "20446563656d626572": 4362,
    "2064656c697665": 4363,
    "20746f6e73": 4364,
    "207370656564": 4365,
    "2063617267": 4366,
    "20636172676f": 4367,
    "20706c616e": 4368,
    "6d6f6e64": 4369,
    "207761746572": 4370,
    "20726169736564": 4371,
    "2072656475": 4372,
    "2072656475636564": 4373,
    "207265706f7274": 4374,
    "20656e67616765": 4375,
    "20706173736564": 4376,
    "2072657665616c6564": 4377,
    "747261": 4378,
    "2062726f6b65": 4379,
    "626f6174": 4380,
    "206d6973736564": 4381,
    "2073747275636b": 4382,
    "20776f756e64": 4383,
    "20313030": 4384,
    "20506869": 4385,
    "205068696c": 4386,
    "20537964": 4387,
    "205379646e6579": 4388,
    "20426179": 4389,
    "204c616e6b616e": 4390,
    "616475": 4391,
    "2074656c65766973696f6e": 4392,
    "20636f6d6564": 4393,
    "20636f6d656479": 4394,
    "20494946": 4395,
    "2049494641": 4396,
    "2053616a": 4397,
    "2053616a6964": 4398,
    "2067726f73": 4399,
    "206d6f64656c696e67": 4400,
    "20747261696e": 4401,
    "20747261696e696e67": 4402,
    "20726f6d616e": 4403,
    "204d616c": 4404,
    "20616c6f6e6773696465": 4405,
    "74697665": 4406,
    "205a": 4407,
    "202e2e": 4408,
    "202e2e2e": 4409,
    "20446861": 4410,
    "204d756d": 4411,
    "204d756d62": 4412,
    "204d756d626169": 4413,
    "20496e6469616e": 4414,
    "206177617264": 4415,
    "20546f726f6e74": 4416,
    "20546f726f6e746f": 4417,
    "2054616d70": 4418,
    "2054616d7061": 4419,
    "20426f7374": 4420,
    "20426f73746f6e": 4421,
    "206f66666572": 4422,
    "20486973": 4423,
    "2064696167": 4424,
    "20646961676e6f": 4425,
    "20636f6d656261636b": 4426,
    "20636f616368": 4427,
    "7269616e": 4428,
    "204255": 4429,
    "2031393931": 4430,
    "2061707065617273": 4431,
    "20536f756e64": 4432,
    "20446176": 4433,
    "204461766964": 4434,
    "70616e": 4435,
    "206b6579": 4436,
    "2072656d6978": 4437,
    "20626567696e73": 4438,
    "696c79": 4439,
    "776172": 4440,
    "2077726f": 4441,
    "2077726f7465": 4442,
    "616c656e74": 4443,
    "206c6974746c65": 4444,
    "20416c7468": 4445,
    "20416c74686f756768": 4446,
    "206465706c6f79": 4447,
    "656e7365": 4448,
    "72617465": 4449,
    "726967": 4450,
    "200a200a200a200a": 4451,
    "205779": 4452,
    "2057796f6d": 4453,
    "2057796f6d696e67": 4454,
    "205759": 4455,
    "2057594f": 4456,
    "20636f6e74696e756573": 4457,
    "20656e6473": 4458,
    "20666172": 4459,
    "20636f6e63757272656e": 4460,
    "20636f6e63757272656e6379": 4461,
    "7465656e": 4462,
    "20656e74657273": 4463,
    "20636f6d6d756e": 4464,
    "696e67746f6e": 4465,
    "207261696c": 4466,
    "203431": 4467,
    "756d626572": 4468,
    "69676e6d656e74": 4469,
    "65727665": 4470,
    "2048616974": 4471,
    "204861697469": 4472,
    "2031383639": 4473,
    "206265616d": 4474,
    "706564": 4475,
    "20766572746963616c": 4476,
    "20737465616d": 4477,
    "20656e67696e6573": 4478,
    "6f7473": 4479,
    "20706f727473": 4480,
    "207072696d": 4481,
    "207072696d617279": 4482,
    "2064657374696e6174696f6e": 4483,
    "20426572": 4484,
    "6175": 4485,
    "61646564": 4486,
    "67657273": 4487,
    "20486f6c79": 4488,
    "206e69676874": 4489,
    "6c6f776c79": 4490,
    "2072616d": 4491,
    "67696e67": 4492,
    "2077656e74": 4493,
    "20526963686d6f6e64": 4494,
    "20656e6f756768": 4495,
    "2062726f7468657273": 4496,
    "616e636564": 4497,
    "2068756c6c": 4498,
    "20c2b0": 4499,
    "20686f72": 4500,
    "206c6179657273": 4501,
    "2070696c": 4502,
    "2061726d6f726564": 4503,
    "20737465726e": 4504,
    "202b": 4505,
    "2042726f6f6b65": 4506,
    "206d696464": 4507,
    "206d6964646c65": 4508,
    "2077656967": 4509,
    "2077656967686564": 4510,
    "20313130": 4511,
    "20646966666963756c74": 4512,
    "207072657373": 4513,
    "207072657373757265": 4514,
    "2069726f6e636c616473": 4515,
    "206f6273747275": 4516,
    "206f62737472756374696f6e73": 4517,
    "207375636365737366756c6c79": 4518,
    "20526f79616c": 4519,
    "20436f6d6d616e646572": 4520,
    "2057696c6c": 4521,
    "20736f72": 4522,
    "20736f727469": 4523,
    "20736f72746965": 4524,
    "20462e": 4525,
    "205371756164726f6e": 4526,
    "20656173": 4527,
    "6e6b": 4528,
    "2067756e626f6174": 4529,
    "2070656e6574": 4530,
    "204461": 4531,
    "204461686c": 4532,
    "204461686c6772": 4533,
    "204461686c6772656e": 4534,
    "20656974686572": 4535,
    "2073686172": 4536,
    "20506172726f": 4537,
    "20506172726f7474": 4538,
    "2073756273657175656e746c79": 4539,
    "206175": 4540,
    "2061637472657373": 4541,
    "206d6f64656c": 4542,
    "2077696e6e6572": 4543,
    "20726570726573656e746564": 4544,
    "206772616475": 4545,
    "74696f6e": 4546,
    "207265706f72746572": 4547,
    "20676c616d": 4548,
    "20676c616d6f72": 4549,
    "20676c616d6f726f7573": 4550,
    "20726f6c6573": 4551,
    "20656e7365": 4552,
    "20656e73656d62": 4553,
    "20656e73656d626c65": 4554,
    "2052616365": 4555,
    "2042657374": 4556,
    "20416374": 4557,
    "20416374726573": 4558,
    "204e61646961": 4559,
    "204e6164696164": 4560,
    "204e616469616477": 4561,
    "204e616469616477616c": 4562,
    "204e616469616477616c61": 4563,
    "2067726f7373696e67": 4564,
    "2068756d616e": 4565,
    "616d61": 4566,
    "2043616e616469616e": 4567,
    "6e6368": 4568,
    "206163636570746564": 4569,
    "204261727279": 4570,
    "756b68": 4571,
    "2043686f70": 4572,
    "2043686f707261": 4573,
    "204e4454": 4574,
    "204e445456": 4575,
    "2052616a6565": 4576,
    "2052616a656576": 4577,
    "204d6173": 4578,
    "204d6173616e64": 4579,
    "20726f6d616e746963": 4580,
    "204a61": 4581,
    "205265646966": 4582,
    "20526564696666": 4583,
    "205265646966662e": 4584,
    "205265646966662e636f6d": 4585,
    "617572": 4586,
    "686179": 4587,
    "204b756d": 4588,
    "204b756d6172": 4589,
    "2041627261": 4590,
    "204162726168616d": 4591,
    "20e282": 4592,
    "20e282b9": 4593,
    "2062696c6c": 4594,
    "2062696c6c696f6e": 4595,
    "206e656761": 4596,
    "206e65676174697665": 4597,
    "20417761726473": 4598,
    "204b6170": 4599,
    "20e28094": 4600,
    "204672616e6369": 4601,
    "204672616e636973": 4602,
    "20446573": 4603,
    "205456": 4604,
    "2046696c6d": 4605,
    "20636f6e7669": 4606,
    "6f74697665": 4607,
    "2044686177616e": 4608,
    "20656e646564": 4609,
    "62757267": 4610,
    "204c656166": 4611,
    "204c65616673": 4612,
    "2042756666": 4613,
    "2042756666616c": 4614,
    "2042756666616c6f": 4615,
    "20466c696e74": 4616,
    "2031393837": 4617,
    "6f6b6965": 4618,
    "20646961676e6f736564": 4619,
    "2072657469": 4620,
    "20617373697374616e74": 4621,
    "20546572": 4622,
    "205465727279": 4623,
    "206e65636b": 4624,
    "205465": 4625,
    "205465616d": 4626,
    "2066696e616c6c79": 4627,
    "6d61746573": 4628,
    "20696d6d6564": 4629,
    "20696d6d656469617465": 4630,
    "2043616e636572": 4631,
    "20436c65": 4632,
    "20436c6576656c": 4633,
    "20436c6576656c616e64": 4634,
    "20647265": 4635,
    "206472656164": 4636,
    "2064726561646e6f": 4637,
    "2064726561646e6f75676874": 4638,
    "2041757374726f": 4639,
    "2048756e6761": 4640,
    "2048756e67617269616e": 4641,
    "61656c": 4642,
    "6f62": 4643,
    "2053747564": 4644,
    "2053747564696f": 4645,
    "2053747564696f73": 4646,
    "20546172": 4647,
    "206b6579626f": 4648,
    "206b6579626f61726473": 4649,
    "6879": 4650,
    "6e636f": 4651,
    "20766f63": 4652,
    "20766f63616c73": 4653,
    "2042696c6c79": 4654,
    "20542e": 4655,
    "696168": 4656,
    "204b696e67": 4657,
    "204b696e6764": 4658,
    "204b696e67646f6d": 4659,
    "20676f7370": 4660,
    "20676f7370656c": 4661,
    "20616374697669736d": 4662,
    "207075626c69636c79": 4663,
    "63696e67": 4664,
    "6c6966": 4665,
    "206173706972": 4666,
    "6164696c79": 4667,
    "20616363657074": 4668,
    "2061776172": 4669,
    "2043726974": 4670,
    "7074696f6e": 4671,
    "20627261": 4672,
    "7574696f6e": 4673,
    "2050656f706c65": 4674,
    "2074657374": 4675,
    "2074616c656e74": 4676,
    "206d616b6573": 4677,
    "206d6573": 4678,
    "206d61726b": 4679,
    "207477656e74": 4680,
    "207477656e7479": 4681,
    "2061707065": 4682,
    "2061707065616c": 4683,
    "206163636f6d": 4684,
    "206163636f6d70616e": 4685,
    "20666f6c6c6f776564": 4686,
    "697073": 4687,
    "206461696c": 4688,
    "206461696c79": 4689,
    "6d696e": 4690,
    "2073746f7265": 4691,
    "20737461727473": 4692,
    "2064616e6365": 4693,
    "66756c6c79": 4694,
    "2063686f": 4695,
    "2063726f77": 4696,
    "20676574": 4697,
    "2073617973": 4698,
    "2074726176656c73": 4699,
    "20696e74657273656374696f6e": 4700,
    "2031393337": 4701,
    "2042616e6e6572": 4702,
    "20436f756e": 4703,
    "20436f756e7479": 4704,
    "206e6f72746865": 4705,
    "206e6f72746865617374": 4706,
    "20717569636b6c79": 4707,
    "203332": 4708,
    "20696e74657273656374": 4709,
    "20696e7465727365637473": 4710,
    "7572616c": 4711,
    "206661726d": 4712,
    "206661726d6c616e64": 4713,
    "207369787465656e": 4714,
    "204d6f72": 4715,
    "204d6f7272696c": 4716,
    "204d6f7272696c6c": 4717,
    "2063726f73": 4718,
    "2063726f73736573": 4719,
    "2050756d": 4720,
    "2050756d70": 4721,
    "2050756d706b696e": 4722,
    "20437265": 4723,
    "2043726565": 4724,
    "20437265656b": 4725,
    "20746f77617264": 4726,
    "207261696c726f": 4727,
    "207261696c726f6164": 4728,
    "2076656869": 4729,
    "2076656869636c6573": 4730,
    "2074726176656c696e67": 4731,
    "726573736564": 4732,
    "2061766572": 4733,
    "2061766572616765": 4734,
    "2074726166666963": 4735,
    "2053797374": 4736,
    "2053797374656d": 4737,
    "203836": 4738,
    "7175617465": 4739,
    "2072656e756d626572": 4740,
    "2072656e756d6265726564": 4741,
    "2072756e6e6572": 4742,
    "20436f6e66656465726163": 4743,
    "20436f6e6665646572616379": 4744,
    "20626c6f636b6164657273": 4745,
    "20726561726d6564": 4746,
    "2073657276696e67": 4747,
    "206465706c6f796564": 4748,
    "206465636f6d6d697373696f6e6564": 4749,
    "2072657365727665": 4750,
    "206c6f7374": 4751,
    "20736561": 4752,
    "2064656c6976657279": 4753,
    "76616e": 4754,
    "20476c": 4755,
    "20476c6173": 4756,
    "20476c617367": 4757,
    "20476c6173676f77": 4758,
    "2053636f74": 4759,
    "2053636f746c616e64": 4760,
    "204d6964": 4761,
    "205363616c6573": 4762,
    "756c6c6564": 4763,
    "206465707468": 4764,
    "20746f6e": 4765,
    "20373030": 4766,
    "2063796c": 4767,
    "2063796c696e64": 4768,
    "2063796c696e646572": 4769,
    "206b6e6f7473": 4770,
    "206d7068": 4771,
    "203939": 4772,
    "203736": 4773,
    "206f70657261746564": 4774,
    "2053657276": 4775,
    "2053657276696365": 4776,
    "2042726974": 4777,
    "206e6176616c": 4778,
    "204265726d": 4779,
    "204265726d7564": 4780,
    "204265726d756461": 4781,
    "204e617373": 4782,
    "204e6173736175": 4783,
    "206c6f61646564": 4784,
    "2070617373656e": 4785,
    "2070617373656e67657273": 4786,
    "20626f617264": 4787,
    "20486f6c796865": 4788,
    "20486f6c7968656164": 4789,
    "20736c6f776c79": 4790,
    "616e6b": 4791,
    "2062726967": 4792,
    "20656d62": 4793,
    "20737465616d65": 4794,
    "20737465616d6572": 4795,
    "206c6574746572": 4796,
    "20736574746c65": 4797,
    "206c656176696e67": 4798,
    "75617279": 4799,
    "686172": 4800,
    "20656e646f7273": 4801,
    "204575726f7065": 4802,
    "20636f616c": 4803,
    "2070726f766564": 4804,
    "7369626c65": 4805,
    "206368616e": 4806,
    "206368616e6e65": 4807,
    "206368616e6e656c": 4808,
    "206f63637570": 4809,
    "20627265616b696e67": 4810,
    "206f726465726564": 4811,
    "207475726e": 4812,
    "20646973706c": 4813,
    "20646973706c61636564": 4814,
    "20686f72697a": 4815,
    "20686f72697a6f6e74": 4816,
    "20313830": 4817,
    "206c61796572": 4818,
    "20766572746963616c6c79": 4819,
    "2077617465726c696e65": 4820,
    "2070696c6f7468": 4821,
    "2070696c6f74686f757365": 4822,
    "2070696572": 4823,
    "2073687574746572": 4824,
    "20656c6576": 4825,
    "2062616e646564": 4826,
    "20383030": 4827,
    "203830": 4828,
    "20626f6c": 4829,
    "20626f6c7473": 4830,
    "207368656c6c73": 4831,
    "206571756976616c": 4832,
    "206571756976616c656e74": 4833,
    "20313330": 4834,
    "2073746565": 4835,
    "2073706172": 4836,
    "20746f72": 4837,
    "20746f72706564": 4838,
    "20746f727065646f": 4839,
    "204a756c79": 4840,
    "20436861726c6573": 4841,
    "20747269616c73": 4842,
    "6b69": 4843,
    "207369676e69666963616e746c79": 4844,
    "616b6564": 4845,
    "20616972": 4846,
    "20696e74656e7365": 4847,
    "20636f6d6d656e74": 4848,
    "20636f6d6d656e746564": 4849,
    "20636f6d666f72": 4850,
    "2021": 4851,
    "206c65616b": 4852,
    "20636f6d6d697373696f6e": 4853,
    "20636f6d6d697373696f6e6564": 4854,
    "20666c6167": 4855,
    "20666c616773686970": 4856,
    "20646566656e736573": 4857,
    "2061727269766564": 4858,
    "20636c656172": 4859,
    "206f627374": 4860,
    "206f6273746163": 4861,
    "206f62737461636c6573": 4862,
    "204361726f6c": 4863,
    "2061747461636b696e67": 4864,
    "2057617373": 4865,
    "20576173736177": 4866,
    "20726574": 4867,
    "207265747265": 4868,
    "2072657472656174": 4869,
    "736174": 4870,
    "7361746973": 4871,
    "2061676772657373": 4872,
    "2061676772657373697665": 4873,
    "20616767726573736976656e657373": 4874,
    "207371756164726f6e": 4875,
    "2050616765": 4876,
    "2057696c6c6961": 4877,
    "2057696c6c69616d": 4878,
    "20412e": 4879,
    "2070756c6c": 4880,
    "20636f6d706c657465": 4881,
    "2053616d7565": 4882,
    "2053616d75656c": 4883,
    "2041746c616e746963": 4884,
    "20426c6f636b": 4885,
    "20426c6f636b6164696e67": 4886,
    "2070617373696e67": 4887,
    "2065617379": 4888,
    "206d6f726e696e67": 4889,
    "2073696e6b": 4890,
    "6f617264": 4891,
    "2073616e64": 4892,
    "2073616e6462": 4893,
    "2073616e64626172": 4894,
    "2068657273656c66": 4895,
    "207961726473": 4896,
    "206261636b696e67": 4897,
    "2066726167": 4898,
    "20667261676d656e7473": 4899,
    "20656e74697265": 4900,
    "2070656e657472617465": 4901,
    "20776f756e64696e67": 4902,
    "204f66": 4903,
    "20626164": 4904,
    "206261646c79": 4905,
    "20686f7370": 4906,
    "20686f73706974": 4907,
    "20686f73706974616c": 4908,
    "20626f75676874": 4909,
    "207072697a65": 4910,
    "2064697374616e6365": 4911,
    "2072657461696e6564": 4912,
    "20313530": 4913,
    "2063616c6962657273": 4914,
    "2073746174696f6e6564": 4915,
    "61776e": 4916,
    "20626574746572": 4917,
    "205068696c616465": 4918,
    "205068696c6164656c": 4919,
    "205068696c6164656c7068": 4920,
    "205068696c6164656c70686961": 4921,
    "207072696365": 4922,
    "69626c79": 4923,
    "2076696f": 4924,
    "2044656c": 4925,
    "2044656c617761": 4926,
    "2044656c6177617265": 4927,
    "20547269": 4928,
    "20547269756d": 4929,
    "20646570617274": 4930,
    "20677261647561746564": 4931,
    "2064656772": 4932,
    "20646567726565": 4933,
    "206d617373": 4934,
    "20636f6d6d756e696361": 4935,
    "20636f6d6d756e69636174696f6e": 4936,
    "2061737369676e6d656e74": 4937,
    "20617564": 4938,
    "206175646974696f6e": 4939,
    "206175646974696f6e6564": 4940,
    "2053756a": 4941,
    "2053756a6f79": 4942,
    "2047686f": 4943,
    "2047686f7368": 4944,
    "20647261": 4945,
    "206472616d61": 4946,
    "20416c6164": 4947,
    "20416c6164696e": 4948,
    "207073": 4949,
    "207073796368": 4950,
    "204d7572": 4951,
    "204d7572646572": 4952,
    "2073657175656c": 4953,
    "206761726e6572": 4954,
    "206761726e65726564": 4955,
    "20537570706f7274": 4956,
    "20537570706f7274696e67": 4957,
    "2041637472657373": 4958,
    "206e6f6d": 4959,
    "206e6f6d696e6174696f6e": 4960,
    "206c6164": 4961,
    "2068696768657374": 4962,
    "2066696c6d73": 4963,
    "20616374726573736573": 4964,
    "20446562": 4965,
    "204465627574": 4966,
    "2046656d616c": 4967,
    "2046656d616c65": 4968,
    "2073686f7773": 4969,
    "617269616e": 4970,
    "204561726c79": 4971,
    "206772616e64": 4972,
    "20657363": 4973,
    "206573636170": 4974,
    "20657363617065": 4975,
    "20686f7374": 4976,
    "20616765": 4977,
    "206c6561726e": 4978,
    "20486f6c6c79776f6f64": 4979,
    "206d6f766965": 4980,
    "20416374696e67": 4981,
    "206f6666657273": 4982,
    "6464696e67": 4983,
    "61746869": 4984,
    "20696e746572657374": 4985,
    "2044657368": 4986,
    "20446573686d": 4987,
    "20446573686d756b68": 4988,
    "20416e7570": 4989,
    "20416e7570616d61": 4990,
    "204942": 4991,
    "20637269746963616c": 4992,
    "206661696c757265": 4993,
    "204a61616e": 4994,
    "204a61616e65": 4995,
    "204b616861": 4996,
    "204b6168616e": 4997,
    "20416179": 4998,
    "2041617969": 4999,
    "20486169": 5000,
    "70696e67": 5001,
    "736861": 5002,
    "207475726e696e67": 5003,
    "20637269746963697a6564": 5004,
    "2063616c6c696e67": 5005,
    "20426861": 5006,
    "2041726a": 5007,
    "2041726a756e": 5008,
    "2048617368": 5009,
    "20486173686d": 5010,
    "20486173686d69": 5011,
    "2047617572": 5012,
    "20476175726176": 5013,
    "204d616c696e": 5014,
    "204d616c696e69": 5015,
    "20416b73": 5016,
    "20416b73686179": 5017,
    "20776f726c6477696465": 5018,
    "2066696e64": 5019,
    "20706c65": 5020,
    "20706c656173": 5021,
    "20536169": 5022,
    "20506164": 5023,
    "20506164756b": 5024,
    "20506164756b6f6e65": 5025,
    "204b61706f": 5026,
    "204b61706f6f72": 5027,
    "6e63696e67": 5028,
    "20617574": 5029,
    "206175746f6d": 5030,
    "204a6861": 5031,
    "20507261": 5032,
    "61697961": 5033,
    "6c696e67": 5034,
    "2052616a61": 5035,
    "2063726974696373": 5036,
    "203536": 5037,
    "206665617475726564": 5038,
    "2066696c6d6d": 5039,
    "2066696c6d6d616b65": 5040,
    "2066696c6d6d616b6572": 5041,
    "696566": 5042,
    "2052616e": 5043,
    "20736174": 5044,
    "204d616c686f": 5045,
    "204d616c686f747261": 5046,
    "207374617272696e67": 5047,
    "204a656e": 5048,
    "2072656d61726b6564": 5049,
    "62696e67": 5050,
    "20736565": 5051,
    "2070726f6a65637473": 5052,
    "20566172": 5053,
    "20566172756e": 5054,
    "20477261": 5055,
    "7275636b": 5056,
    "20636c6f7365": 5057,
    "206d697373696e67": 5058,
    "207461756768": 5059,
    "20746175676874": 5060,
    "6e6573": 5061,
    "206d65646961": 5062,
    "205045": 5063,
    "20504554": 5064,
    "2050455441": 5065,
    "204d756e": 5066,
    "2061736b6564": 5067,
    "20436f6c6f6d": 5068,
    "20436f6c6f6d626f": 5069,
    "2061756374696f6e": 5070,
    "2061756374696f6e6564": 5071,
    "20576f6d": 5072,
    "20576f6d616e": 5073,
    "206f757466": 5074,
    "206f757466697473": 5075,
    "20776f7265": 5076,
    "6d6f6e": 5077,
    "20636f6e74656d": 5078,
    "20466f7265766572": 5079,
    "206d6167617a696e65": 5080,
    "2072616e6b6564": 5081,
    "2031393634": 5082,
    "205069747473": 5083,
    "20506974747362757267": 5084,
    "2050697474736275726768": 5085,
    "204d61706c65": 5086,
    "207374616e646f7574": 5087,
    "2073636f726572": 5088,
    "20537570706c65": 5089,
    "20537570706c656d656e74": 5090,
    "20537570706c656d656e74616c": 5091,
    "2053706972": 5092,
    "2053706972697473": 5093,
    "20526f6f6b6965": 5094,
    "7561626c65": 5095,
    "20506c61796572": 5096,
    "204e6f6e": 5097,
    "20486f64": 5098,
    "20486f6467": 5099,
    "20486f64676b696e": 5100,
    "206c796d70": 5101,
    "206c796d70686f": 5102,
    "206c796d70686f6d61": 5103,
    "2064697365": 5104,
    "2064697365617365": 5105,
    "2061776172646564": 5106,
    "204d617374": 5107,
    "204d6173746572": 5108,
    "204d6173746572746f6e": 5109,
    "207265746972696e67": 5110,
    "206a6f696e6564": 5111,
    "2063726973": 5112,
    "20637269736973": 5113,
    "204f6e74": 5114,
    "204f6e74617269": 5115,
    "204f6e746172696f": 5116,
    "204c6f7265": 5117,
    "204c6f72657474": 5118,
    "204c6f7265747461": 5119,
    "20756e636c6573": 5120,
    "2031393833": 5121,
    "20636f6e76696e6365": 5122,
    "20636f6e76696e636564": 5123,
    "20696e73706972": 5124,
    "204174686c": 5125,
    "204174686c6574": 5126,
    "204174686c65746963": 5127,
    "204c656d": 5128,
    "204c656d6965": 5129,
    "204c656d696575": 5130,
    "204c656d69657578": 5131,
    "2043616e616461": 5132,
    "203934": 5133,
    "20636f6e6365726e": 5134,
    "207465616d6d61746573": 5135,
    "205374616e": 5136,
    "205374616e6c6579": 5137,
    "20636f6d62696e6564": 5138,
    "6f6666": 5139,
    "203737": 5140,
    "2031393932": 5141,
    "2031393933": 5142,
    "20646f63746f72": 5143,
    "20646f63746f7273": 5144,
    "2066656172": 5145,
    "2073796d70": 5146,
    "2073796d70746f": 5147,
    "2073796d70746f6d73": 5148,
    "206d6f6e746873": 5149,
    "20756e6465727765": 5150,
    "20756e64657277656e74": 5151,
    "2074756d": 5152,
    "2074756d6f72": 5153,
    "20696d6d6564696174656c79": 5154,
    "20747265": 5155,
    "207472656174": 5156,
    "2074726561746d656e7473": 5157,
    "20676f6e65": 5158,
    "2031393939": 5159,
    "2056616c65": 5160,
    "2056616c65726965": 5161,
    "204b656e": 5162,
    "204b656e6e6564": 5163,
    "204b656e6e656479": 5164,
    "207261697365": 5165,
    "20726573656172": 5166,
    "207265736561726368": 5167,
    "20476572": 5168,
    "204765726d616e": 5169,
    "20313930": 5170,
    "20676f64": 5171,
    "20676f6473": 5172,
    "6779": 5173,
    "20456779": 5174,
    "204567797074": 5175,
    "20456779707469616e": 5176,
    "2064656974696573": 5177,
    "20646976696e65": 5178,
    "20456779707469616e73": 5179,
    "206465697479": 5180,
    "20676f6464": 5181,
    "20676f6464657373": 5182,
    "2074656d70": 5183,
    "206d797468": 5184,
    "20696d706f7274": 5185,
    "205261": 5186,
    "20416d756e": 5187,
    "20696d706f7274616e74": 5188,
    "2062656c6965": 5189,
    "20726974": 5190,
    "20486f72": 5191,
    "2062656c6965766564": 5192,
    "2062656c696566": 5193,
    "2072697475616c": 5194,
    "2072656c6967": 5195,
    "2072656c6967696f6e": 5196,
    "2074656d706c6573": 5197,
    "2068756d616e73": 5198,
    "746865": 5199,
    "206e6174757265": 5200,
    "20486f727573": 5201,
    "206372656174696f6e": 5202,
    "206f6674656e": 5203,
    "2073756e": 5204,
    "207465787473": 5205,
    "2063756c": 5206,
    "20776f7273686970": 5207,
    "20666f726d73": 5208,
    "20536f6d65": 5209,
    "20747261646974696f6e": 5210,
    "206b696e6773": 5211,
    "74696d6573": 5212,
    "206d61": 5213,
    "2072697475616c73": 5214,
    "204174656e": 5215,
    "20696d61676573": 5216,
    "20676f64646573736573": 5217,
    "206d616174": 5218,
    "204243": 5219,
    "6973746963": 5220,
    "6473": 5221,
    "2063756c74": 5222,
    "206372656174": 5223,
    "204f736972": 5224,
    "204f7369726973": 5225,
    "20736b79": 5226,
    "617261": 5227,
    "206d79746873": 5228,
    "2073796d62": 5229,
    "20736f63696574": 5230,
    "20736f6369657479": 5231,
    "204973": 5232,
    "2049736973": 5233,
    "617273": 5234,
    "206b696e67": 5235,
    "796e": 5236,
    "206f7468657273": 5237,
    "2072756c": 5238,
    "20736f6d6574696d6573": 5239,
    "2063726561746f72": 5240,
    "2074656d706c65": 5241,
    "6b6865": 5242,
    "6966657374": 5243,
    "207068617261": 5244,
    "2070686172616f68": 5245,
    "20636f6d62696e6174696f6e73": 5246,
    "206f626a656374": 5247,
    "20636f6e6e6563746564": 5248,
    "686f6c617273": 5249,
    "204174656e69736d": 5250,
    "20756e69766572": 5251,
    "796e617374": 5252,
    "2065617274": 5253,
    "20636861": 5254,
    "206368616f73": 5255,
    "2073746174": 5256,
    "206d616e6966657374": 5257,
    "6e61": 5258,
    "20666f726d6564": 5259,
    "2062656c69656673": 5260,
    "20656d6572": 5261,
    "2068696572": 5262,
    "206f626a65637473": 5263,
    "20617267": 5264,
    "7468656973746963": 5265,
    "20476f6473": 5266,
    "20696e746572616374": 5267,
    "e1b9": 5268,
    "e1b9af": 5269,
    "206465706963746564": 5270,
    "207465726d": 5271,
    "20706c61636573": 5272,
    "207265616c6d": 5273,
    "206d61696e7461696e": 5274,
    "796e6173746963": 5275,
    "20707269657374": 5276,
    "206561727468": 5277,
    "20706174": 5278,
    "20706174726f6e": 5279,
    "206261": 5280,
    "204b61726c": 5281,
    "20726172": 5282,
    "20616e6369656e74": 5283,
    "2044656974696573": 5284,
    "207068656e": 5285,
    "207068656e6f6d65": 5286,
    "207068656e6f6d656e61": 5287,
    "206163636f7264": 5288,
    "697374696373": 5289,
    "20757375616c6c79": 5290,
    "207363686f6c617273": 5291,
    "206265696e6773": 5292,
    "206ee1b9af": 5293,
    "206ee1b9af72": 5294,
    "206170706c": 5295,
    "206170706c696564": 5296,
    "20706572736f6e6966696564": 5297,
    "20666f637573": 5298,
    "20696e7374616e6365": 5299,
    "204174756d": 5300,
    "204b6865": 5301,
    "206578697374": 5302,
    "20636f73": 5303,
    "20636f736d": 5304,
    "20636f736d6f73": 5305,
    "204475": 5306,
    "2044756174": 5307,
    "206d65616e73": 5308,
    "206570697468": 5309,
    "20747261646974696f6e616c": 5310,
    "20726172656c79": 5311,
    "206d696e6f72": 5312,
    "20656d6572676564": 5313,
    "206163636f7264696e67": 5314,
    "20636861726163746572697374696373": 5315,
    "2067726f757073": 5316,
    "20736f6c": 5317,
    "20736f6c6172": 5318,
    "20596574": 5319,
    "20706f6c79": 5320,
    "206c69766573": 5321,
    "696e6974696f6e": 5322,
    "2045677970746f6c6f67": 5323,
    "2077686572656173": 5324,
    "2077726974696e67": 5325,
    "2066616c": 5326,
    "2066616c636f": 5327,
    "206d616c65": 5328,
    "2064656d6f6e73": 5329,
    "20636f6e6365707473": 5330,
    "20756e697665727365": 5331,
    "207065727370656374697665": 5332,
    "20506572696f": 5333,
    "20506572696f64": 5334,
    "206963": 5335,
    "2069636f6e": 5336,
    "2069636f6e6f6772617068": 5337,
    "20726570726573656e7473": 5338,
    "20536574": 5339,
    "204d616e79": 5340,
    "2070616e746865": 5341,
    "2070616e7468656f6e": 5342,
    "20666577": 5343,
    "20636f6e74616374": 5344,
    "206b6e6f77": 5345,
    "626573": 5346,
    "2070726965737473": 5347,
    "2073796d626f6c6963": 5348,
    "20616374696f6e73": 5349,
    "207479": 5350,
    "2074797065": 5351,
    "2070726f6d696e65": 5352,
    "20617070726f616368": 5353,
    "64696374": 5354,
    "2066756e6572": 5355,
    "2066756e6572617279": 5356,
    "20696e6861": 5357,
    "20696e686162": 5358,
    "2048617468": 5359,
    "20486174686f72": 5360,
    "206d616e69666573746174696f6e73": 5361,
    "6b68656e": 5362,
    "63726574": 5363,
    "206d6f6e6f7468": 5364,
    "206d6f6e6f746865": 5365,
    "6174656e": 5366,
    "206d756d": 5367,
    "206d756d6d": 5368,
    "2063656e74696d65": 5369,
    "2073697374657273": 5370,
    "20637275": 5371,
    "20637275697365": 5372,
    "206372756973657273": 5373,
    "20776f7273686970706564": 5374,
    "61747572616c": 5375,
    "2072656c6174696f6e7368697073": 5376,
    "20616e696d616c73": 5377,
    "2073796d626f6c": 5378,
    "206d7973746572": 5379,
    "206d7973746572696f7573": 5380,
    "20617267756564": 5381,
    "2077726974696e6773": 5382,
    "697a65": 5383,
    "20706f6c797468656973746963": 5384,
    "2066756e6461": 5385,
    "2066756e64616d656e74": 5386,
    "2066756e64616d656e74616c": 5387,
    "2045677970746f6c6f67697374": 5388,
    "20686965726f67": 5389,
    "20686965726f676c79": 5390,
    "20686965726f676c797068": 5391,
    "20726570726573656e74696e67": 5392,
    "20636f627261": 5393,
    "2064697374696e67": 5394,
    "2064697374696e6775": 5395,
    "207370686572": 5396,
    "20646566696e6974696f6e": 5397,
    "20737567676573746564": 5398,
    "6d616e6e": 5399,
    "20736f756c": 5400,
    "20616e696d616c": 5401,
    "20616e7468726f70": 5402,
    "2048656e": 5403,
    "20656e7669": 5404,
    "206f6e6573": 5405,
    "20426563": 5406,
    "2042656361757365": 5407,
    "20726567696f6e73": 5408,
    "20756e6966": 5409,
    "20726f7961": 5410,
    "20726f79616c": 5411,
    "20666f7265": 5412,
    "20666f726569676e": 5413,
    "3530": 5414,
    "206162736f": 5415,
    "206162736f7262": 5416,
    "206162736f72626564": 5417,
    "206b6e6f776c65646765": 5418,
    "20656c697465": 5419,
    "20706f70756c": 5420,
    "20706f70756c616365": 5421,
    "204e696c65": 5422,
    "20666572": 5423,
    "206665727469": 5424,
    "20626f64696573": 5425,
    "2070726f6d696e656e74": 5426,
    "2066756c6c79": 5427,
    "20756e6465727374616e64": 5428,
    "205074": 5429,
    "2050746168": 5430,
    "2074687573": 5431,
    "206c696e6b6564": 5432,
    "20647765": 5433,
    "206477656c6c": 5434,
    "2073746174756573": 5435,
    "20546865626573": 5436,
    "206570697468657473": 5437,
    "6b68": 5438,
    "2074727565": 5439,
    "206d6572": 5440,
    "6e656164": 5441,
    "20706572696f6473": 5442,
    "20636c6f7468": 5443,
    "204b68656e74": 5444,
    "2073796e63726574": 5445,
    "20416b68656e": 5446,
    "20416b68656e6174656e": 5447,
    "75646573": 5448,
    "20486f726e": 5449,
    "20486f726e756e": 5450,
    "20486f726e756e67": 5451,
    "2065717561746564": 5452,
    "206c696f6e": 5453,
    "6f6d6f72": 5454,
    "6f6d6f727068": 5455,
    "2073616e63": 5456,
    "2073616e6374": 5457,
    "2061726d616d65": 5458,
    "2061726d616d656e74": 5459,
    "2063656e74696d65746572": 5460,
    "2070726f74656374696f6e": 5461,
    "20666c6565": 5462,
    "20666c656574": 5463,
    "7373": 5464,
    "617474": 5465,
    "736572": 5466,
    "20486f727468": 5467,
    "20486f72746879": 5468,
    "20626174746c6573686970": 5469,
    "20626174746c657368697073": 5470,
    "207468657265666f7265": 5471,
    "207072656869": 5472,
    "2070726568697374": 5473,
    "206e61747572616c": 5474,
    "2033313030": 5475,
    "2068696572617263": 5476,
    "20646976657273": 5477,
    "2064697665727365": 5478,
    "75646564": 5479,
    "206665617475726573": 5480,
    "20766965": 5481,
    "20636f75727365": 5482,
    "2073687269": 5483,
    "20726561736f6e73": 5484,
    "206c616265": 5485,
    "2077686f7365": 5486,
    "207661677565": 5487,
    "20776f726473": 5488,
    "20686965726f676c79706873": 5489,
    "2064657465726d696e": 5490,
    "20747261697473": 5491,
    "207369676e73": 5492,
    "204f74686572": 5493,
    "2066616c636f6e": 5494,
    "6374696e67": 5495,
    "20646570696374": 5496,
    "2064697374696e67756973686564": 5497,
    "206964656173": 5498,
    "206d656e74696f6e": 5499,
    "204173736d616e6e": 5500,
    "206d7974686f6c6f6779": 5501,
    "206d61696e7461696e6564": 5502,
    "6f74696f6e": 5503,
    "2065766964656e6365": 5504,
    "20707265636564": 5505,
    "2050726564": 5506,
    "2050726564796e6173746963": 5507,
    "206561726c": 5508,
    "206561726c696573": 5509,
    "206561726c69657374": 5510,
    "20726573656d62": 5511,
    "20726573656d626c65": 5512,
    "2069636f6e6f6772617068696573": 5513,
    "20656e766973696f6e": 5514,
    "20696e646570": 5515,
    "20696e646570656e64": 5516,
    "20696e646570656e64656e74": 5517,
    "2070686172616f6873": 5518,
    "20736578": 5519,
    "20736f6e": 5520,
    "20636976696c697a": 5521,
    "2061646f70": 5522,
    "656b": 5523,
    "2076657279": 5524,
    "74696f6e73": 5525,
    "206469666665726564": 5526,
    "206578616d70": 5527,
    "207479706573": 5528,
    "2070687973": 5529,
    "20706879736963616c": 5530,
    "696669636174696f6e": 5531,
    "6f6c6973": 5532,
    "206e6f74696f6e": 5533,
    "2070726f647563696e67": 5534,
    "2066657274696c": 5535,
    "206c6976696e67": 5536,
    "2066756e6374696f6e73": 5537,
    "20756e6976657273": 5538,
    "20756e6976657273616c": 5539,
    "206469737275": 5540,
    "20636f6e7374": 5541,
    "20636f6e7374616e74": 5542,
    "20636f6e7374616e746c79": 5543,
    "206469736f7264": 5544,
    "206469736f72646572": 5545,
    "206578697374656e6365": 5546,
    "20636f6d706f6e65": 5547,
    "20636f6d706f6e656e74": 5548,
    "6578": 5549,
    "6172696573": 5550,
    "206f6d": 5551,
    "206f6d6e": 5552,
    "20686f7374696c65": 5553,
    "206669786564": 5554,
    "68617669": 5555,
    "686176696f72": 5556,
    "20446976696e65": 5557,
    "20636f6e7472617374": 5558,
    "2070617374": 5559,
    "207061747465726e": 5560,
    "2073756363657373696f6e": 5561,
    "20636f6e74726164696374": 5562,
    "20657870726573": 5563,
    "206d756c7469706c": 5564,
    "206d756c7469706c6963": 5565,
    "206d756c7469706c6963697479": 5566,
    "2072756c65": 5567,
    "2072756c6572": 5568,
    "206a6f7572": 5569,
    "206a6f75726e6579": 5570,
    "2074726561746564": 5571,
    "2054656d70": 5572,
    "207265616c6d73": 5573,
    "20636974696573": 5574,
    "20696d706f7274616e6365": 5575,
    "2054687573": 5576,
    "2073657473": 5577,
    "206d65726765": 5578,
    "20706172746963756c61726c79": 5579,
    "756465": 5580,
    "20656e6e656164": 5581,
    "20657874656e646564": 5582,
    "20696e6861626974": 5583,
    "204b68656e7479": 5584,
    "206a7564": 5585,
    "2073796e6372657469736d": 5586,
    "207072616374": 5587,
    "207072616374696365": 5588,
    "20636f77": 5589,
    "20756e6966696564": 5590,
    "20776973": 5591,
    "2077697364": 5592,
    "20776973646f6d": 5593,
    "206c69746572": 5594,
    "206c697465726174757265": 5595,
    "206d6f6e6f7468656973746963": 5596,
    "20666974": 5597,
    "207072656369": 5598,
    "2077617973": 5599,
    "20616e7468726f706f6d6f727068": 5600,
    "20696d616765": 5601,
    "20737461747565": 5602,
    "20636f6d6d616e6473": 5603,
    "206d6f72616c": 5604,
    "203432": 5605,
    "203430": 5606,
    "207477696e": 5607,
    "20747572726574": 5608,
    "2074757272657473": 5609,
    "2063656e7465726c696e65": 5610,
    "207265706c696361": 5611,
    "2042726974697368": 5612,
    "20c5": 5613,
    "20c5a0": 5614,
    "20c5a06b": 5615,
    "20c5a06b6f64": 5616,
    "20c5a06b6f6461": 5617,
    "206d6f756e74": 5618,
    "206d6f756e746564": 5619,
    "20626f6174": 5620,
    "74726573": 5621,
    "2061697263": 5622,
    "206169726372616674": 5623,
    "204272697461696e": 5624,
    "20737572726f756e646564": 5625,
    "206d757469": 5626,
    "206d7574696e79": 5627,
    "2043617474": 5628,
    "20436174746172": 5629,
    "204361747461726f": 5630,
    "2053616e6b": 5631,
    "2053616e6b74": 5632,
    "204b6169": 5633,
    "204b6169736572": 5634,
    "2061737361756c": 5635,
    "2061737361756c74": 5636,
    "204f747261": 5637,
    "204f7472616e74": 5638,
    "204f7472616e746f": 5639,
    "20416c6c696564": 5640,
    "206561726c696572": 5641,
    "20416e6369656e74": 5642,
    "20736f6d6574696d65": 5643,
    "20707265686973746f7279": 5644,
    "206f66666572696e6773": 5645,
    "20726570726573656e746174697665": 5646,
    "206d616e61676564": 5647,
    "20657870726573736564": 5648,
    "2074696573": 5649,
    "2076696577": 5650,
    "20657261": 5651,
    "20666f6375736564": 5652,
    "206578636c75736976656c79": 5653,
    "20696e666c75656e": 5654,
    "20696e666c75656e63696e67": 5655,
    "20696e7465726163746564": 5656,
    "20736872696e6573": 5657,
    "206c6172676572": 5658,
    "2072697465": 5659,
    "207269746573": 5660,
    "2070726179": 5661,
    "206c6162656c6564": 5662,
    "20696e64697265": 5663,
    "20696e646972656374": 5664,
    "20502e": 5665,
    "2074686f7573616e64": 5666,
    "2074686f7573616e6473": 5667,
    "2066656d696e": 5668,
    "2066656d696e696e65": 5669,
    "205363686f6c617273": 5670,
    "20657479": 5671,
    "206574796d": 5672,
    "206574796d6f6c6f67": 5673,
    "206574796d6f6c6f67696573": 5674,
    "206e6f6e65": 5675,
    "206f726967696e": 5676,
    "206f627363": 5677,
    "206f627363757265": 5678,
    "206964656f67": 5679,
    "206964656f677261": 5680,
    "206964656f6772616d73": 5681,
    "2064657465726d696e6174697665": 5682,
    "20646976696e": 5683,
    "2053696d696c6172": 5684,
    "2072656d696e": 5685,
    "2072656d696e6973": 5686,
    "2072656d696e697363656e74": 5687,
    "2066616c636f6e73": 5688,
    "20636f6e6e656374696e67": 5689,
    "207265666c65": 5690,
    "207265666c656374696e67": 5691,
    "206d65616e696e6773": 5692,
    "20737068657265": 5693,
    "2062656361757365": 5694,
    "206c6573736572": 5695,
    "2064657069637473": 5696,
    "206d656e74696f6e6564": 5697,
    "206d6574617068": 5698,
    "206d65746170686f7273": 5699,
    "20626c": 5700,
    "2064656365": 5701,
    "206465636561736564": 5702,
    "20736f756c73": 5703,
    "2063657265": 5704,
    "20636572656d6f6e": 5705,
    "20636572656d6f6e696573": 5706,
    "20707265656d": 5707,
    "20707265656d696e65": 5708,
    "20707265656d696e656e6365": 5709,
    "2044796e6173746963": 5710,
    "20323638": 5711,
    "2032363836": 5712,
    "20666967": 5713,
    "20666967757265": 5714,
    "20636174746c65": 5715,
    "2077686574686572": 5716,
    "2067726577": 5717,
    "20736f7068": 5718,
    "20736f7068697374": 5719,
    "20736f7068697374696361": 5720,
    "20736f7068697374696361746564": 5721,
    "2070726564796e6173746963": 5722,
    "204e65697468": 5723,
    "207468656f72696573": 5724,
    "2072657665726564": 5725,
    "2048656e7269": 5726,
    "204672616e6b": 5727,
    "204672616e6b666f72": 5728,
    "204672616e6b666f7274": 5729,
    "20656e766973696f6e6564": 5730,
    "20726567617264": 5731,
    "207265676172646564": 5732,
    "20746f6f": 5733,
    "72696564": 5734,
    "206879": 5735,
    "20746f776e73": 5736,
    "20737461746573": 5737,
    "20656d65726765": 5738,
    "20636f756e746572": 5739,
    "20646561746873": 5740,
    "206e6f6e": 5741,
    "2076656e6572": 5742,
    "686f7465": 5743,
    "686f746570": 5744,
    "20486170": 5745,
    "206c69666574696d6573": 5746,
    "2061646f70746564": 5747,
    "20636f6d65": 5748,
    "2031353530": 5749,
    "206e6174697665": 5750,
    "2063756c7473": 5751,
    "20647261776e": 5752,
    "20756e6465727374": 5753,
    "20756e64657273746f6f64": 5754,
    "20706572636570": 5755,
    "206578616d706c65": 5756,
    "206c69746572616c": 5757,
    "20766973696f6e": 5758,
    "2061627374": 5759,
    "20616273747261": 5760,
    "206162737472616374": 5761,
    "20536875": 5762,
    "206f76657273": 5763,
    "206f766572736177": 5764,
    "20636976696c697a6174696f6e": 5765,
    "20666c6f6f64": 5766,
    "206f75746772": 5767,
    "206f757467726f77": 5768,
    "206f757467726f777468": 5769,
    "204b68657072": 5770,
    "204b6865707269": 5771,
    "206163746564": 5772,
    "2044657370": 5773,
    "2044657370697465": 5774,
    "206f766572617263": 5775,
    "206f7665726172636869": 5776,
    "206f76657261726368696e67": 5777,
    "206d61696e7461696e696e67": 5778,
    "2041706570": 5779,
    "6f6d656e74": 5780,
    "204e6f74": 5781,
    "20646566696e65": 5782,
    "2073706865726573": 5783,
    "206f6d6e6973": 5784,
    "20617267756573": 5785,
    "2065766f6c": 5786,
    "2065766f6c766564": 5787,
    "207472616e736365": 5788,
    "207472616e7363656e64": 5789,
    "207370656369616c697a6564": 5790,
    "20416d6f6e67": 5791,
    "2073706972697473": 5792,
    "205468656972": 5793,
    "2070726f74656374697665": 5794,
    "20706f77657273": 5795,
    "2073657276616e74": 5796,
    "2073657276616e7473": 5797,
    "20686965726172636879": 5798,
    "206265686176696f72": 5799,
    "20646973727570746564": 5800,
    "206d7974686963": 5801,
    "20636f6e7461696e": 5802,
    "20636f6e747261646963746f7279": 5803,
    "20617070726f6163686573": 5804,
    "20756e6465727374616e64696e67": 5805,
    "20656d": 5806,
    "20656d6f74696f6e": 5807,
    "2054686f7468": 5808,
    "2065737461626c697368": 5809,
    "20656d626f64": 5810,
    "206769766573": 5811,
    "2070726f6d6f7465": 5812,
    "2070726f6d6f746564": 5813,
    "2070726f63657373": 5814,
    "2073657474696e67": 5815,
    "207374727567676c65": 5816,
    "207769746864726177": 5817,
    "20686973746f726963": 5818,
    "20686973746f726963616c": 5819,
    "20416e6f74686572": 5820,
    "2072657375727265": 5821,
    "207072696d6f7264": 5822,
    "207072696d6f726469616c": 5823,
    "20496e7374": 5824,
    "20496e737465": 5825,
    "20496e7374656164": 5826,
    "20706572696f646963616c": 5827,
    "20706572696f646963616c6c79": 5828,
    "20616c77617973": 5829,
    "20706f737369626c65": 5830,
    "204c6f63": 5831,
    "20696e68616269746564": 5832,
    "206f726465726c79": 5833,
    "2054656d706c6573": 5834,
    "2068756d616e697479": 5835,
    "20686f6d6573": 5836,
    "207072657369646564": 5837,
    "2031363530": 5838,
    "204d6f6e74": 5839,
    "206b656570": 5840,
    "206b656570696e67": 5841,
    "2053656b68": 5842,
    "2053656b686d65": 5843,
    "2053656b686d6574": 5844,
    "20706f77657266756c": 5845,
    "204e656b6865": 5846,
    "204e656b686562": 5847,
    "20636c6f73656c79": 5848,
    "2066616c73": 5849,
    "2066616c7365": 5850,
    "2054657874": 5851,
    "205465787473": 5852,
    "64657273": 5853,
    "20536f6b": 5854,
    "20536f6b6172": 5855,
    "206c696e6b": 5856,
    "207375706572696f72": 5857,
    "206c6561726e696e67": 5858,
    "206c6f7264": 5859,
    "206465736372696265": 5860,
    "206f7665726c": 5861,
    "206f7665726c6170": 5862,
    "756c6174696e67": 5863,
    "207469746c6573": 5864,
    "2065706974686574": 5865,
    "2052656c6174696f6e73": 5866,
    "2052656c6174696f6e73686970": 5867,
    "207368696674696e67": 5868,
    "20636f6e6e656374696f6e73": 5869,
    "2053756368": 5870,
    "2070726f637265": 5871,
    "2066616d696c696573": 5872,
    "207769646573": 5873,
    "207769646573707265": 5874,
    "2077696465737072656164": 5875,
    "2063656e74657273": 5876,
    "204d656d7068": 5877,
    "204d656d70686973": 5878,
    "204d7574": 5879,
    "207472696164": 5880,
    "206368616e676561626c65": 5881,
    "20706572737065637469766573": 5882,
    "2066657274696c697479": 5883,
    "2063697263": 5884,
    "2063697263756d": 5885,
    "2063697263756d7374": 5886,
    "2063697263756d7374616e636573": 5887,
    "20696e7465727265": 5888,
    "20696e74657272656c": 5889,
    "20696e74657272656c61746564": 5890,
    "206d7974686f6c6f676963616c": 5891,
    "20756e697479": 5892,
    "20706c7572616c": 5893,
    "20706c7572616c697479": 5894,
    "2048656c": 5895,
    "2048656c696f": 5896,
    "2048656c696f70": 5897,
    "2048656c696f706f6c6973": 5898,
    "204e696e65": 5899,
    "20656d706861": 5900,
    "20656d70686173": 5901,
    "20656d70686173697a6564": 5902,
    "206d756c746974": 5903,
    "206d756c746974756465": 5904,
    "206f6c646572": 5905,
    "206964656e746966696564": 5906,
    "207375707265": 5907,
    "2073757072656d65": 5908,
    "2072697365": 5909,
    "206d616e69666573746174696f6e": 5910,
    "206b6173": 5911,
    "20636c6f74686573": 5912,
    "206f726163": 5913,
    "206d657373": 5914,
    "206d65737361676573": 5915,
    "206a756467": 5916,
    "2069636f6e6f677261706879": 5917,
    "20536f62": 5918,
    "20536f62656b": 5919,
    "207365786573": 5920,
    "204d696e": 5921,
    "206d65616e74": 5922,
    "2061636b6e": 5923,
    "2061636b6e6f77": 5924,
    "20416e7562": 5925,
    "20416e75626973": 5926,
    "206d6f6e6f74686569736d": 5927,
    "205768657265": 5928,
    "2057686572656173": 5929,
    "6973746564": 5930,
    "206578636c": 5931,
    "2070726976": 5932,
    "2070726976617465": 5933,
    "20737563636573736f7273": 5934,
    "20637265646974": 5935,
    "20776f7264": 5936,
    "2048656e7279": 5937,
    "7265617374": 5938,
    "2070616e7468656973746963": 5939,
    "2067656e6572": 5940,
    "2067656e65726963": 5941,
    "207265737472696374": 5942,
    "2072657374726963746564": 5943,
    "2066696e697465": 5944,
    "74686569736d": 5945,
    "20756e69666f726d": 5946,
    "2067726561746c79": 5947,
    "20636f6578": 5948,
    "696679696e67": 5949,
    "72697074696f6e73": 5950,
    "20646570696374696f6e73": 5951,
    "2070726563696f7573": 5952,
    "206d6174657269616c73": 5953,
    "20666c6573": 5954,
    "20666c657368": 5955,
    "2073796d626f6c697a65": 5956,
    "2073686f776e": 5957,
    "206372656174757265": 5958,
    "206d756d6d696573": 5959,
    "20616c6c75646573": 5960,
    "206865616473": 5961,
    "206865616464": 5962,
    "206865616464726573": 5963,
    "204365727461696e": 5964,
    "20776f726e": 5965,
    "20616e7468726f706f6d6f7270686963": 5966,
    "207469676874": 5967,
    "20636f6c6f7273": 5968,
    "206e6f7572": 5969,
    "206e6f7572697368": 5970,
    "20696e746572616374696f6e": 5971,
    "2073616e637475617279": 5972,
    "2073616e637475": 5973,
    "2073616e6374756172696573": 5974,
    "20656e636c6f": 5975,
    "20656e636c6f736564": 5976,
    "2063686170656c73": 5977,
    "2066617465": 5978,
    "20616572": 5979,
    "20554b": 5980,
    "20536c6179": 5981,
    "20536c61796572": 5982,
    "6f64726f6d": 5983,
    "206165726f64726f6d": 5984,
    "204865617665": 5985,
    "2048656176656e": 5986,
    "204341": 5987,
    "20666c79696e67": 5988,
    "2061766961": 5989,
    "206176696174696f6e": 5990,
    "706f7274": 5991,
    "2070696c6f7473": 5992,
    "207472616e73706f7274": 5993,
    "696e657373": 5994,
    "206165726f64726f6d6573": 5995,
    "20666c69676874": 5996,
    "20417669": 5997,
    "204176696174696f6e": 5998,
    "20736563746f": 5999,
    "20676c696465": 6000,
    "20726567756c": 6001,
    "20434141": 6002,
    "5341": 6003,
    "6c69676874": 6004,
    "20736563746f72": 6005,
    "20627573": 6006,
    "6963726f": 6007,
    "6963726f6c69676874": 6008,
    "206c696365": 6009,
    "20416572": 6010,
    "20526569676e": 6011,
    "204173736f6369": 6012,
    "204173736f63696174696f6e": 6013,
    "20627573696e657373": 6014,
    "206d6963726f6c69676874": 6015,
    "204541": 6016,
    "2045415341": 6017,
    "6964696e67": 6018,
    "20416972": 6019,
    "206169726669656c64": 6020,
    "20706572736f6e616c": 6021,
    "2050726976": 6022,
    "2050726976617465": 6023,
    "20696e74726f": 6024,
    "20426c6f6f64": 6025,
    "20676c6964657273": 6026,
    "2070696c6f74": 6027,
    "206165726f64726f6d65": 6028,
    "206169726669656c6473": 6029,
    "205265636f": 6030,
    "205265636f7264": 6031,
    "20616c62756d73": 6032,
    "206f7065726174696f6e": 6033,
    "20434154": 6034,
    "20636f6e6475": 6035,
    "20636f6e647563746564": 6036,
    "207265637265": 6037,
    "20686f757273": 6038,
    "2067726f777468": 6039,
    "2068656c6963": 6040,
    "2068656c69636f70": 6041,
    "20696e6372656173": 6042,
    "20696e74726f6475": 6043,
    "2065636f6e6f6d": 6044,
    "204d616e6461": 6045,
    "204d616e6461746f": 6046,
    "204d616e6461746f7279": 6047,
    "2053756963": 6048,
    "2053756963696465": 6049,
    "2048616e6e65": 6050,
    "2048616e6e656d616e": 6051,
    "20666c79": 6052,
    "2077696e67": 6053,
    "207365727669636573": 6054,
    "207265676973746572": 6055,
    "2050696c6f74": 6056,
    "20676c69646572": 6057,
    "706f727473": 6058,
    "206c6963656e73": 6059,
    "20676c6964696e67": 6060,
    "20666c6967687473": 6061,
    "2072656372656174696f6e616c": 6062,
    "20696e6372656173696e676c79": 6063,
    "20707261637469636573": 6064,
    "2062656e65": 6065,
    "206465636c696e65": 6066,
    "20527562": 6067,
    "20527562696e": 6068,
    "20636572": 6069,
    "206365727469": 6070,
    "20736c6f77": 6071,
    "204c6f6d": 6072,
    "204c6f6d62": 6073,
    "204c6f6d62617264": 6074,
    "204c6f6d626172646f": 6075,
    "72756d": 6076,
    "61746f72": 6077,
    "776e": 6078,
    "207363686564": 6079,
    "207363686564756c": 6080,
    "2061657269616c": 6081,
    "2072656769737465726564": 6082,
    "206d6963726f6c6967687473": 6083,
    "204c696365": 6084,
    "2073697a65": 6085,
    "72697073": 6086,
    "206163746976697479": 6087,
    "20726567756c61746564": 6088,
    "204575726f7065616e": 6089,
    "61666574": 6090,
    "6166657479": 6091,
    "206169726c696e65": 6092,
    "2041697263": 6093,
    "204169726372616674": 6094,
    "207363686f6f6c73": 6095,
    "20652e": 6096,
    "20652e67": 6097,
    "20652e672e": 6098,
    "73746976": 6099,
    "6f6b6564": 6100,
    "2067656e6572616c6c79": 6101,
    "204e7562": 6102,
    "20477265656b": 6103,
    "20696e746572707265": 6104,
    "20446566": 6105,
    "20636f7665726564": 6106,
    "2072656d756e65": 6107,
    "2073636f7065": 6108,
    "206a657473": 6109,
    "2070697374": 6110,
    "20706973746f6e": 6111,
    "20656e6761676564": 6112,
    "20666c6f776e": 6113,
    "20616d617465": 6114,
    "20616d6174657572": 6115,
    "6f706c": 6116,
    "6f706c616e": 6117,
    "20736d616c6c6572": 6118,
    "204c6963656e6365": 6119,
    "207369746573": 6120,
    "20616972706f727473": 6121,
    "20c2a3": 6122,
    "20726567756c61746f7279": 6123,
    "207374616e6461726473": 6124,
    "207370656374": 6125,
    "20666163": 6126,
    "20666163696c6974696573": 6127,
    "2043657373": 6128,
    "20436573736e61": 6129,
    "2068616e67": 6130,
    "20466c69676874": 6131,
    "206368616d70": 6132,
    "206368616d70696f6e73": 6133,
    "206368616d70696f6e73686970": 6134,
    "204165726f64726f6d": 6135,
    "2047415341": 6136,
    "204741534152": 6137,
    "206261736963": 6138,
    "206c6963656e736564": 6139,
    "4141": 6140,
    "2062656e6566": 6141,
    "2062656e65666974": 6142,
    "20666573746976": 6143,
    "206465636c696e6564": 6144,
    "6c696d": 6145,
    "206d6574616c": 6146,
    "205265636f726473": 6147,
    "206365727469666963": 6148,
    "20506f70": 6149,
    "204b6572": 6150,
    "204b65727279": 6151,
    "2077686f6c65": 6152,
    "20726563656e74": 6153,
    "206661766f72697465": 6154,
    "2041726179": 6155,
    "204172617961": 6156,
    "2076657273696f6e": 6157,
    "207468696e": 6158,
    "2041706f63": 6159,
    "2041706f63616c": 6160,
    "2041706f63616c79": 6161,
    "7261746564": 6162,
    "6369616c": 6163,
    "20747261636b73": 6164,
    "20536c": 6165,
    "696473": 6166,
    "204943": 6167,
    "20494341": 6168,
    "204943414f": 6169,
    "206c696768746572": 6170,
    "20636f72706f72": 6171,
    "20636f72706f72617465": 6172,
    "2065636f6e6f6d6963": 6173,
    "20636f6e747269627574": 6174,
    "207375727665": 6175,
    "203335": 6176,
    "206165726f706c616e": 6177,
    "2068656c69636f7074657273": 6178,
    "2061697277": 6179,
    "20616972776f727468": 6180,
    "20616972776f727468696e657373": 6181,
    "20736166657479": 6182,
    "2068656c69636f70746572": 6183,
    "207363686564756c6564": 6184,
    "20726573706f6e73": 6185,
    "20726573706f6e736962": 6186,
    "20726573706f6e736962696c697479": 6187,
    "20696e74726f64756374696f6e": 6188,
    "20313937": 6189,
    "2061697273686970": 6190,
    "2063617465": 6191,
    "206361746567": 6192,
    "20657374696d61746573": 6193,
    "20706f7765726564": 6194,
    "206c6576656c73": 6195,
    "20666f726d6174696f6e": 6196,
    "206169727374": 6197,
    "20616972737472697073": 6198,
    "2032303035": 6199,
    "616963": 6200,
    "20726573756c74": 6201,
    "206f7261636c6573": 6202,
    "66696369616c": 6203,
    "2072656c61746564": 6204,
    "6f696e746564": 6205,
    "2070726f63657373696f6e73": 6206,
    "20746872656174656e": 6207,
    "20696e766f6b6564": 6208,
    "20457669": 6209,
    "20747261646974696f6e73": 6210,
    "20736177": 6211,
    "2043616e61": 6212,
    "2043616e61616e": 6213,
    "204e75626961": 6214,
    "20696e74726f6475636564": 6215,
    "2065636f6e6f6d79": 6216,
    "72617368": 6217,
    "20736f756e64": 6218,
    "204a616d": 6219,
    "205265636f7264696e6773": 6220,
    "20736c6f776564": 6221,
    "20757469": 6222,
    "7573746f6d65": 6223,
    "20506f704d": 6224,
    "20506f704d6174746572": 6225,
    "20506f704d617474657273": 6226,
    "204164726965": 6227,
    "2041647269656e": 6228,
    "2042656772": 6229,
    "2042656772616e64": 6230,
    "2044617665": 6231,
    "2047756974": 6232,
    "2041776172": 6233,
    "2062696f6772617068": 6234,
    "2062696f677261706879": 6235,
    "20766f63616c": 6236,
    "20726563656e746c79": 6237,
    "206469646e": 6238,
    "20686176696e67": 6239,
    "2068656176": 6240,
    "2065766572": 6241,
    "20536f756e64747261": 6242,
    "20536f756e64747261636b": 6243,
    "2041706f63616c797073": 6244,
    "2041706f63616c79707365": 6245,
    "207265616c6c79": 6246,
    "20636f6f6c": 6247,
    "2032303033": 6248,
    "20736179": 6249,
    "2053696c65": 6250,
    "2053696c656e74": 6251,
    "2053637265": 6252,
    "2053637265616d": 6253,
    "2066617374": 6254,
    "2062617373": 6255,
    "616e6963": 6256,
    "2074726962": 6257,
    "2074726962757465": 6258,
    "2072656e646974696f6e": 6259,
    "2074616b656e": 6260,
    "74757265": 6261,
    "20e28098": 6262,
    "204f72": 6263,
    "204f7267616e": 6264,
    "2072656d756e657261746564": 6265,
    "206f70657261746573": 6266,
    "206a6574": 6267,
    "207461": 6268,
    "20746178": 6269,
    "2074617869": 6270,
    "20737572766579696e67": 6271,
    "2076696e74": 6272,
    "2076696e74616765": 6273,
    "20726163696e67": 6274,
    "6f6261746963": 6275,
    "20616e6e75616c6c79": 6276,
    "206173736f636961746564": 6277,
    "206c6963656e636573": 6278,
    "206c616e64696e67": 6279,
    "20417574686f": 6280,
    "20417574686f726974": 6281,
    "6e6379": 6282,
    "20737065637472756d": 6283,
    "206465766f6c": 6284,
    "206465766f6c766564": 6285,
    "20706c616e6e696e67": 6286,
    "20656e7669726f6e": 6287,
    "204165726f": 6288,
    "206772616e746564": 6289,
    "203630": 6290,
    "20636c756273": 6291,
    "6f7269736564": 6292,
    "2062616c6c6f": 6293,
    "2062616c6c6f6f6e73": 6294,
    "206169727368697073": 6295,
    "20436f6d6d6572": 6296,
    "20436f6d6d65726369616c": 6297,
    "20466c79696e67": 6298,
    "20636c6169": 6299,
    "203539": 6300,
    "20636f6e636c": 6301,
    "20646174": 6302,
    "2064617461": 6303,
    "20696e637265617365": 6304,
    "20636865": 6305,
    "206368656170": 6306,
    "2063686561706572": 6307,
    "2053706f727473": 6308,
    "20636f6d7065746974696f6e73": 6309,
    "69636170706564": 6310,
    "207065726d6974746564": 6311,
    "207265737472696374696f6e73": 6312,
    "206368616d70696f6e7368697073": 6313,
    "20416476616e": 6314,
    "20416476616e636564": 6315,
    "20556e6c696d": 6316,
    "20556e6c696d69746564": 6317,
    "2072657175697265": 6318,
    "20506172616368": 6319,
    "204165726f64726f6d65": 6320,
    "2072756e77617973": 6321,
    "20756e6c6963": 6322,
    "20756e6c6963656e7365": 6323,
    "20756e6c6963656e736564": 6324,
    "204775696465": 6325,
    "206c69737473": 6326,
    "20736563746f7273": 6327,
    "204555": 6328,
    "204c4141": 6329,
    "207570686f6c": 6330,
    "2072756c6573": 6331,
    "2070756e": 6332,
    "2070756e697368": 6333,
    "2070756e6973686d656e74": 6334,
    "2072657363": 6335,
    "20726573637565": 6336,
    "61726d": 6337,
    "706f74": 6338,
    "2065726173": 6339,
    "20726573706f6e7369626c65": 6340,
    "6973666f72": 6341,
    "6973666f7274": 6342,
    "6973666f7274756e65": 6343,
    "20697366": 6344,
    "206973666574": 6345,
    "206775696c74": 6346,
    "20636175": 6347,
    "2063617573696e67": 6348,
    "206576696c": 6349,
    "20426567": 6350,
    "20426567696e": 6351,
    "204d696464": 6352,
    "204d6964646c65": 6353,
    "207175657374": 6354,
    "20676f6f64": 6355,
    "20646570656e64": 6356,
    "20646570656e64656e74": 6357,
    "204f6666696369616c": 6358,
    "207661726965": 6359,
    "2076617269657479": 6360,
    "20666573746976616c73": 6361,
    "756974": 6362,
    "2054656d706c65": 6363,
    "2072656e6577": 6364,
    "20656666656374": 6365,
    "20666573746976616c": 6366,
    "2063726f70": 6367,
    "2073796d626f6c697a6564": 6368,
    "20506572736f6e": 6369,
    "2077616e746564": 6370,
    "20636f6e73756c": 6371,
    "20636f6e73756c746564": 6372,
    "766579": 6373,
    "206163636f6d706c": 6374,
    "206163636f6d706c697368": 6375,
    "206d61676963": 6376,
    "20746872656174656e6564": 6377,
    "2070726179657273": 6378,
    "207069657479": 6379,
    "2061637473": 6380,
    "207265666c656374": 6381,
    "206465766f74696f6e": 6382,
    "206469736167": 6383,
    "2064697361677265": 6384,
    "206469736167726565": 6385,
    "2070686172616f6e": 6386,
    "2070686172616f6e6963": 6387,
    "2073796e63726574697a6564": 6388,
    "204e756269616e": 6389,
    "206964656f6c6f6779": 6390,
    "65656e": 6391,
    "2050746f6c": 6392,
    "2050746f6c656d": 6393,
    "2050746f6c656d616963": 6394,
    "20477265636f": 6395,
    "6174696f": 6396,
    "6374757265": 6397,
    "204d65616e": 6398,
    "204d65616e77": 6399,
    "204d65616e776869": 6400,
    "204d65616e7768696c65": 6401,
    "2053657261": 6402,
    "205365726170": 6403,
    "2053657261706973": 6404,
    "206d6978": 6405,
    "2065736f": 6406,
    "2065736f746572": 6407,
    "2065736f7465726963": 6408,
    "204865726d6573": 6409,
    "2054726973": 6410,
    "20547269736d65": 6411,
    "20547269736d6567": 6412,
    "20547269736d6567697374": 6413,
    "20547269736d65676973747573": 6414,
    "20697473656c": 6415,
    "20697473656c66": 6416,
    "20436f7074": 6417,
    "20436f70746963": 6418,
    "20746872617368": 6419,
    "2070726f6475636572": 6420,
    "2042696c6c626f": 6421,
    "2042696c6c626f617264": 6422,
    "2052757373656c": 6423,
    "2052757373656c6c": 6424,
    "2053696d6d6f6e": 6425,
    "2053696d6d6f6e73": 6426,
    "206469737472696275746564": 6427,
    "20436f6c756d626961": 6428,
    "207065616b6564": 6429,
    "203537": 6430,
    "20676f6c64": 6431,
    "2063657274696669636174696f6e": 6432,
    "736574": 6433,
    "2070616365": 6434,
    "2074656d706f": 6435,
    "20756e64": 6436,
    "20756e64697374": 6437,
    "20756e646973746f72746564": 6438,
    "2067756974617273": 6439,
    "20746f6e6564": 6440,
    "206d75736963616c": 6441,
    "206163637573746f6d65": 6442,
    "206163637573746f6d6564": 6443,
    "2072656c6561736573": 6444,
    "206469736170706f696e746564": 6445,
    "207365746c6973": 6446,
    "207365746c697374": 6447,
    "2043616c6966": 6448,
    "207265766965776572": 6449,
    "206f62736572766564": 6450,
    "206472756d": 6451,
    "6d696e67": 6452,
    "2066726f6e74": 6453,
    "2047756974617269": 6454,
    "20477569746172697374": 6455,
    "20646973637573": 6456,
    "20636f6d706172": 6457,
    "20636f6d7061726564": 6458,
    "206775657373": 6459,
    "206865617264": 6460,
    "206f64": 6461,
    "206f6464": 6462,
    "205765": 6463,
    "20647279": 6464,
    "207370656c6c": 6465,
    "207468696e67": 6466,
    "207772697465": 6467,
    "20546f6d": 6468,
    "20726567756c6172": 6469,
    "204167": 6470,
    "2041676772657373": 6471,
    "206861746573": 6472,
    "207468696e6b": 6473,
    "2072696666": 6474,
    "6c61": 6475,
    "206d6564": 6476,
    "206d65646c6579": 6477,
    "2050686f746f": 6478,
    "2050686f746f6772617068": 6479,
    "726f6c6c": 6480,
    "20496c6c": 6481,
    "20536368": 6482,
    "20617274776f726b": 6483,
    "2046726965646d": 6484,
    "2046726965646d616e": 6485,
    "2070726f6d6f74696f6e": 6486,
    "2070726f6d6f74696f6e616c": 6487,
    "207375726661636564": 6488,
    "206465656d": 6489,
    "206465656d6564": 6490,
    "20636c6173736963": 6491,
    "206c6162656c": 6492,
    "20636572746966": 6493,
    "20636572746966696564": 6494,
    "20416c6c4d": 6495,
    "20416c6c4d7573": 6496,
    "20416c6c4d75736963": 6497,
    "20736c69676874": 6498,
    "2073656c656374696f6e73": 6499,
    "20736179696e67": 6500,
    "2070726573656e6365": 6501,
    "20616d6f6e677374": 6502,
    "20427261": 6503,
    "2072656d656d626572": 6504,
    "2072656d656d62657273": 6505,
    "20646f7562": 6506,
    "20646f75626c65": 6507,
    "206b69636b": 6508,
    "20447261": 6509,
    "204d6574": 6510,
    "204d6574616c": 6511,
    "206578706572696d65": 6512,
    "206578706572696d656e74": 6513,
    "2068656172": 6514,
    "6c6c696e67": 6515,
    "20647269": 6516,
    "206576657279626f": 6517,
    "206576657279626f64": 6518,
    "206576657279626f6479": 6519,
    "2076657273696f6e73": 6520,
    "6172746574": 6521,
    "2054726962757465": 6522,
    "20536c6174": 6523,
    "20536c6174616e6963": 6524,
    "20536c61756768": 6525,
    "20536c61756768746572": 6526,
    "20696e746572707265746564": 6527,
    "20426574": 6528,
    "204265747765": 6529,
    "204265747765656e": 6530,
    "2042656869": 6531,
    "20426568696e64": 6532,
    "2043726f6f6b6564": 6533,
    "2043726f7373": 6534,
    "2041726765": 6535,
    "20417267656e74": 6536,
    "2048617465": 6537,
    "2047686f7374": 6538,
    "2047686f737473": 6539,
    "20446563": 6540,
    "204c697665": 6541,
    "6368696e67": 6542,
    "204456": 6543,
    "20445644": 6544,
    "205374696c6c": 6545,
    "20526569676e696e67": 6546,
    "20626f6e": 6547,
    "20626f6e7573": 6548,
    "6c616e6473": 6549,
    "6c73": 6550,
    "2067726f": 6551,
    "204c697374": 6552,
    "204c697374656e": 6553,
    "204ac3": 6554,
    "2032303034": 6555,
    "656573": 6556,
    "676572": 6557,
    "69616e6365": 6558,
    "20746f7572": 6559,
    "2077616e7473": 6560,
    "20626967": 6561,
    "20636f6e7369646572": 6562,
    "20666f6f74": 6563,
    "206265636f6d696e67": 6564,
    "207472656e64": 6565,
    "6e656c": 6566,
    "20726879": 6567,
    "207268797468": 6568,
    "2072687974686d": 6569,
    "20646566696e6564": 6570,
    "206f7065726174696e67": 6571,
    "207363686564756c65": 6572,
    "204f7267616e697a": 6573,
    "204f7267616e697a6174696f6e": 6574,
    "20656e67696e6564": 6575,
    "20507562": 6576,
    "205075626c6963": 6577,
    "20636f6e747269627574696f6e": 6578,
    "20616d62": 6579,
    "20616d62756c": 6580,
    "20696e636c75646573": 6581,
    "206165726f6261746963": 6582,
    "7574696e67": 6583,
    "20696e646976696475616c73": 6584,
    "206163636f756e7473": 6585,
    "206165726f706c616e6573": 6586,
    "20313334": 6587,
    "20417574686f72697479": 6588,
    "20536166657479": 6589,
    "20416765": 6590,
    "204167656e6379": 6591,
    "206c6963656e73696e67": 6592,
    "206f626a656374697665": 6593,
    "20616363657373": 6594,
    "2075736573": 6595,
    "20646f6573": 6596,
    "206d61726b6574": 6597,
    "20656e7669726f6e6d656e74": 6598,
    "20656e7669726f6e6d656e74616c": 6599,
    "20697373756573": 6600,
    "20646566696e6573": 6601,
    "2072656d756e657261": 6602,
    "2072656d756e65726174696f6e": 6603,
    "2068697265": 6604,
    "20427573": 6605,
    "20427573696e657373": 6606,
    "206165726f706c616e65": 6607,
    "205365727669636573": 6608,
    "2041776172656e": 6609,
    "2041776172656e657373": 6610,
    "20436f756e6369": 6611,
    "20436f756e63696c": 6612,
    "206170706c696573": 6613,
    "20737472617465": 6614,
    "20737472617465676963": 6615,
    "77656c6c": 6616,
    "20486176": 6617,
    "20486176696c6c": 6618,
    "20486176696c6c616e64": 6619,
    "20747261696e6564": 6620,
    "206361736573": 6621,
    "20726567756c617465": 6622,
    "2031393732": 6623,
    "205069706572": 6624,
    "20313732": 6625,
    "203139353073": 6626,
    "203139363073": 6627,
    "203139373073": 6628,
    "2062726f61646c79": 6629,
    "2063617465676f7269736564": 6630,
    "20666c6578": 6631,
    "20666c657869626c65": 6632,
    "2063686172746572": 6633,
    "2053696c": 6634,
    "2053696c766572": 6635,
    "2053696c7665727374": 6636,
    "2053696c76657273746f6e65": 6637,
    "2072616365": 6638,
    "6172696c79": 6639,
    "20616972706f7274": 6640,
    "2072656e746564": 6641,
    "20616d6f756e74": 6642,
    "20636c61696d6564": 6643,
    "203730": 6644,
    "206f70657261746f72": 6645,
    "20617267756d": 6646,
    "20617267756d656e74": 6647,
    "206865616c7468": 6648,
    "20636f6e636c75646573": 6649,
    "20636f6c6c656374": 6650,
    "2032303032": 6651,
    "206578616d706c6573": 6652,
    "205757": 6653,
    "2057574949": 6654,
    "205261636573": 6655,
    "2068616e6469636170706564": 6656,
    "2053756363": 6657,
    "2053756363657373": 6658,
    "206d6178696d": 6659,
    "206d6178696d756d": 6660,
    "203439": 6661,
    "2077696e677370": 6662,
    "2077696e677370616e": 6663,
    "20666c617073": 6664,
    "69646572": 6665,
    "20526163696e67": 6666,
    "205374616e6461": 6667,
    "205374616e64617264": 6668,
    "20496e7465726d6564": 6669,
    "20496e7465726d656469617465": 6670,
    "2073746570": 6671,
    "20506172616368757465": 6672,
    "206672656566": 6673,
    "20736b7964": 6674,
    "20736b79646976696e67": 6675,
    "2063616e6f70": 6676,
    "2063616e6f7079": 6677,
    "204165726f64726f6d6573": 6678,
    "206c6f636174696f6e73": 6679,
    "20707265646f6d": 6680,
    "20707265646f6d696e": 6681,
    "20707265646f6d696e616e74": 6682,
    "20707265646f6d696e616e746c79": 6683,
    "207363616c65": 6684,
    "205374756479": 6685,
    "20736d616c6c657374": 6686,
    "78666f7264": 6687,
    "20657870657269656e6365": 6688,
    "20657870657269656e636564": 6689,
    "20416972706f727473": 6690,
    "2061696473": 6691,
    "206772617373": 6692,
    "20696e666f726d616c": 6693,
    "2066656174757265": 6694,
    "204f53": 6695,
    "206d616a6f72697479": 6696,
    "2047726f": 6697,
    "2047726f7570": 6698,
    "207574696c6973": 6699,
    "207574696c69736174696f6e": 6700,
    "204a6f696e74": 6701,
    "206672616d65": 6702,
    "206672616d65776f726b": 6703,
    "20726567756c61746f72": 6704,
    "206c6567": 6705,
    "206c65676973": 6706,
    "206c656769736c": 6707,
    "20676f7665726e6564": 6708,
    "2072657461696e73": 6709,
    "204d6963726f6c69676874": 6710,
    "2042616c6c": 6711,
    "2042616c6c6f": 6712,
    "2042616c6c6f6f6e": 6713,
    "2050696c6f7473": 6714,
    "20476c6964696e67": 6715,
    "20646f6c6c": 6716,
    "20646f6c6c6172": 6717,
    "20636f696e": 6718,
    "20636f696e73": 6719,
    "72c3": 6720,
    "205a72c3": 6721,
    "205a72c3ad": 6722,
    "205a72c3ad6e79": 6723,
    "205a72c3ad6e7969": 6724,
    "2066756e67": 6725,
    "204d696e74": 6726,
    "204c6f6e67": 6727,
    "204c6f6e676163": 6728,
    "204c6f6e6761637265": 6729,
    "20636172626f": 6730,
    "20636172626f6e61": 6731,
    "20636172626f6e617269": 6732,
    "20636172626f6e61726961": 6733,
    "2073696c": 6734,
    "2073696c766572": 6735,
    "7370616365": 6736,
    "206672756974": 6737,
    "20313835": 6738,
    "2066756e677573": 6739,
    "20637570": 6740,
    "206169727370616365": 6741,
    "20646f6c6c617273": 6742,
    "626f64": 6743,
    "206e6f697365": 6744,
    "2031383439": 6745,
    "626f64696573": 6746,
    "205479": 6747,
    "2054797065": 6748,
    "2064656e6f6d": 6749,
    "2064656e6f6d696e6174696f6e": 6750,
    "20506174746572": 6751,
    "20506174746572736f6e": 6752,
    "2047656f70": 6753,
    "2047656f7079": 6754,
    "2047656f707978": 6755,
    "2047656f7079786973": 6756,
    "69626572": 6757,
    "20416e636f": 6758,
    "20416e636f6e61": 6759,
    "206672756974626f64696573": 6760,
    "20627572": 6761,
    "20472e": 6762,
    "20616e6e756c6172": 6763,
    "20436f6e6772657373": 6764,
    "2063697263756c": 6765,
    "696265727479": 6766,
    "69747465": 6767,
    "6974746565": 6768,
    "204d634b": 6769,
    "204d634b6179": 6770,
    "206d696e7473": 6771,
    "20656167": 6772,
    "2064696573": 6773,
    "2067726f756e64": 6774,
    "20636f6e74726f6c6c6564": 6775,
    "20626f6d62": 6776,
    "20626f6d62617264": 6777,
    "2070726f706f736564": 6778,
    "2031383533": 6779,
    "7261766572": 6780,
    "6173757279": 6781,
    "204c696265727479": 6782,
    "206272616e6368": 6783,
    "7265617468": 6784,
    "2050657474": 6785,
    "20506574746974": 6786,
    "656e73697665": 6787,
    "206172656173": 6788,
    "20626f6d626172646d656e74": 6789,
    "20506f6c61": 6790,
    "204d6f6e74656e": 6791,
    "204d6f6e74656e65": 6792,
    "204d6f6e74656e656772": 6793,
    "696e61": 6794,
    "206275726e6564": 6795,
    "74726f7068": 6796,
    "74726f70686963": 6797,
    "2073706f7265": 6798,
    "206d696e74": 6799,
    "205472656173757279": 6800,
    "2044697265": 6801,
    "204469726563746f72": 6802,
    "20636f6d6d6974746565": 6803,
    "206561676c65": 6804,
    "20726576657273": 6805,
    "204461686c6f6e65": 6806,
    "204461686c6f6e656761": 6807,
    "2031383530": 6808,
    "20696e697469616c": 6809,
    "203232": 6810,
    "20657370": 6811,
    "206573706563": 6812,
    "20657370656369616c6c79": 6813,
    "2064726f70": 6814,
    "20536561": 6815,
    "2053657262": 6816,
    "20636f617374": 6817,
    "61746f": 6818,
    "2073706f726573": 6819,
    "20636f6d6d65726365": 6820,
    "204361726f6c696e61": 6821,
    "2073747269": 6822,
    "20476f62": 6823,
    "20476f627265": 6824,
    "20476f6272656368": 6825,
    "20476f627265636874": 6826,
    "20666c6f77": 6827,
    "2062616e6b": 6828,
    "2072657665727365": 6829,
    "2031383534": 6830,
    "207072696e636573": 6831,
    "207072696e63657373": 6832,
    "504c": 6833,
    "2077696465": 6834,
    "206375727265": 6835,
    "206163636964656e74": 6836,
    "206163636964656e7473": 6837,
    "20636f6e646974696f6e": 6838,
    "20436c617373": 6839,
    "6974696e67": 6840,
    "2070726f626c656d73": 6841,
    "726174696f6e": 6842,
    "206e6574": 6843,
    "2072656c6174696e67": 6844,
    "64656e": 6845,
    "20616c6c65": 6846,
    "20526164": 6847,
    "205261646574": 6848,
    "2052616465747a": 6849,
    "2052616465747a6b": 6850,
    "2052616465747a6b79": 6851,
    "6d617269": 6852,
    "2043726f6174": 6853,
    "2064726561646e6f7567687473": 6854,
    "2041647269": 6855,
    "204164726961746963": 6856,
    "204974616c79": 6857,
    "69616e73": 6858,
    "2041757374726961": 6859,
    "2064656d6f6e73747261": 6860,
    "204d6f6e74656e6567726f": 6861,
    "207765656b": 6862,
    "207765656b73": 6863,
    "205370616c": 6864,
    "205370616c61746f": 6865,
    "2031383839": 6866,
    "2063686172636f": 6867,
    "2063686172636f616c": 6868,
    "207374616c": 6869,
    "2062726f776e": 6870,
    "2077686974": 6871,
    "2077686974697368": 6872,
    "20467275": 6873,
    "204e6f72": 6874,
    "2073707275": 6875,
    "20737072756365": 6876,
    "6e69": 6877,
    "697a61": 6878,
    "20313837": 6879,
    "2066756e6769": 6880,
    "20c2b5": 6881,
    "20c2b56d": 6882,
    "20666f72657374": 6883,
    "20476f6c64": 6884,
    "206469616d6574": 6885,
    "206469616d65746572": 6886,
    "20313833": 6887,
    "20617574686f72697a6564": 6888,
    "2063697263756c61746564": 6889,
    "2063697263756c6174696f6e": 6890,
    "2063697263756c617465": 6891,
    "20536563726574": 6892,
    "20536563726574617279": 6893,
    "204265636874": 6894,
    "2042656368746c6572": 6895,
    "2073746174696e67": 6896,
    "20656e677261766572": 6897,
    "2057686967": 6898,
    "20777265617468": 6899,
    "20436861726c6f74": 6900,
    "20436861726c6f747465": 6901,
    "204672616e636973636f": 6902,
    "2047757468": 6903,
    "2047757468726965": 6904,
    "61676c": 6905,
    "2041697277": 6906,
    "20416972776f727468": 6907,
    "20416972776f727468696e657373": 6908,
    "20556e646572": 6909,
    "20736166": 6910,
    "207361746973": 6911,
    "205065726d": 6912,
    "207065726d": 6913,
    "6963616c6c79": 6914,
    "204a41": 6915,
    "204a4152": 6916,
    "2070657263657074696f6e": 6917,
    "20657870656e73697665": 6918,
    "2063757272656e74": 6919,
    "20726573756c74696e67": 6920,
    "696f6e616c": 6921,
    "20636c6f73757265": 6922,
    "206f706572617465": 6923,
    "20636f6e646974696f6e73": 6924,
    "20657874656e73697665": 6925,
    "206e6176": 6926,
    "20416972706f7274": 6927,
    "206e6574776f726b": 6928,
    "20506c616e": 6929,
    "20506c616e6e696e67": 6930,
    "206465636973696f6e": 6931,
    "206465636973696f6e73": 6932,
    "206c656769736c6174696f6e": 6933,
    "20636f6d706c61": 6934,
    "20636f6d706c61696e74": 6935,
    "20636f6d706c61696e7473": 6936,
    "6974697665": 6937,
    "6d6172696e65": 6938,
    "2031393135": 6939,
    "207375627374": 6940,
    "20417573747269616e73": 6941,
    "20555353": 6942,
    "2073637261": 6943,
    "2048756e67617279": 6944,
    "6d616c6c79": 6945,
    "20626174746572": 6946,
    "2073686f7265": 6947,
    "20317374": 6948,
    "2063727569736572": 6949,
    "2041646d6972": 6950,
    "2041646d6972616c": 6951,
    "2042616c6b": 6952,
    "75726564": 6953,
    "205465676574": 6954,
    "2054656765747468": 6955,
    "20546567657474686f6666": 6956,
    "20547572": 6957,
    "205475726b65": 6958,
    "205475726b6579": 6959,
    "204164646974696f6e": 6960,
    "2053696e6365": 6961,
    "2056656e": 6962,
    "20656c66": 6963,
    "66697265": 6964,
    "20706978": 6965,
    "207069786965": 6966,
    "204672756974": 6967,
    "204672756974626f64696573": 6968,
    "20736f696c": 6969,
    "6572617465": 6970,
    "20416d6572696361": 6971,
    "20736170": 6972,
    "20736170726f": 6973,
    "20736170726f74726f70686963": 6974,
    "2062696f": 6975,
    "2062696f74726f70686963": 6976,
    "20726f6f7473": 6977,
    "204e6f72776179": 6978,
    "2050657a": 6979,
    "2050657a697a61": 6980,
    "6f6b65": 6981,
    "2031383739": 6982,
    "204a6f7365": 6983,
    "204a6f73657068": 6984,
    "656c6c6f77": 6985,
    "756c6573": 6986,
    "6963726f7363": 6987,
    "6963726f73636f70": 6988,
    "67756c6172": 6989,
    "206f72616e67": 6990,
    "206f72616e6765": 6991,
    "206368617261637465726973746963": 6992,
    "206475": 6993,
    "2064756666": 6994,
    "206672756974696e67": 6995,
    "2074726565": 6996,
    "6f6c65": 6997,
    "204368696566": 6998,
    "20456e677261766572": 6999,
    "2043616c69666f726e": 7000,
    "2043616c69666f726e6961": 7001,
    "20686f617264": 7002,
    "2076616e": 7003,
    "2076616e6973686564": 7004,
    "2070726f706f73": 7005,
    "20706965636573": 7006,
    "20737472696b65": 7007,
    "2064617465": 7008,
    "204e65766572": 7009,
    "204e65766572746865": 7010,
    "204e657665727468656c657373": 7011,
    "20526570726573": 7012,
    "20526570726573656e74": 7013,
    "20526570726573656e746174697665": 7014,
    "20737563636573736f72": 7015,
    "2053656e617465": 7016,
    "20636f756e74657266": 7017,
    "20636f756e7465726665": 7018,
    "206d697374": 7019,
    "206d697374616b65": 7020,
    "206d697374616b656e": 7021,
    "206f62766572": 7022,
    "2062656175": 7023,
    "206e6f746573": 7024,
    "20577265617468": 7025,
    "207375727669": 7026,
    "203138353073": 7027,
    "2048616e67": 7028,
    "61676c6964696e67": 7029,
    "20736166656c79": 7030,
    "20436572": 7031,
    "204365727469": 7032,
    "204365727469666963": 7033,
    "204365727469666963617465": 7034,
    "206578636c75646564": 7035,
    "20736174697366": 7036,
    "2073617469736679": 7037,
    "20726571756972656d656e7473": 7038,
    "205065726d6974": 7039,
    "20466c79": 7040,
    "206c696d6974": 7041,
    "206f627461696e": 7042,
    "207374616e64696e67": 7043,
    "207065726d697373696f6e": 7044,
    "2050504c": 7045,
    "204643": 7046,
    "2046434c": 7047,
    "20616273656e": 7048,
    "20616273656e6365": 7049,
    "2062616c6c6f6f6e": 7050,
    "72656175": 7051,
    "7261746963": 7052,
    "204e50": 7053,
    "204e50504c": 7054,
    "206c6963656e6365": 7055,
    "207265737472696374697665": 7056,
    "20467265": 7057,
    "204672656e6368": 7058,
    "206272696e67": 7059,
    "206d696e696d": 7060,
    "20313339": 7061,
    "20666174": 7062,
    "20666174616c": 7063,
    "2068616e646c696e67": 7064,
    "20706f6f72": 7065,
    "20636c61696d696e67": 7066,
    "20686967686572": 7067,
    "206578697374696e67": 7068,
    "2070726f66697461626c65": 7069,
    "20696d70616374": 7070,
    "206e6567": 7071,
    "206e65676f74": 7072,
    "204169727370616365": 7073,
    "207573657273": 7074,
    "20756e636f": 7075,
    "20756e636f6e74": 7076,
    "20756e636f6e74726f6c6c": 7077,
    "20756e636f6e74726f6c6c6564": 7078,
    "6c6c6564": 7079,
    "2070726f766973696f6e": 7080,
    "206f70657261746f7273": 7081,
    "686962": 7082,
    "6869626974696e67": 7083,
    "2068756e64": 7084,
    "2068756e64726564": 7085,
    "20657874656e64": 7086,
    "20657874656e6473": 7087,
    "20636f6e63656e74": 7088,
    "207365727665": 7089,
    "2073706f7473": 7090,
    "6f6d70": 7091,
    "20696e63726561736573": 7092,
    "20726566757365": 7093,
    "20696e6372656173696e67": 7094,
    "20766961626c65": 7095,
    "20737570706f7274696e67": 7096,
    "206f70": 7097,
    "206f70696e": 7098,
    "206f70696e696f6e": 7099,
    "20636f6e6365726e73": 7100,
    "20726573706f6e64": 7101,
    "20656e7175": 7102,
    "20656e71756972": 7103,
    "2072656c617465": 7104,
    "206165726f626174696373": 7105,
    "20706172616368": 7106,
    "20706172616368757465": 7107,
    "20616c6c65676564": 7108,
    "69736573": 7109,
    "207265706574": 7110,
    "2072657065746974697665": 7111,
    "2061756469626c65": 7112,
    "6c656d656e74": 7113,
    "75726573": 7114,
    "2070726f76696465": 7115,
    "6773": 7116,
    "204672616e": 7117,
    "204672616e7a": 7118,
    "2053656e6967": 7119,
    "2053656e6967616c6c": 7120,
    "2053656e6967616c6c6961": 7121,
    "2053747261": 7122,
    "20537472616974": 7123,
    "207375627374616e74": 7124,
    "207072657061726564": 7125,
    "20536c6f7665": 7126,
    "20536c6f76656e6573": 7127,
    "2043726f617473": 7128,
    "205365726273": 7129,
    "206e617679": 7130,
    "207361696c": 7131,
    "207361696c6564": 7132,
    "207375626d6172696e65": 7133,
    "20636861736572": 7134,
    "2063686173657273": 7135,
    "205361696e74": 7136,
    "204765726d61": 7137,
    "204765726d61696e": 7138,
    "2062726f6b656e": 7139,
    "207363726170": 7140,
    "2044657369676e": 7141,
    "696d656e74": 7142,
    "20547269657374": 7143,
    "6c6970": 7144,
    "3930": 7145,
    "206e6f726d616c6c79": 7146,
    "746963616c": 7147,
    "2062617474657279": 7148,
    "203437": 7149,
    "203835": 7150,
    "20636f6d6d697373696f6e696e67": 7151,
    "656765": 7152,
    "206d6f62": 7153,
    "206d6f62696c": 7154,
    "206d6f62696c697a6564": 7155,
    "2064656d6f6e7374726174696f6e": 7156,
    "2042616c6b616e": 7157,
    "206e6176696573": 7158,
    "2042726573": 7159,
    "20427265736c61": 7160,
    "20427265736c6175": 7161,
    "20666c6f7469": 7162,
    "20666c6f74696c6c": 7163,
    "20666c6f74696c6c61": 7164,
    "204d6f6e74656e656772696e": 7165,
    "2070726576656e74": 7166,
    "2053637574": 7167,
    "2053637574617269": 7168,
    "20536572626961": 7169,
    "2031393134": 7170,
    "20486162": 7171,
    "20427269": 7172,
    "204272696e64": 7173,
    "204272696e646973": 7174,
    "204272696e64697369": 7175,
    "69656e": 7176,
    "207365766572656c79": 7177,
    "204164646974696f6e616c": 7178,
    "6172766573": 7179,
    "204974616c69616e73": 7180,
    "20626f72646572": 7181,
    "20486175": 7182,
    "2048617573": 7183,
    "2044616c": 7184,
    "2044616c6d61": 7185,
    "2044616c6d617469": 7186,
    "20597567": 7187,
    "205975676f73": 7188,
    "205975676f736c61": 7189,
    "20536c6176": 7190,
    "6361746564": 7191,
    "2053706c": 7192,
    "2053706c6974": 7193,
    "2055534e": 7194,
    "206170706172": 7195,
    "206170706172656e746c79": 7196,
    "20452e": 7197,
    "20756c74696d617465": 7198,
    "204f6e6c79": 7199,
    "2031383035": 7200,
    "20636f6d6d6f6e6c79": 7201,
    "206c6f76696e67": 7202,
    "2064776172": 7203,
    "206477617266": 7204,
    "2061636f726e": 7205,
    "207374616c6b6564": 7206,
    "20626f6e66697265": 7207,
    "206672696e67": 7208,
    "207374616c6b": 7209,
    "6d6973": 7210,
    "207072696d6172696c79": 7211,
    "206f7267616e6963": 7212,
    "206d6174746572": 7213,
    "2061736369": 7214,
    "204d79636f": 7215,
    "2050696572": 7216,
    "2073796e6f6e": 7217,
    "2073796e6f6e796d": 7218,
    "207461786f6e": 7219,
    "207461786f6e6f6d": 7220,
    "207461786f6e6f6d6963": 7221,
    "2031383536": 7222,
    "2062656172696e67": 7223,
    "2068796d65": 7224,
    "2068796d656e69": 7225,
    "2068796d656e69756d": 7226,
    "2079656c6c6f77": 7227,
    "2064697374696e6374697665": 7228,
    "206372757368": 7229,
    "2063727573686564": 7230,
    "2064726f706c6574": 7231,
    "2064726f706c657473": 7232,
    "2064696d65": 7233,
    "20676572": 7234,
    "206765726d696e": 7235,
    "20706172617068": 7236,
    "2070617261706879": 7237,
    "2070617261706879736573": 7238,
    "2069727265": 7239,
    "206972726567756c6172": 7240,
    "206772616e": 7241,
    "206772616e756c6573": 7242,
    "626564": 7243,
    "2063656c6c73": 7244,
    "2062656c6f77": 7245,
    "2076756c": 7246,
    "2076756c63": 7247,
    "2076756c63616e": 7248,
    "206672756974626f64": 7249,
    "206672756974626f6479": 7250,
    "206d6963726f73636f70": 7251,
    "206d6963726f73636f706963616c6c79": 7252,
    "2067726f7773": 7253,
    "205461727a65": 7254,
    "205461727a657474": 7255,
    "205461727a65747461": 7256,
    "2067656e657261": 7257,
    "206669656c64": 7258,
    "20416c65": 7259,
    "20416c657572": 7260,
    "20416c6575726961": 7261,
    "69746174": 7262,
    "20636f6e696665": 7263,
    "20636f6e696665726f": 7264,
    "20636f6e696665726f7573": 7265,
    "207472656573": 7266,
    "206d6f72656c73": 7267,
    "207265706f72746564": 7268,
    "2063617061626c65": 7269,
    "20666f726d696e67": 7270,
    "636f72": 7271,
    "636f7272": 7272,
    "636f72726869": 7273,
    "636f727268697a61": 7274,
    "2064656d6f6e73747261746564": 7275,
    "2070696e65": 7276,
    "2073656564": 7277,
    "206d6f646572617465": 7278,
    "206162696c697479": 7279,
    "2064616d616765": 7280,
    "206275726e696e67": 7281,
    "20666f7265737473": 7282,
    "20737175": 7283,
    "207371756172": 7284,
    "20737175617265": 7285,
    "206d696e746564": 7286,
    "2062756c6c": 7287,
    "2062756c6c696f6e": 7288,
    "20636175736564": 7289,
    "207265616479": 7290,
    "20726172697479": 7291,
    "2048616d696c": 7292,
    "2048616d696c746f6e": 7293,
    "207265636f6d6d": 7294,
    "20617574686f72697a": 7295,
    "20617574686f72697a696e67": 7296,
    "204368726973746f70": 7297,
    "204368726973746f70686572": 7298,
    "20576f6f64": 7299,
    "20576f6f6462": 7300,
    "20576f6f6462757279": 7301,
    "206f70706f736564": 7302,
    "204d2e": 7303,
    "206e65777370": 7304,
    "206e657773706170": 7305,
    "206e6577737061706572": 7306,
    "204c6564": 7307,
    "204c6564676572": 7308,
    "6e746c79": 7309,
    "206e656974686572": 7310,
    "20636f6e6772657373": 7311,
    "2031383434": 7312,
    "206368616972": 7313,
    "2063686169726d616e": 7314,
    "20436f6d6d6974746565": 7315,
    "207175616e74": 7316,
    "207175616e746974696573": 7317,
    "2070726f706f73616c": 7318,
    "20686f6c65": 7319,
    "207265706c696564": 7320,
    "206368696566": 7321,
    "207061747465726e73": 7322,
    "2053656e61746f72": 7323,
    "204174686572": 7324,
    "204174686572746f6e": 7325,
    "2064656e6f6d696e6174696f6e73": 7326,
    "6f6c6c": 7327,
    "2069646561": 7328,
    "20436f6e67726573736d616e": 7329,
    "2062616e6b6e6f": 7330,
    "2062616e6b6e6f7465": 7331,
    "206c6177": 7332,
    "205065616c65": 7333,
    "20756e646f75": 7334,
    "20756e646f7562": 7335,
    "20756e646f7562746564": 7336,
    "20756e646f75627465646c79": 7337,
    "207072656d": 7338,
    "204163636f7264696e676c79": 7339,
    "206f627665727365": 7340,
    "726176696e67": 7341,
    "2061646170746174696f6e": 7342,
    "20636f696e696e67": 7343,
    "666163746f7279": 7344,
    "2072696d": 7345,
    "20626561757469": 7346,
    "2062656175746966756c": 7347,
    "20706179": 7348,
    "2067657474696e67": 7349,
    "20686f706564": 7350,
    "206e756d69736d": 7351,
    "206e756d69736d61746963": 7352,
    "20426f776572": 7353,
    "20426f77657273": 7354,
    "207363616c6564": 7355,
    "207072657365727665": 7356,
    "20707265736572766564": 7357,
    "2076617269657469": 7358,
    "20766172696574696573": 7359,
    "204f726c65": 7360,
    "204f726c65616e73": 7361,
    "20436c6f736564": 7362,
    "20737572766976696e67": 7363,
    "206d656c": 7364,
    "206d656c74696e67": 7365,
    "2066696c6c": 7366,
    "20646966666963756c74696573": 7367,
    "207265706c6163656d656e74": 7368,
    "20536e6f": 7369,
    "20536e6f77": 7370,
    "20536e6f7764656e": 7371,
    "207468696e6e6572": 7372,
    "207769646572": 7373,
    "206167726963": 7374,
    "206167726963756c": 7375,
    "206167726963756c747572": 7376,
    "206167726963756c747572616c": 7377,
    "20737472696b696e": 7378,
    "20536f75746865726e": 7379,
    "2066656174686572": 7380,
    "2056656e7573": 7381,
    "207065726861": 7382,
    "2070657268617073": 7383,
    "206561676c6573": 7384,
    "20737570706c": 7385,
    "2066616365": 7386,
    "2062616e6b73": 7387,
    "20547275": 7388,
    "205472756a69": 7389,
    "205472756a696c6c": 7390,
    "205472756a696c6c6f": 7391,
    "c3ad": 7392,
    "204d61646572": 7393,
    "204d616465726f": 7394,
    "207265616374": 7395,
    "207265616374696f6e": 7396,
    "2044c3ad": 7397,
    "2044c3ad617a": 7398,
    "20796c": 7399,
    "207265616765": 7400,
    "2072656167656e74": 7401,
    "6963616e": 7402,
    "20446f6d": 7403,
    "20557261": 7404,
    "205572616e69": 7405,
    "205572616e6961": 7406,
    "2073756c66": 7407,
    "20617373617373": 7408,
    "20726567696d65": 7409,
    "20446f6d696e": 7410,
    "20446f6d696e6963616e": 7411,
    "205a6170": 7412,
    "205a61706174": 7413,
    "204d6578": 7414,
    "69756d": 7415,
    "205a6170617461": 7416,
    "2072656167656e7473": 7417,
    "6f78": 7418,
    "20796c696465": 7419,
    "20707265736964656e74": 7420,
    "206e6f76656c": 7421,
    "69636f": 7422,
    "207265766f6c7574696f6e": 7423,
    "20617373617373696e6174696f6e": 7424,
    "c3a1": 7425,
    "204d657869636f": 7426,
    "204f726f": 7427,
    "204f726f7a": 7428,
    "204f726f7a636f": 7429,
    "6f6e69756d": 7430,
    "20747265617479": 7431,
    "205265707562": 7432,
    "2052657075626c6963": 7433,
    "736b": 7434,
    "736b79": 7435,
    "20476f6174": 7436,
    "7361": 7437,
    "20436f7265": 7438,
    "20436f726579": 7439,
    "2043686179": 7440,
    "20436861796b": 7441,
    "20436861796b6f76": 7442,
    "20436861796b6f76736b79": 7443,
    "205661726761": 7444,
    "20566172676173": 7445,
    "204c6c6f": 7446,
    "204c6c6f7361": 7447,
    "2064696374": 7448,
    "204a6f686e736f6e": 7449,
    "2073796e746865736973": 7450,
    "2065706f78": 7451,
    "6465": 7452,
    "20656e616e74": 7453,
    "20656e616e74696f": 7454,
    "2031393631": 7455,
    "2073756273746974": 7456,
    "206f78": 7457,
    "6962696c697479": 7458,
    "c3b3": 7459,
    "206b696c6c": 7460,
    "746c61": 7461,
    "206469637461746f72": 7462,
    "2073746f72796c696e65": 7463,
    "2073756c667572": 7464,
    "207265616374696f6e73": 7465,
    "756c66": 7466,
    "75746564": 7467,
    "6976697479": 7468,
    "20796c69646573": 7469,
    "6174616c": 7470,
    "6174616c79": 7471,
    "204369": 7472,
    "2043697564": 7473,
    "20436975646164": 7474,
    "c3a17265": 7475,
    "c3a172657a": 7476,
    "207065616365": 7477,
    "2056696c6c61": 7478,
    "204375": 7479,
    "2043756175": 7480,
    "2043756175746c61": 7481,
    "204665617374": 7482,
    "20436162": 7483,
    "2043616272616c": 7484,
    "20636f6e73706972": 7485,
    "c3ad6e": 7486,
    "2065706f7869646573": 7487,
    "69726964": 7488,
    "73656c656374": 7489,
    "2073756c666f6e69756d": 7490,
    "63746976697479": 7491,
    "207265766572736962696c697479": 7492,
    "2062657461696e": 7493,
    "2062657461696e65": 7494,
    "20737562737472617465": 7495,
    "204a75": 7496,
    "204a75c3a172657a": 7497,
    "20506f72": 7498,
    "20506f7266": 7499,
    "20506f72666972": 7500,
    "206669676874696e67": 7501,
    "2052616d": 7502,
    "204261727261": 7503,
    "206c6f7961": 7504,
    "20636f6e7370697261746f7273": 7505,
    "204167757374": 7506,
    "206a6577": 7507,
    "206a6577656c": 7508,
    "20617a": 7509,
    "20617a69726964": 7510,
    "79636c": 7511,
    "206d65746879": 7512,
    "20656e616e74696f73656c656374": 7513,
    "636c65": 7514,
    "20747970": 7515,
    "20636174616c79": 7516,
    "2076696365": 7517,
    "204c696d": 7518,
    "204c696d616e74": 7519,
    "204c696d616e746f7572": 7520,
    "2061677261": 7521,
    "20616772617269616e": 7522,
    "204d6f72656c": 7523,
    "204d6f72656c6f73": 7524,
    "20457374": 7525,
    "20627275": 7526,
    "20617373617373696e73": 7527,
    "20636f727275": 7528,
    "20636f7272757074696f6e": 7529,
    "2066696374": 7530,
    "2066696374696f6e616c": 7531,
    "204167757374c3ad6e": 7532,
    "206c6f79616c": 7533,
    "205475726b": 7534,
    "6f66": 7535,
    "20617a69726964696e6573": 7536,
    "20616c6465": 7537,
    "20616c64656879": 7538,
    "20636f72726573706f6e64696e67": 7539,
    "206469617374": 7540,
    "206469617374657265": 7541,
    "20736572766573": 7542,
    "204164646974696f6e616c6c79": 7543,
    "20656e616e74696f73656c656374697665": 7544,
    "2076617269616e": 7545,
    "7468796c": 7546,
    "73756c66": 7547,
    "6e7a61": 7548,
    "206e75": 7549,
    "206e75636c65": 7550,
    "206e75636c656f70": 7551,
    "206e75636c656f706869": 7552,
    "206e75636c656f7068696c6963": 7553,
    "2073746162": 7554,
    "20636172626f6e": 7555,
    "207479706963616c6c79": 7556,
    "2073756c666f78": 7557,
    "2073756c666f786f6e69756d": 7558,
    "6b796c": 7559,
    "6e7473": 7560,
    "204d65786963616e": 7561,
    "c3b36e": 7562,
    "20436f72": 7563,
    "20696e746572696d": 7564,
    "20726562656c6c": 7565,
    "20726562656c6c696f6e": 7566,
    "2077686f6d": 7567,
    "756572": 7568,
    "2045737461": 7569,
    "2045737461c3": 7570,
    "2045737461c3b1": 7571,
    "2045737461c3b16f6c": 7572,
    "20526166": 7573,
    "2052616661656c": 7574,
    "20746869727479": 7575,
    "20726563616c6c": 7576,
    "20696e6e6572": 7577,
    "2062727574": 7578,
    "2062727574616c": 7579,
    "20416e746f6e": 7580,
    "20416e746f6e696f": 7581,
    "206f7572": 7582,
    "2070726f6f66": 7583,
    "206a6577656c7279": 7584,
    "2072656675736564": 7585,
    "20636f6e636c75646564": 7586,
    "2077696c6c696e67": 7587,
    "206379636c": 7588,
    "2064696173746572656f7365": 7589,
    "2064696173746572656f73656c65": 7590,
    "206d6574686f": 7591,
    "206d657468796c65": 7592,
    "206d657468796c656e65": 7593,
    "2053796e74": 7594,
    "2053796e74686573": 7595,
    "2053796e746865736973": 7596,
    "2076617269616e7473": 7597,
    "2064696d657468796c": 7598,
    "207375627374697475746564": 7599,
    "2062656e7a61": 7600,
    "616e65": 7601,
    "20666163746f7273": 7602,
    "2073656c6563746976697479": 7603,
    "696c697a6564": 7604,
    "696174696f6e73": 7605,
    "207969656c64": 7606,
    "20656e616e74696f6d6572": 7607,
    "20506f72666972696f": 7608,
    "207265766f6c7574696f6e617279": 7609,
    "20436f7272616c": 7610,
    "20656c656374696f6e73": 7611,
    "20616d6e6573": 7612,
    "20616d6e65737479": 7613,
    "c3a9": 7614,
    "20737570706f72746564": 7615,
    "2076696f6c65": 7616,
    "c3ad61": 7617,
    "20737570706f7274657273": 7618,
    "207570726973": 7619,
    "20436869": 7620,
    "2043686968": 7621,
    "204368696875": 7622,
    "2043686968756168": 7623,
    "204368696875616875": 7624,
    "7461": 7625,
    "207265766f6c7574696f6e6172696573": 7626,
    "2072657369676e": 7627,
    "20636162": 7628,
    "20636162696e65": 7629,
    "20636162696e6574": 7630,
    "6973746173": 7631,
    "2061667465726d61": 7632,
    "2061667465726d617468": 7633,
    "2031393936": 7634,
    "2073746f72796c696e6573": 7635,
    "206e61727261": 7636,
    "206e6172726174697665": 7637,
    "2062727574616c697479": 7638,
    "2031393330": 7639,
    "2042616c": 7640,
    "2042616c61677565": 7641,
    "2042616c6167756572": 7642,
    "204162626573": 7643,
    "205349": 7644,
    "2053494d": 7645,
    "20637275656c": 7646,
    "2052616d66": 7647,
    "2052616d666973": 7648,
    "20496d626572": 7649,
    "20496d62657274": 7650,
    "20416d6164": 7651,
    "206d696e74616765": 7652,
    "2031383733": 7653,
    "756d7074696f6e": 7654,
    "20737065636965": 7655,
    "2068696e64": 7656,
    "206c696d6974696e67": 7657,
    "6b696e67": 7658,
    "206b65746f6e": 7659,
    "20616c646568796465": 7660,
    "2072696e67": 7661,
    "20737562737469747574696f6e": 7662,
    "2070726f64756374": 7663,
    "206d6574686f64": 7664,
    "20616c7465726e6174697665": 7665,
    "2073796e746865736573": 7666,
    "20636f6e6365726e6564": 7667,
    "756f7265": 7668,
    "6e796c": 7669,
    "206f627461696e6564": 7670,
    "646573": 7671,
    "2070686f7370": 7672,
    "2073756273657175656e74": 7673,
    "6f73756c66": 7674,
    "616e69756d": 7675,
    "616e69756d796c": 7676,
    "206d657468616e": 7677,
    "206d657468616e696465": 7678,
    "656c6c6564": 7679,
    "67656e": 7680,
    "20626f6e64": 7681,
    "20696e7465726d6564": 7682,
    "20696e7465726d656469617465": 7683,
    "2064696173746572656f73656c6563746976697479": 7684,
    "20726573756c7473": 7685,
    "2066756e6374696f6e616c": 7686,
    "2072617465": 7687,
    "20726f746174696f6e": 7688,
    "20636f6e666f726d": 7689,
    "2073746162696c697479": 7690,
    "206170706c696361": 7691,
    "206170706c69636174696f6e": 7692,
    "73746974": 7693,
    "204966": 7694,
    "20616c6b796c": 7695,
    "617065": 7696,
    "206361726265": 7697,
    "2063617262656e6f": 7698,
    "2063617262656e6f6964": 7699,
    "20636174616c797374": 7700,
    "2072656d61696e73": 7701,
    "6164656d": 7702,
    "6f69636869": 7703,
    "6f696368696f6d65": 7704,
    "6f696368696f6d6574": 7705,
    "6f696368696f6d6574726963": 7706,
    "20636174616c79746963": 7707,
    "74696573": 7708,
    "2052616dc3b36e": 7709,
    "2072657369676e6564": 7710,
    "204a6f73": 7711,
    "204a6f73c3a9": 7712,
    "206a7564676573": 7713,
    "20727572616c": 7714,
    "656374696f6e": 7715,
    "2031393130": 7716,
    "2066616d": 7717,
    "2066616d6f7573": 7718,
    "2076696f6c656e74": 7719,
[...]
